{"0": "\u0100", "1": "\u0101", "2": "\u0102", "3": "\u0103", "4": "\u0104", "5": "\u0105", "6": "\u0106", "7": "\u0107", "8": "\u0108", "9": "\u0109", "10": "\u010a", "11": "\u010b", "12": "\u010c", "13": "\u010d", "14": "\u010e", "15": "\u010f", "16": "\u0110", "17": "\u0111", "18": "\u0112", "19": "\u0113", "20": "\u0114", "21": "\u0115", "22": "\u0116", "23": "\u0117", "24": "\u0118", "25": "\u0119", "26": "\u011a", "27": "\u011b", "28": "\u011c", "29": "\u011d", "30": "\u011e", "31": "\u011f", "32": "\u0120", "33": "!", "34": "\"", "35": "#", "36": "$", "37": "%", "38": "&", "39": "'", "40": "(", "41": ")", "42": "*", "43": "+", "44": ",", "45": "-", "46": ".", "47": "/", "48": "0", "49": "1", "50": "2", "51": "3", "52": "4", "53": "5", "54": "6", "55": "7", "56": "8", "57": "9", "58": ":", "59": ";", "60": "<", "61": "=", "62": ">", "63": "?", "64": "@", "65": "A", "66": "B", "67": "C", "68": "D", "69": "E", "70": "F", "71": "G", "72": "H", "73": "I", "74": "J", "75": "K", "76": "L", "77": "M", "78": "N", "79": "O", "80": "P", "81": "Q", "82": "R", "83": "S", "84": "T", "85": "U", "86": "V", "87": "W", "88": "X", "89": "Y", "90": "Z", "91": "[", "92": "\\", "93": "]", "94": "^", "95": "_", "96": "`", "97": "a", "98": "b", "99": "c", "100": "d", "101": "e", "102": "f", "103": "g", "104": "h", "105": "i", "106": "j", "107": "k", "108": "l", "109": "m", "110": "n", "111": "o", "112": "p", "113": "q", "114": "r", "115": "s", "116": "t", "117": "u", "118": "v", "119": "w", "120": "x", "121": "y", "122": "z", "123": "{", "124": "|", "125": "}", "126": "~", "127": "\u0121", "128": "\u0122", "129": "\u0123", "130": "\u0124", "131": "\u0125", "132": "\u0126", "133": "\u0127", "134": "\u0128", "135": "\u0129", "136": "\u012a", "137": "\u012b", "138": "\u012c", "139": "\u012d", "140": "\u012e", "141": "\u012f", "142": "\u0130", "143": "\u0131", "144": "\u0132", "145": "\u0133", "146": "\u0134", "147": "\u0135", "148": "\u0136", "149": "\u0137", "150": "\u0138", "151": "\u0139", "152": "\u013a", "153": "\u013b", "154": "\u013c", "155": "\u013d", "156": "\u013e", "157": "\u013f", "158": "\u0140", "159": "\u0141", "160": "\u0142", "161": "\u00a1", "162": "\u00a2", "163": "\u00a3", "164": "\u00a4", "165": "\u00a5", "166": "\u00a6", "167": "\u00a7", "168": "\u00a8", "169": "\u00a9", "170": "\u00aa", "171": "\u00ab", "172": "\u00ac", "173": "\u0143", "174": "\u00ae", "175": "\u00af", "176": "\u00b0", "177": "\u00b1", "178": "\u00b2", "179": "\u00b3", "180": "\u00b4", "181": "\u00b5", "182": "\u00b6", "183": "\u00b7", "184": "\u00b8", "185": "\u00b9", "186": "\u00ba", "187": "\u00bb", "188": "\u00bc", "189": "\u00bd", "190": "\u00be", "191": "\u00bf", "192": "\u00c0", "193": "\u00c1", "194": "\u00c2", "195": "\u00c3", "196": "\u00c4", "197": "\u00c5", "198": "\u00c6", "199": "\u00c7", "200": "\u00c8", "201": "\u00c9", "202": "\u00ca", "203": "\u00cb", "204": "\u00cc", "205": "\u00cd", "206": "\u00ce", "207": "\u00cf", "208": "\u00d0", "209": "\u00d1", "210": "\u00d2", "211": "\u00d3", "212": "\u00d4", "213": "\u00d5", "214": "\u00d6", "215": "\u00d7", "216": "\u00d8", "217": "\u00d9", "218": "\u00da", "219": "\u00db", "220": "\u00dc", "221": "\u00dd", "222": "\u00de", "223": "\u00df", "224": "\u00e0", "225": "\u00e1", "226": "\u00e2", "227": "\u00e3", "228": "\u00e4", "229": "\u00e5", "230": "\u00e6", "231": "\u00e7", "232": "\u00e8", "233": "\u00e9", "234": "\u00ea", "235": "\u00eb", "236": "\u00ec", "237": "\u00ed", "238": "\u00ee", "239": "\u00ef", "240": "\u00f0", "241": "\u00f1", "242": "\u00f2", "243": "\u00f3", "244": "\u00f4", "245": "\u00f5", "246": "\u00f6", "247": "\u00f7", "248": "\u00f8", "249": "\u00f9", "250": "\u00fa", "251": "\u00fb", "252": "\u00fc", "253": "\u00fd", "254": "\u00fe", "255": "\u00ff", "256": "\u0120t", "257": "\u0120a", "258": "he", "259": "in", "260": "re", "261": "\u0120the", "262": "on", "263": "er", "264": "\u0120s", "265": "\u0120w", "266": "at", "267": "\u0120o", "268": "en", "269": "\u0120c", "270": "it", "271": "is", "272": "an", "273": "or", "274": "\u0120b", "275": "es", "276": "ed", "277": "\u0120f", "278": "ing", "279": "\u0120p", "280": "ou", "281": "\u0120an", "282": "al", "283": "\u0120to", "284": "ar", "285": "\u0120m", "286": "\u0120in", "287": "\u0120of", "288": "\u0120h", "289": "\u0120d", "290": "\u00e2\u0122", "291": "as", "292": "ic", "293": "\u0120and", "294": "\u0120th", "295": "le", "296": "om", "297": "ion", "298": "ll", "299": "ent", "300": "\u0120n", "301": "\u0120l", "302": "\u0120re", "303": "st", "304": "ve", "305": "\u0120e", "306": "ly", "307": "ro", "308": "\u0120be", "309": "\u0120g", "310": "id", "311": "ut", "312": "ac", "313": "ot", "314": "\u0120T", "315": "\u0120I", "316": "\u0120that", "317": "\u0120on", "318": "ay", "319": "\u0120S", "320": "\u0120is", "321": "et", "322": "im", "323": "am", "324": "ad", "325": "ow", "326": "se", "327": "ig", "328": "\u0120for", "329": "\u00e2\u0122\u013b", "330": "\u0120A", "331": "ver", "332": "ur", "333": "ct", "334": "ld", "335": "\u0120C", "336": "\u0120u", "337": "\u0120st", "338": "\u0120y", "339": "\u0120it", "340": "\u0120he", "341": "ir", "342": "ation", "343": "ith", "344": "\u0120wh", "345": "\u0120M", "346": "ce", "347": "ter", "348": "ol", "349": "\u0120we", "350": "il", "351": "\u0120with", "352": "\u0120as", "353": "\u0120B", "354": "ch", "355": "ill", "356": "nd", "357": "\u0120P", "358": "\u0120was", "359": "ers", "360": "\u0120you", "361": "ke", "362": "\u0120\u00e2\u0122", "363": "\u0120con", "364": "\u0120de", "365": "\u0120r", "366": "her", "367": "if", "368": "ate", "369": "ag", "370": "\u0120at", "371": "\u0120ha", "372": "\u0120W", "373": "\u0120se", "374": "\u0120H", "375": "ore", "376": "\u0120pro", "377": "ul", "378": "pp", "379": "ment", "380": "ri", "381": "\u0120are", "382": "\u0120D", "383": "\u01201", "384": "us", "385": "est", "386": "ist", "387": "\u0120com", "388": "and", "389": "\u0120R", "390": "op", "391": "ain", "392": "\u0120The", "393": "\u01202", "394": "igh", "395": "rom", "396": "end", "397": "\u0120(", "398": "te", "399": "th", "400": "od", "401": "\u0120ne", "402": "\u0120F", "403": "um", "404": "un", "405": "\u0120ex", "406": "res", "407": "ab", "408": "\u00e2\u0122\u013f", "409": "\u0120not", "410": "\u0120N", "411": "\u0120v", "412": "ess", "413": "\u0120have", "414": "ity", "415": "ould", "416": "\u0120or", "417": "\u0120by", "418": "ort", "419": "os", "420": "\u0120G", "421": "ive", "422": "\u0120from", "423": "ant", "424": "\u0120al", "425": "'s", "426": "oc", "427": "\u0120su", "428": "art", "429": "el", "430": "\u0120L", "431": "\u0120sh", "432": "\u0120this", "433": "em", "434": "qu", "435": "nt", "436": "ight", "437": "pe", "438": "ust", "439": "\u0120le", "440": "ies", "441": "\u0120E", "442": "\u0120ch", "443": "\u0120sa", "444": "\u0120ab", "445": "The", "446": "out", "447": "all", "448": "ie", "449": "ack", "450": "red", "451": "00", "452": "\u0120\u00e2\u0122\u013e", "453": "\u0120has", "454": "ally", "455": "\u0120J", "456": "\u0120pl", "457": "\u0120go", "458": "ard", "459": "iv", "460": "\u0120his", "461": "ome", "462": "ap", "463": "ost", "464": "gh", "465": "ear", "466": "\u0120O", "467": "\u0120tr", "468": "our", "469": "\u0120j", "470": "ak", "471": "ud", "472": "\u0120wor", "473": "ast", "474": "\u0120do", "475": "\u0120they", "476": "\u0120but", "477": "rou", "478": "\u0120can", "479": "ge", "480": "\u0120will", "481": "\u0120said", "482": "\u0120whe", "483": "\u0120U", "484": "\u0120k", "485": "ich", "486": "\u0120all", "487": "ok", "488": "\u0120\"", "489": "ide", "490": "\u0120who", "491": "ame", "492": "ans", "493": "ther", "494": "ial", "495": "\u0120out", "496": "ff", "497": "\u0120their", "498": "ong", "499": "pl", "500": "ice", "501": "ure", "502": "one", "503": "\u0120more", "504": "age", "505": "ions", "506": "act", "507": "\u0120up", "508": "ike", "509": "\u0120me", "510": "ous", "511": "ine", "512": "\u0120ad", "513": "ep", "514": "\u0120about", "515": "ated", "516": "ra", "517": "ber", "518": "pt", "519": "\u0120one", "520": "\u0120were", "521": "\u0120so", "522": "\u0120us", "523": "ect", "524": "og", "525": "ime", "526": "\u0120K", "527": "ia", "528": "\u0120had", "529": "are", "530": "ub", "531": "cc", "532": "\u0120would", "533": "\u0120cl", "534": "\u012020", "535": "\u0120im", "536": "\u0120which", "537": "ind", "538": "xt", "539": "ue", "540": "ake", "541": "iz", "542": "very", "543": "\u0120ag", "544": "\u0120te", "545": "\u0120off", "546": "\u0120comp", "547": "\u0120un", "548": "\u0120been", "549": "\u0120int", "550": "so", "551": "\u0120en", "552": "per", "553": "ign", "554": "au", "555": "\u0120cont", "556": "\u0120Th", "557": "ary", "558": "\u0120year", "559": "ip", "560": "ace", "561": "ew", "562": "\u0120like", "563": "ven", "564": "ook", "565": "\u0120inc", "566": "ays", "567": "\u0120man", "568": "\u0120pe", "569": "\u0120In", "570": "ry", "571": "ose", "572": "\u0120res", "573": "able", "574": "ite", "575": "\u0120per", "576": "ass", "577": "ord", "578": "\u0120sp", "579": "ire", "580": "\u0120other", "581": "mer", "582": "\u0120some", "583": "ile", "584": "ib", "585": "ence", "586": "\u0120St", "587": "ople", "588": "\u0120201", "589": "ks", "590": "ations", "591": "\u0120over", "592": "ical", "593": "\u0120there", "594": "ress", "595": "\u0120dis", "596": "ult", "597": "\u0120new", "598": "own", "599": "\u0120also", "600": "\u0120than", "601": "\u0120ar", "602": "\u0120bec", "603": "ru", "604": "\u0120them", "605": "ance", "606": "ough", "607": "\u0120app", "608": "port", "609": "ount", "610": "ail", "611": "ree", "612": "int", "613": "\u0120part", "614": "\u0120your", "615": "\u0120when", "616": "\u0120what", "617": "orm", "618": "ond", "619": "\u0120people", "620": "fter", "621": "\u0120sc", "622": "\u0120Ch", "623": "av", "624": "ase", "625": "\u0120qu", "626": "\u0120any", "627": "\u0120just", "628": "\u0120its", "629": "\u0120Y", "630": "ach", "631": "ction", "632": "\u0120time", "633": "of", "634": "\u0120kn", "635": "\u0120It", "636": "\u0120her", "637": "\u01203", "638": "ens", "639": "lic", "640": "\u0120rec", "641": "reat", "642": "\u0120my", "643": "\u0120get", "644": "\u0120if", "645": "\u0120V", "646": "ian", "647": ".\u00e2\u0122\u013f", "648": "\u0120into", "649": "ound", "650": "\u0120work", "651": "\u0120tw", "652": "irst", "653": "vel", "654": "\u0120no", "655": "du", "656": "ings", "657": "ere", "658": "ory", "659": "ick", "660": "ors", "661": "\u0120our", "662": "ition", "663": "ident", "664": "ob", "665": "\u0120-", "666": "\u0120pre", "667": "ove", "668": "\u0120play", "669": "ang", "670": "ink", "671": "ause", "672": "wn", "673": "text", "674": "amp", "675": "ade", "676": "ates", "677": "hing", "678": "ark", "679": "\u0120ro", "680": "\u0120pol", "681": "\u0120she", "682": "vers", "683": "\u0120co", "684": ",\u00e2\u0122\u013f", "685": "\u0120after", "686": "ne", "687": "\u0120first", "688": "\u0120could", "689": "\u0120how", "690": "\u0120He", "691": "\u012019", "692": "ious", "693": "nder", "694": "ild", "695": "\u0120acc", "696": "\u0120him", "697": "aw", "698": "'t", "699": "ons", "700": "\u0120po", "701": "|>", "702": "<|", "703": "endof", "704": "endoftext", "705": "\u0120only", "706": "\u0120fe", "707": "ict", "708": "hed", "709": "\u0120pr", "710": "rit", "711": "ov", "712": "\u0120two", "713": "ish", "714": "\u0120comm", "715": "\u00e2\u0122\u013e", "716": "\u0120spe", "717": "form", "718": "\u0120act", "719": "erv", "720": "\u0120bl", "721": "we", "722": "\u0120bet", "723": "\u0120dec", "724": ".\"", "725": "ning", "726": "\u0120back", "727": "\u0120most", "728": "ces", "729": "ft", "730": "ood", "731": "ck", "732": "\u0120\u00e2\u0122\u0135", "733": "\u0120am", "734": "oy", "735": "\u0120did", "736": "rough", "737": "iff", "738": "ater", "739": "round", "740": "\u0120again", "741": "\u01204", "742": "ual", "743": "day", "744": "ise", "745": "\u0120under", "746": "\u0120des", "747": "\u0120want", "748": "ull", "749": "sel", "750": "\u0120cons", "751": "\u0120\u00e2\u0122\u0136", "752": "..", "753": "\u0120because", "754": "\u0120now", "755": "lud", "756": "ents", "757": "man", "758": "\u0120years", "759": "tern", "760": "ublic", "761": "\u0120need", "762": "ec", "763": "\u0120even", "764": "\u0120$", "765": "iss", "766": "\u0120inv", "767": "\u0120att", "768": "\u0120know", "769": "\u0120We", "770": "\u0120see", "771": "ments", "772": "ced", "773": "\u0120add", "774": ",\"", "775": "old", "776": "\u0120ind", "777": "ting", "778": "\u0120sec", "779": "fore", "780": "uch", "781": "\u0120every", "782": "urn", "783": "\u01205", "784": "\u0120supp", "785": "\u0120make", "786": "pect", "787": "\u0120Un", "788": "\u0120em", "789": "\u0120these", "790": "ock", "791": "In", "792": "oll", "793": "\u0120where", "794": "ject", "795": "ational", "796": "vern", "797": "\u0120bu", "798": "\u0120look", "799": "Th", "800": "\u0120And", "801": "oss", "802": "\u0120don", "803": "\u0120ev", "804": "ump", "805": "ating", "806": "\u0120way", "807": "\u0120being", "808": "\u0120rem", "809": "ily", "810": "\u0120may", "811": "ng", "812": "row", "813": "lect", "814": "iew", "815": "\u0120then", "816": "\u0120right", "817": "\u0120many", "818": "\u0120[", "819": "\u0120diff", "820": "\u0120def", "821": "ason", "822": "\u0120rel", "823": "\u0120call", "824": "\u0120But", "825": "\u0120Tr", "826": "les", "827": "ied", "828": "ased", "829": "\u0120includ", "830": "\u0120think", "831": "aking", "832": "\u0120reg", "833": ").", "834": "ont", "835": "meric", "836": "\u0120imp", "837": "\u0120through", "838": "ath", "839": "ited", "840": "rib", "841": "\u0120sy", "842": "\u0120should", "843": "\u0120pres", "844": "\u0120say", "845": "\u0120fl", "846": "uring", "847": "\u0120last", "848": "ty", "849": "\u0120those", "850": "ower", "851": "\u0120very", "852": "other", "853": "\u0120much", "854": "ities", "855": "ific", "856": "\u0120state", "857": "\u0120This", "858": "ative", "859": "\u0120show", "860": "tle", "861": "hen", "862": "\u0120br", "863": "ss", "864": "arg", "865": "\u0120well", "866": "oth", "867": "\u0120ph", "868": "\u0120Wh", "869": "als", "870": "und", "871": "\u0120count", "872": "\u0120200", "873": "\u0120does", "874": "\u0120down", "875": "\u0120own", "876": "arly", "877": "\u0120end", "878": "\u0120ass", "879": "\u0120bel", "880": "\u0120use", "881": "ics", "882": "ange", "883": "ts", "884": "--", "885": "\u0120long", "886": "\u0120Americ", "887": "ters", "888": "ince", "889": "\u0120before", "890": "omet", "891": "gr", "892": "\u0120mon", "893": "ward", "894": "\u0120govern", "895": "\u0120start", "896": "\u0120report", "897": "ible", "898": "\u0120ke", "899": "up", "900": "ues", "901": "\u0120New", "902": "oun", "903": "\u0120fin", "904": "\u0120team", "905": "ble", "906": "\u0120made", "907": "ife", "908": "olog", "909": "ren", "910": "ener", "911": "),", "912": "\u0120such", "913": "com", "914": "erson", "915": "ix", "916": "ek", "917": "\u0120sm", "918": "rest", "919": "\u00e2\u0122\u0136", "920": "lp", "921": "ility", "922": "\u0120going", "923": "ism", "924": "ful", "925": "\u0120world", "926": "ually", "927": "\u0120stud", "928": "ists", "929": "\u0120good", "930": "\u0120ac", "931": "tain", "932": "\u0120sub", "933": "\u0120eff", "934": "\u0120sur", "935": "\u0120against", "936": "It", "937": "its", "938": "\u0120game", "939": "\u0120set", "940": "ork", "941": "\u01206", "942": "\u0120gu", "943": "\u0120point", "944": "\u0120ent", "945": "ys", "946": "000", "947": "gan", "948": "ars", "949": "li", "950": "stem", "951": "\u0120prov", "952": "\u0120still", "953": "roup", "954": "\u0120while", "955": "illion", "956": "\u0120help", "957": "\u0120lead", "958": "ell", "959": "\u0120min", "960": "ms", "961": "ween", "962": ".<|", "963": "ax", "964": "ank", "965": "alk", "966": "imes", "967": "\u0120says", "968": "\u0120ob", "969": "cy", "970": "\u0120produ", "971": "ef", "972": "\u0120inte", "973": "\u0120gr", "974": "\u0120inter", "975": "\u0120inst", "976": "\u0120str", "977": "cess", "978": "\u0120sim", "979": "self", "980": "\u0120conf", "981": "\u0120col", "982": "\u0120take", "983": "io", "984": "ures", "985": "arch", "986": "\u0120same", "987": "\u0120though", "988": "\u0120between", "989": "ollow", "990": "\u0120offic", "991": "ever", "992": "\u0120cr", "993": "land", "994": "\u0120differe", "995": "ool", "996": "uss", "997": "ution", "998": "\u0120disc", "999": "air", "1000": "\u0120op", "1001": "ah", "1002": "\u0120ed", "1003": "\u0120high", "1004": "read", "1005": "\u0120num", "1006": "\u0120law", "1007": "\u0120sign", "1008": "way", "1009": "\u0120government", "1010": "gg", "1011": "led", "1012": "\u0120Re", "1013": "ner", "1014": "hip", "1015": "atch", "1016": "hes", "1017": "ames", "1018": "any", "1019": "\u0120ter", "1020": "\u0120somet", "1021": "cent", "1022": "ten", "1023": "velop", "1024": "ted", "1025": "We", "1026": "\u0120ref", "1027": "\u0120trans", "1028": "\u0120ins", "1029": "\u0120run", "1030": "\u0120ser", "1031": "\u0120found", "1032": "\u0120three", "1033": "ives", "1034": "ave", "1035": "\u0120mem", "1036": "\u0120around", "1037": "\u0120here", "1038": "ather", "1039": "\u0120med", "1040": "\u0120real", "1041": "\u0120used", "1042": "ouse", "1043": "\u012010", "1044": "ved", "1045": "\u0120exp", "1046": "az", "1047": "\u0120Ar", "1048": "cept", "1049": "oot", "1050": "\u0120system", "1051": "\u0120You", "1052": "ci", "1053": "\u0120really", "1054": "\u0120mod", "1055": "ving", "1056": "con", "1057": "cer", "1058": "\u0120group", "1059": "\u0120support", "1060": "\u01207", "1061": "\u0120cour", "1062": "ets", "1063": "ale", "1064": "ins", "1065": "\u0120car", "1066": "\u0120ret", "1067": "\u0120hand", "1068": "\u0120public", "1069": "\u0120spec", "1070": "pr", "1071": "ph", "1072": "\u0120Le", "1073": "ying", "1074": "\u0120great", "1075": "ense", "1076": "\u0120ext", "1077": "ton", "1078": ".[", "1079": "irect", "1080": "\u0120cur", "1081": "\u0120fam", "1082": "\u0120Com", "1083": "alth", "1084": "\u0120happ", "1085": "\u0120fact", "1086": "\u0120exper", "1087": "\u0120They", "1088": "\u0120Trump", "1089": "\u0120fr", "1090": "\u0120wom", "1091": "\u0120Is", "1092": "\u0120cap", "1093": "\u0120both", "1094": "\u0120day", "1095": "\u0120find", "1096": "\u0120Al", "1097": "ular", "1098": "\u0120read", "1099": "ines", "1100": "oh", "1101": "ices", "1102": "\u0120det", "1103": "\u0120lit", "1104": "\u0120sl", "1105": "\u0120rep", "1106": "uth", "1107": "\u0120during", "1108": "\u0120Sh", "1109": "\u0120As", "1110": "\u01200", "1111": "\u0120serv", "1112": "the", "1113": "min", "1114": "\u0120month", "1115": "ision", "1116": "\u0120develop", "1117": "\u0120big", "1118": "\u01208", "1119": "\u0120person", "1120": "akes", "1121": "\u0120follow", "1122": "\u0120cre", "1123": "\u0120Cl", "1124": "\u0120iss", "1125": "\u0120told", "1126": "\u0120since", "1127": "ared", "1128": "med", "1129": "ically", "1130": "\u0120week", "1131": "ages", "1132": "ivers", "1133": "\u0120war", "1134": "\u0120few", "1135": "ording", "1136": "\u0120cent", "1137": "\u0120leg", "1138": "aj", "1139": "ex", "1140": "get", "1141": "\u0120polit", "1142": "ves", "1143": "ash", "1144": "\u0120expl", "1145": "ered", "1146": "\u0120lot", "1147": "ric", "1148": "\u0120belie", "1149": "\u0120gener", "1150": "\u0120too", "1151": "\u01209", "1152": "der", "1153": "ata", "1154": "rent", "1155": "\u0120opp", "1156": "Wh", "1157": "\u0120requ", "1158": "\u0120contin", "1159": "iet", "1160": "bers", "1161": "anc", "1162": "\u0120fil", "1163": "\u0120cor", "1164": "ention", "1165": "ness", "1166": "\u0120cle", "1167": "\u0120resp", "1168": "\u0120put", "1169": "ized", "1170": "\u0120If", "1171": "\u0120another", "1172": "20", "1173": "chool", "1174": "\u0120inf", "1175": "\u0120something", "1176": "\u0120different", "1177": "\u0120loc", "1178": "\u0120De", "1179": "ute", "1180": "\u0120invest", "1181": "\u0120soc", "1182": "\u0120power", "1183": "\u0120che", "1184": "uc", "1185": "\u0120'", "1186": "\u0120pass", "1187": "\u0120commun", "1188": "\u0120life", "1189": "\u0120Fr", "1190": "\u0120plan", "1191": "ody", "1192": "\u0120rele", "1193": "ience", "1194": "\u0120head", "1195": "\u0120things", "1196": "ned", "1197": "thing", "1198": "\u0120far", "1199": "ox", "1200": "\u0120art", "1201": "\u0120poss", "1202": "\u0120met", "1203": "\u0120camp", "1204": "ross", "1205": "arge", "1206": "\u0120vot", "1207": "ier", "1208": "This", "1209": "view", "1210": "\u0120child", "1211": "ants", "1212": "\u0120ask", "1213": "\u0120might", "1214": "\u0120each", "1215": "ize", "1216": "\u0120dep", "1217": "iness", "1218": "\u0120.", "1219": "\u0120never", "1220": "\u0120next", "1221": "\u0120For", "1222": "ik", "1223": "\u0120An", "1224": "ield", "1225": "\u0120second", "1226": "\u0120mark", "1227": "\u0120quest", "1228": "\u0120bus", "1229": "\u0120adv", "1230": "\u0120dem", "1231": "\u0120come", "1232": "\u0120got", "1233": "\u0120\u00e2\u0122\u013a", "1234": "ret", "1235": "\u0120open", "1236": "\u0120best", "1237": "ient", "1238": "ital", "1239": "\u0120allow", "1240": "\u0120That", "1241": "rat", "1242": "\u0120seem", "1243": "\u0120post", "1244": "ple", "1245": "tem", "1246": "nce", "1247": "\u0120feel", "1248": "\u0120Pro", "1249": "\u0120US", "1250": "ug", "1251": "\u0120pri", "1252": "gram", "1253": "\u0120percent", "1254": "cl", "1255": "\u0120home", "1256": "\u0120dist", "1257": "\u0120direct", "1258": "ired", "1259": "\u0120incre", "1260": "\u0120contro", "1261": "\u0120Rep", "1262": "son", "1263": "less", "1264": "orn", "1265": "osed", "1266": "\u0120result", "1267": "\u0120hard", "1268": "\u0120care", "1269": "ately", "1270": "\u0120million", "1271": "chn", "1272": "\u0120comple", "1273": "\u0120place", "1274": "\u0120without", "1275": "\u0120inform", "1276": "\u0120including", "1277": "\u0120import", "1278": "\u0120av", "1279": "conom", "1280": "\u0120hum", "1281": "\u0120ide", "1282": "\u0120proble", "1283": "\u0120build", "1284": "\u0120top", "1285": "ama", "1286": "\u0120number", "1287": "\u0120country", "1288": "gy", "1289": "oney", "1290": "aim", "1291": "\u0120Bl", "1292": "ral", "1293": "tt", "1294": "ably", "1295": "uro", "1296": "\u0120stand", "1297": "\u0120gl", "1298": "\u0120el", "1299": "riend", "1300": "\u0120four", "1301": "ished", "1302": "ways", "1303": "\u0120partic", "1304": "\u0120better", "1305": "\u0120tri", "1306": "But", "1307": "\u0120recent", "1308": "co", "1309": "\u0120interest", "1310": "\u0120mov", "1311": "\u0120let", "1312": "ration", "1313": "\u0120season", "1314": "\u0120less", "1315": "\u0120turn", "1316": "\u0120little", "1317": "\u0120beh", "1318": "\u0120mil", "1319": "ead", "1320": "\u0120appro", "1321": "ract", "1322": "line", "1323": "\u0120bro", "1324": "ling", "1325": "ised", "1326": "\u0120called", "1327": "app", "1328": "10", "1329": "\u0120case", "1330": "\u0120dr", "1331": "\u0120Ind", "1332": "\u0120rest", "1333": "\u0120left", "1334": "\u0120pop", "1335": "\u0120ann", "1336": "\u0120Z", "1337": "ency", "1338": "\u0120move", "1339": "ode", "1340": "ina", "1341": "\u0120attack", "1342": "\u0120There", "1343": "\u0120keep", "1344": "\u0120full", "1345": "ering", "1346": "\u0120didn", "1347": "be", "1348": "\u0120fun", "1349": "\u0120main", "1350": "ajor", "1351": "__", "1352": "\u0120effect", "1353": "inal", "1354": "me", "1355": "leg", "1356": "\u0120prev", "1357": "\u0120program", "1358": "\u0120using", "1359": "to", "1360": "\u0120test", "1361": "\u0120pay", "1362": "ature", "1363": "\u0120ear", "1364": "\u0120val", "1365": "\u0120police", "1366": "\u0120writ", "1367": "\u0120form", "1368": "\u0120econom", "1369": "\u0120data", "1370": "\u0120news", "1371": "\u0120pos", "1372": "\u0120win", "1373": "\u0120char", "1374": "\u0120American", "1375": "\u0120level", "1376": "\u0120sit", "1377": "ains", "1378": "iving", "1379": "uck", "1380": "\u0120small", "1381": "ined", "1382": "ready", "1383": "He", "1384": "\u0120school", "1385": "\u0120list", "1386": "ology", "1387": "rap", "1388": "mit", "1389": "ided", "1390": "ploy", "1391": "'re", "1392": "ger", "1393": "\u0120eas", "1394": "\u0120process", "1395": "ird", "1396": "\u0120change", "1397": "orth", "1398": "\u0120women", "1399": "\u0120current", "1400": "\u0120rece", "1401": "\u0120prom", "1402": "\u0120hist", "1403": "\u0120dri", "1404": "\u0120=", "1405": "ians", "1406": "reen", "1407": "\u0120president", "1408": "\u0120company", "1409": "used", "1410": "\u0120mat", "1411": "ruct", "1412": "\u0120already", "1413": "ohn", "1414": "\u0120United", "1415": "wit", "1416": "\u0120ty", "1417": "\u0120why", "1418": "\u0120bre", "1419": "\u0120unt", "1420": "\u0120money", "1421": "\u0120sol", "1422": "\u0120always", "1423": "\u0120later", "1424": "\u0120expect", "1425": "\u0120techn", "1426": "\u0120business", "1427": "\u0120How", "1428": "\u0120official", "1429": "ron", "1430": "\u0120Q", "1431": "\u0120Ob", "1432": "stand", "1433": "iversity", "1434": "\u0120book", "1435": "\u0120bo", "1436": "\u0120Ph", "1437": "aign", "1438": "\u0120thing", "1439": "\u0120class", "1440": "\u0120project", "1441": "ases", "1442": "\u0120claim", "1443": "\u0120job", "1444": "\u0120information", "1445": "\u0120organ", "1446": "aff", "1447": "\u0120She", "1448": "\u0120talk", "1449": "ards", "1450": "\u0120Be", "1451": "\u0120design", "1452": "\u0120story", "1453": "\u0120chang", "1454": "\u0120major", "1455": "\u0120able", "1456": "\u0120prof", "1457": "\u0120--", "1458": "lection", "1459": "iven", "1460": "ertain", "1461": "\u0120rese", "1462": "\u0120health", "1463": "\u0120vis", "1464": "urs", "1465": "\u0120free", "1466": "outh", "1467": "here", "1468": "\u0120Ad", "1469": "\u0120oper", "1470": "\u0120So", "1471": "\u0120away", "1472": "ior", "1473": "\u0120Can", "1474": "\u0120must", "1475": "\u0120city", "1476": "ample", "1477": "...", "1478": "rist", "1479": "sc", "1480": "ural", "1481": "\u0120happen", "1482": "uthor", "1483": "\u012018", "1484": "acy", "1485": "urity", "1486": "\u0120important", "1487": "\u0120kill", "1488": "\u0120sk", "1489": "ption", "1490": "\u0120est", "1491": "ured", "1492": "\u0120old", "1493": "\u0120past", "1494": "\u0120pat", "1495": "\u0120Se", "1496": "ury", "1497": "ending", "1498": "\u0120doesn", "1499": "ission", "1500": "\u0120least", "1501": "\u0120grow", "1502": "\u0120edit", "1503": "\u0120var", "1504": "ained", "1505": "\u0120cost", "1506": "ney", "1507": "ider", "1508": "\u0120Go", "1509": "ides", "1510": "\u0120days", "1511": "\u0120tell", "1512": "\u0120hop", "1513": "\u0120campaign", "1514": "side", "1515": "\u0120stre", "1516": "\u012012", "1517": "\u0120men", "1518": "\u0120came", "1519": "\u0120aff", "1520": "\u0120Mar", "1521": "\u0120const", "1522": "resident", "1523": "\u0120enough", "1524": "\u0120view", "1525": "ccess", "1526": "\u0120kind", "1527": "\u0120Sp", "1528": "oad", "1529": "ern", "1530": "\u0120making", "1531": "els", "1532": "\u0120large", "1533": "\u0120record", "1534": "50", "1535": "ush", "1536": "\u0120mar", "1537": "\u0120friend", "1538": "\u0120family", "1539": "\u00e2\u0122\u00a6", "1540": "ley", "1541": "\u0120elect", "1542": "eral", "1543": "\u0120polic", "1544": "\u0120tax", "1545": "ising", "1546": "by", "1547": "pped", "1548": "ality", "1549": "ator", "1550": "ified", "1551": "As", "1552": "ived", "1553": "ror", "1554": "\u0120until", "1555": "arent", "1556": "ional", "1557": "\u0120political", "1558": "\u0120vide", "1559": "\u0120deal", "1560": "ries", "1561": "alf", "1562": "augh", "1563": "\u0120ve", "1564": "\u0120working", "1565": "ued", "1566": "\u0120Republic", "1567": "\u0120took", "1568": "\u0120deb", "1569": "bs", "1570": "If", "1571": "ister", "1572": "\u0120line", "1573": "\u0120John", "1574": "aining", "1575": "\u0120air", "1576": "----", "1577": "\u0120es", "1578": "ane", "1579": "\u0120intern", "1580": "\u0120fore", "1581": "iol", "1582": "ocrat", "1583": "\u0120become", "1584": "\u0120actually", "1585": "aps", "1586": "ony", "1587": "\u0120mean", "1588": "work", "1589": "\u0120Sc", "1590": "\u0120fund", "1591": "ware", "1592": "19", "1593": "\u0120Pl", "1594": "St", "1595": "\u0120former", "1596": "\u0120often", "1597": "\u0120Euro", "1598": "ann", "1599": "ott", "1600": "\u0120won", "1601": "\u0120give", "1602": "\u0120according", "1603": "\u0120ever", "1604": "most", "1605": "eng", "1606": "year", "1607": "\u0120prote", "1608": "wh", "1609": "aring", "1610": "\u0120games", "1611": "ison", "1612": "\u0120human", "1613": "\u0120bas", "1614": "\u0120word", "1615": "ization", "1616": "\u0120return", "1617": "\u0120times", "1618": "\u0120order", "1619": "\u0120Russ", "1620": "\u0120bit", "1621": "\u0120Dem", "1622": "\u0120name", "1623": "oint", "1624": "11", "1625": "gin", "1626": "\u0120sever", "1627": "\u0120Con", "1628": "\u0120All", "1629": "\u0120par", "1630": "\u0120dev", "1631": "icle", "1632": "for", "1633": "uture", "1634": "ither", "1635": "iqu", "1636": "\u0120199", "1637": "\u0120Mc", "1638": "\u0120At", "1639": "\u0120wr", "1640": "raft", "1641": "\u0120sing", "1642": "\u0120perform", "1643": "\u0120Sy", "1644": "idd", "1645": "\u0120market", "1646": "\u0120fac", "1647": "\u0120charac", "1648": "There", "1649": "\u0120Or", "1650": "\u0120May", "1651": "\u0120ra", "1652": "\u0120doing", "1653": "\u0120appear", "1654": "ER", "1655": "ched", "1656": "\u0120players", "1657": "\u0120la", "1658": "\u0120night", "1659": "\u0120lear", "1660": "aken", "1661": "rop", "1662": "ats", "1663": "mber", "1664": "\u0120today", "1665": "\u0120early", "1666": "\u012015", "1667": "\u0120seen", "1668": "//", "1669": "\u0120having", "1670": "\u0120,", "1671": "\u0120pot", "1672": "\u0120children", "1673": "\u0120event", "1674": "\u0120media", "1675": "\u0120social", "1676": "\u0120crit", "1677": "\u0120President", "1678": "\u0120whether", "1679": "\u0120several", "1680": "\u0120control", "1681": "idence", "1682": "ene", "1683": "\u0120meet", "1684": "sh", "1685": "\u0120milit", "1686": "\u0120press", "1687": "\u0120went", "1688": "artment", "1689": "\u0120five", "1690": "\u0120young", "1691": "ories", "1692": "\u0120prop", "1693": "iously", "1694": "\u0120sure", "1695": "\u0120equ", "1696": "\u0120question", "1697": "\u0120occ", "1698": "une", "1699": "\u0120likely", "1700": "vert", "1701": "\u0120members", "1702": "br", "1703": "\u0120certain", "1704": "ium", "1705": "ands", "1706": "\u0120eng", "1707": "\u0120water", "1708": "\u0120York", "1709": "\u0120example", "1710": "ots", "1711": "\u0120Col", "1712": "\u0120side", "1713": "\u0120arg", "1714": "\u0120done", "1715": "enn", "1716": "\u0120vers", "1717": "\u0120ant", "1718": "\u0120invol", "1719": "\u0120Mr", "1720": "\u0120States", "1721": "\u0120Europe", "1722": "ended", "1723": "let", "1724": "\u0120along", "1725": "\u0120short", "1726": "\u0120success", "1727": "ee", "1728": "ential", "1729": "\u0120months", "1730": "ball", "1731": "\u0120hour", "1732": "\u012011", "1733": "\u0120Ste", "1734": "iver", "1735": "ially", "1736": "And", "1737": "\u0120sex", "1738": "lf", "1739": "\u0120within", "1740": "\u0120desc", "1741": "imate", "1742": "\u0120course", "1743": "\u0120fight", "1744": "urch", "1745": "ubl", "1746": "\u0120among", "1747": "\u0120activ", "1748": "uff", "1749": "\u00e2\u0122\u0135", "1750": "ague", "1751": "\u0120once", "1752": "ster", "1753": "\u0120future", "1754": "\u0120investig", "1755": "ulation", "1756": "rew", "1757": "\u0120possible", "1758": "\u0120Obama", "1759": "\u0120cho", "1760": "nect", "1761": "\u0120Car", "1762": "\u0120understand", "1763": "iting", "1764": "\u0120concer", "1765": "\u0120On", "1766": "\u0120]", "1767": "ones", "1768": "ortun", "1769": "\u0120problem", "1770": "\u0120Br", "1771": "\u0120priv", "1772": "\u0120means", "1773": "\u0120viol", "1774": "\u0120author", "1775": "itive", "1776": "ggest", "1777": "\u0120No", "1778": "\u0120avail", "1779": "oci", "1780": "ourn", "1781": "my", "1782": "\u0120known", "1783": "\u0120product", "1784": "\u0120non", "1785": "ivid", "1786": "\u0120thought", "1787": "\u0120yet", "1788": "gress", "1789": "\u0120across", "1790": "\u0120local", "1791": "ald", "1792": "ler", "1793": "\u0120hold", "1794": "\u0120Te", "1795": "\u0120fail", "1796": "\u0120When", "1797": "\u0120State", "1798": "inc", "1799": "\u0120community", "1800": "\u0120reason", "1801": "\u0120orig", "1802": "\u0120suggest", "1803": "\u0120&", "1804": "12", "1805": "\u0120makes", "1806": "verage", "1807": "por", "1808": "not", "1809": "back", "1810": "\u01202016", "1811": "\u0120i", "1812": "book", "1813": "\u0120asked", "1814": "ederal", "1815": "orld", "1816": "\u0120reported", "1817": "You", "1818": "aged", "1819": "ensive", "1820": "\u0120given", "1821": "\u0120strong", "1822": "\u0120prob", "1823": "\u0120mus", "1824": "\u0120others", "1825": "\u0120believe", "1826": "\u0120video", "1827": "iber", "1828": "\u0120ben", "1829": "\u0120getting", "1830": "\u0120House", "1831": "ances", "1832": "\u0120announ", "1833": "\u0120light", "1834": "ored", "1835": "ober", "1836": "\u0120University", "1837": "\u012030", "1838": "itions", "1839": "\u0120ident", "1840": "iron", "1841": "\u0120sent", "1842": "\u0120cut", "1843": "\u0120lim", "1844": "\u0120ca", "1845": "\u0120Christ", "1846": "\u0120Co", "1847": "iety", "1848": "30", "1849": "urther", "1850": "\u0120sour", "1851": "\u0120creat", "1852": "\u0120cond", "1853": "\u0120X", "1854": "ams", "1855": "'ve", "1856": "\u0120net", "1857": "ashing", "1858": "\u0120bat", "1859": "ament", "1860": "\u0120national", "1861": ".,", "1862": "\u0120close", "1863": "\u0120started", "1864": "\u0120saf", "1865": "\u0120death", "1866": "aster", "1867": "\u0120available", "1868": "arm", "1869": "For", "1870": "\u0120hig", "1871": "\u0120based", "1872": "\u0120issue", "1873": "\u0120indust", "1874": "\u0120Min", "1875": "\u0120Democrat", "1876": "\u0120low", "1877": "\u0120following", "1878": "resent", "1879": "\u0120account", "1880": "\u0120land", "1881": "use", "1882": "\u0120Cent", "1883": "\u0120employ", "1884": "\u0120love", "1885": "\u01202015", "1886": "\u0120#", "1887": "\u0120history", "1888": "\u0120ago", "1889": "orts", "1890": "selves", "1891": "\u0120mom", "1892": "\u0120party", "1893": "ability", "1894": "\u0120series", "1895": "\u0120comes", "1896": "\u0120trying", "1897": "uly", "1898": "utes", "1899": "\u0120almost", "1900": "\u0120Am", "1901": "gether", "1902": "ument", "1903": "\u0120together", "1904": "ination", "1905": "AT", "1906": "\u0120America", "1907": "\u0120idea", "1908": "pro", "1909": "ief", "1910": "\u0120access", "1911": "\u0120foc", "1912": "eb", "1913": "hers", "1914": "ilar", "1915": "\u0120Fl", "1916": "reed", "1917": "ails", "1918": "\u0120commit", "1919": "itional", "1920": "\u0120isn", "1921": "\u0120Sen", "1922": "\u0120clear", "1923": "\u012016", "1924": "\u0120One", "1925": "\u0120trad", "1926": "though", "1927": "ring", "1928": "\u0120What", "1929": "\u0120pract", "1930": "\u0120added", "1931": "\u0120impro", "1932": "\u0120experience", "1933": "erence", "1934": "\u0120film", "1935": "15", "1936": "\u0120half", "1937": "ustom", "1938": "ged", "1939": "\u0120hit", "1940": "af", "1941": "\u0120Bro", "1942": "witter", "1943": "rict", "1944": "\u0120anal", "1945": "\u0120prot", "1946": "inton", "1947": "ograp", "1948": "unch", "1949": "\u01202014", "1950": "\u0120rul", "1951": "ividual", "1952": "\u0120looking", "1953": "\u0120six", "1954": "\u0120live", "1955": "\u0120anything", "1956": "\u0120area", "1957": "\u0120complete", "1958": "erman", "1959": "minist", "1960": "\u0120miss", "1961": "rael", "1962": "\u0120Comm", "1963": "\u0120fav", "1964": "\u0120Ex", "1965": "tempt", "1966": "\u0120ris", "1967": "ai", "1968": "nes", "1969": "\u0120present", "1970": "ote", "1971": "rug", "1972": "\u0120saying", "1973": "raw", "1974": "aid", "1975": "\u0120Canad", "1976": "\u0120vict", "1977": "IN", "1978": "cially", "1979": "\u0120bad", "1980": "ows", "1981": "uge", "1982": "\u0120taken", "1983": "\u0120entire", "1984": "ert", "1985": "oto", "1986": "\u0120Pr", "1987": "ators", "1988": "\u0120mor", "1989": "\u0120bill", "1990": "\u0120compet", "1991": "\u0120Eng", "1992": "\u0120behind", "1993": "ien", "1994": "\u0120aut", "1995": "'m", "1996": "\u0120To", "1997": "\u0120court", "1998": "play", "1999": "\u0120try", "2000": "\u0120tre", "2001": "wards", "2002": "\u0120military", "2003": "\u0120z", "2004": "\u0120near", "2005": "osp", "2006": "What", "2007": "\u0120face", "2008": "\u0120mult", "2009": "\u012014", "2010": "\u0120security", "2011": "\u0120er", "2012": "\u0120Pol", "2013": "ps", "2014": "ev", "2015": "\u0120proper", "2016": "\u0120discuss", "2017": "\u0120threat", "2018": "\u0120study", "2019": "\u0120single", "2020": "\u0120rather", "2021": "\u0120individual", "2022": "\u0120Af", "2023": "\u0120War", "2024": "\u0120Brit", "2025": "\u0120sw", "2026": "\u0120\u00c2", "2027": "\u0120quick", "2028": "\u0120tot", "2029": "\u0120Don", "2030": "An", "2031": "\u0120mind", "2032": "\u0120Sec", "2033": "lement", "2034": "ales", "2035": "amed", "2036": "atic", "2037": "\u0120North", "2038": "aper", "2039": "\u0120publ", "2040": "par", "2041": "\u0120policy", "2042": "\u0120mess", "2043": "ris", "2044": "\u0120black", "2045": "\u0120wanted", "2046": "\u0120fall", "2047": "irc", "2048": "**", "2049": "off", "2050": "\u0120food", "2051": "\u0120sum", "2052": "\u0120someone", "2053": "lling", "2054": "ids", "2055": "On", "2056": "\u0120Dep", "2057": "\u0120Man", "2058": "\u0120/", "2059": "\u0120cult", "2060": "\u0120special", "2061": "\u0120comb", "2062": "\u0120key", "2063": "\u0120player", "2064": "\u0120redu", "2065": "\u0120|", "2066": "\u0120Gr", "2067": "\u0120bring", "2068": "\u012013", "2069": "\u0120compan", "2070": "\u012017", "2071": "ply", "2072": "rote", "2073": "\u0120attempt", "2074": "\u0120Bar", "2075": "\u0120National", "2076": "\u0120taking", "2077": "When", "2078": "yn", "2079": "ON", "2080": "ify", "2081": "olution", "2082": "\u0120:", "2083": "viron", "2084": "\u0120foot", "2085": "\u0120Cal", "2086": "://", "2087": "\u0120else", "2088": "\u0120pret", "2089": "\u0120body", "2090": "\u0120space", "2091": "over", "2092": "dd", "2093": "\u0120coun", "2094": "elt", "2095": "\u0120probably", "2096": "16", "2097": "icult", "2098": ".)", "2099": "\u0120front", "2100": "\u0120cou", "2101": "\u0120nothing", "2102": "ashington", "2103": "\u0120Im", "2104": "\u0120connect", "2105": "ches", "2106": "\u0120World", "2107": "\u0120research", "2108": "14", "2109": "ming", "2110": "\u0120Clinton", "2111": "\u0120City", "2112": "\u0120coming", "2113": "\u0120points", "2114": "\u0120Israel", "2115": "RE", "2116": "\u0120however", "2117": "\u0120describ", "2118": "go", "2119": "\u0120jo", "2120": "\u0120signific", "2121": "\u0120similar", "2122": "lier", "2123": "reme", "2124": "cing", "2125": "\u0120benef", "2126": "\u0120Aust", "2127": "\u0120decision", "2128": "\u0120either", "2129": "aces", "2130": "\u0120Har", "2131": "ault", "2132": "\u0120mass", "2133": "mb", "2134": "\u0120sus", "2135": "\u0120targ", "2136": "ully", "2137": "sy", "2138": "ana", "2139": "\u0120feat", "2140": "That", "2141": "\u0120imm", "2142": "\u0120conv", "2143": "\u0120exist", "2144": "irl", "2145": "\u0120enc", "2146": "\u01202013", "2147": "\u0120rights", "2148": "\u0120service", "2149": "\u0120Su", "2150": "asing", "2151": "ung", "2152": "IS", "2153": "oon", "2154": "\u0120fire", "2155": "\u0120doc", "2156": "\u0120wrote", "2157": "\u0120further", "2158": "\u0120house", "2159": "rodu", "2160": "\u0120ban", "2161": "ww", "2162": "\u0120fig", "2163": "\u0120chall", "2164": "\u0120third", "2165": "\u0120protect", "2166": "\u0120wa", "2167": "\u0120create", "2168": "sw", "2169": "\u0120stop", "2170": "\u0120field", "2171": "now", "2172": "\u0120pick", "2173": "AN", "2174": "ape", "2175": "ively", "2176": "\u0120meas", "2177": "\u0120repl", "2178": "\u0120compl", "2179": "\u0120With", "2180": "\u0120issues", "2181": "pping", "2182": "\u0120begin", "2183": "\u0120super", "2184": "amer", "2185": "\u0120step", "2186": "ried", "2187": "ently", "2188": "\u0120whole", "2189": "\u0120relations", "2190": "\u0120seems", "2191": "\u0120)", "2192": "\u0120tem", "2193": "\u0120companies", "2194": "pecially", "2195": "\u0120due", "2196": "\u0120exec", "2197": "\u0120cand", "2198": "\u0120everything", "2199": "\u0120federal", "2200": "\u0120states", "2201": "\u0120Gu", "2202": "\u0120ey", "2203": "\u0120room", "2204": "aul", "2205": "\u0120tra", "2206": "\u0120watch", "2207": "\u0120Ge", "2208": "\u0120custom", "2209": "\u0120leaders", "2210": "ran", "2211": "13", "2212": "uation", "2213": "\u0120However", "2214": "pite", "2215": "\u0120Jan", "2216": "\u0120Washington", "2217": "Ch", "2218": "lam", "2219": "\u0120self", "2220": "\u0120role", "2221": "ilt", "2222": "\u0120sound", "2223": "\u0120lab", "2224": "head", "2225": "\u0120dam", "2226": "ivil", "2227": "\u0120officials", "2228": "\u0120stri", "2229": "So", "2230": "lu", "2231": "\u01202012", "2232": "iday", "2233": "ibility", "2234": "\u0120released", "2235": "\u0120Inst", "2236": "\u0120began", "2237": "\u0120Dav", "2238": "\u0120App", "2239": "\u0120South", "2240": "\u0120opt", "2241": "obal", "2242": "\u0120students", "2243": "\u0120treat", "2244": "eal", "2245": "\u0120final", "2246": "\u0120character", "2247": "\u0120position", "2248": "\u0120matter", "2249": "\u00c3\u00a9", "2250": "ender", "2251": "\u0120ener", "2252": "lim", "2253": "\u0120outside", "2254": "\u0120dou", "2255": "ery", "2256": "sec", "2257": "ades", "2258": "vironment", "2259": "\u0120development", "2260": "\u0120statement", "2261": "\u0120himself", "2262": "\u01202017", "2263": "\u0120stat", "2264": "\u0120above", "2265": "like", "2266": "\u0120init", "2267": "\u0120break", "2268": "\u0120100", "2269": "\u0120amount", "2270": "\u0120provide", "2271": "att", "2272": "\u0120hours", "2273": "\u0120itself", "2274": "\u0120themselves", "2275": "\u0120office", "2276": "\u0120represent", "2277": "\u0120action", "2278": "\u0120di", "2279": "\u0120became", "2280": "\u0120198", "2281": "\u0120general", "2282": "\u0120continue", "2283": "\u0120Part", "2284": "\u0120countries", "2285": "\u0120Intern", "2286": "\u0120neg", "2287": "iod", "2288": "\u0120address", "2289": "tee", "2290": "\u012025", "2291": "\u0120gun", "2292": "aced", "2293": "ask", "2294": "\u0120true", "2295": "\u0120specific", "2296": "ograph", "2297": "umb", "2298": "arter", "2299": "reg", "2300": "\u0120larg", "2301": "\u0120significant", "2302": "lish", "2303": "\u0120simply", "2304": "\u0120Ass", "2305": "\u0120Res", "2306": "\u0120wasn", "2307": "'ll", "2308": "\u0120interview", "2309": "acebook", "2310": "ili", "2311": "\u0120ground", "2312": "\u0120rad", "2313": "oid", "2314": "ogn", "2315": "\u0120difficult", "2316": "\u0120running", "2317": "\u0120Just", "2318": "\u0120evidence", "2319": "\u0120administ", "2320": "BC", "2321": "\u0120cop", "2322": "17", "2323": "ream", "2324": "\u0120drug", "2325": "\u0120version", "2326": "\u0120bar", "2327": "ogle", "2328": "\u0120Ed", "2329": "\u0120agree", "2330": "iddle", "2331": "eks", "2332": "\u0120building", "2333": "\u0120China", "2334": "\u0120needs", "2335": "\u0120profess", "2336": "angu", "2337": "\u0120groups", "2338": "\u0120typ", "2339": "\u0120respons", "2340": "\u0120common", "2341": "\u0120shows", "2342": "\u0120everyone", "2343": "\u0120dom", "2344": "\u0120dest", "2345": "\u0120needed", "2346": "\u0120ball", "2347": "\u0120woman", "2348": "\u0120German", "2349": "\u0120lat", "2350": "\u0120below", "2351": "right", "2352": "\u0120Sep", "2353": "light", "2354": "ournal", "2355": "\u0120music", "2356": "\u0120exc", "2357": "\u0120release", "2358": "ift", "2359": "\u0120inj", "2360": "\u0120pretty", "2361": "\u0120Med", "2362": "\u0120Ab", "2363": "AR", "2364": "ribut", "2365": "\u0120include", "2366": "\u0120saw", "2367": "\u0120deep", "2368": "body", "2369": "\u0120ap", "2370": "18", "2371": "\u0120played", "2372": "\u0120quite", "2373": "\u0120industry", "2374": "\u0120charg", "2375": "\u0120mag", "2376": "\u0120energy", "2377": "\u0120playing", "2378": "\u0120mot", "2379": "\u012050", "2380": "\u0120candid", "2381": "\u0120sense", "2382": "\u0120phys", "2383": "\u0120late", "2384": "\u0120alleg", "2385": "\u0120white", "2386": "\u0120His", "2387": "ival", "2388": "\u0120friends", "2389": "\u0120gen", "2390": "\u0120legal", "2391": "atur", "2392": "\u0120anim", "2393": "isc", "2394": "bo", "2395": "yle", "2396": "\u0120After", "2397": "How", "2398": "AS", "2399": "where", "2400": "\u0120abs", "2401": "lev", "2402": "\u0120instead", "2403": "\u0120red", "2404": "\u0120billion", "2405": "\u0120lost", "2406": "\u0120especially", "2407": "\u0120value", "2408": "\u0120Mus", "2409": "\u0120West", "2410": "\u0120host", "2411": "\u0120hom", "2412": "time", "2413": "osing", "2414": "oring", "2415": "\u0120News", "2416": "ager", "2417": "\u0120ple", "2418": "istic", "2419": "\u0120weeks", "2420": "epend", "2421": "\u0120Not", "2422": "ccording", "2423": "omm", "2424": "\u0120forward", "2425": "ique", "2426": "\u0120deter", "2427": "\u0120election", "2428": "\u0120recently", "2429": "\u0120jud", "2430": "\u0120track", "2431": "\u0120suff", "2432": "\u0120vote", "2433": "lt", "2434": "\u0120Twitter", "2435": "\u0120object", "2436": "medi", "2437": "\u0120period", "2438": "\u0120changes", "2439": "\u0120opportun", "2440": "\u0120White", "2441": "\u0120Oct", "2442": "\u0120longer", "2443": "irt", "2444": "arc", "2445": "oke", "2446": "\u0120pain", "2447": "\u0120soon", "2448": "\u0120site", "2449": "\u0120{", "2450": "\u0120ep", "2451": "hod", "2452": "ript", "2453": "ached", "2454": "\u0120accept", "2455": "\u0120Cong", "2456": "____", "2457": "\u0120shoot", "2458": "\u0120economic", "2459": "\u0120hope", "2460": "irm", "2461": "oe", "2462": "\u0120moment", "2463": "\u0120decl", "2464": "lege", "2465": "\u0120consum", "2466": "\u0120Will", "2467": "\u0120pie", "2468": "\u0120tit", "2469": "\u0120check", "2470": "oph", "2471": "\u0120potential", "2472": "\u0120block", "2473": "\u0120March", "2474": "ij", "2475": "ole", "2476": "\u0120wrong", "2477": "duct", "2478": "ners", "2479": "\u0120Department", "2480": "\u0120higher", "2481": "onse", "2482": "\u0120cred", "2483": "\u0120online", "2484": "\u0120focus", "2485": "\u012024", "2486": "\u0120consider", "2487": "key", "2488": "\u0120educ", "2489": "ancial", "2490": "\u0120My", "2491": "ns", "2492": "iding", "2493": "\u0120circ", "2494": "\u0120works", "2495": "\u0120relig", "2496": "\u0120share", "2497": "\u0120parent", "2498": "cial", "2499": "\u0120held", "2500": "25", "2501": "\u0120pred", "2502": "\u0120Dr", "2503": "\u0120walk", "2504": "\u0120webs", "2505": "\u0120led", "2506": "\u0120lo", "2507": "ularly", "2508": "==", "2509": "\u0120reve", "2510": "lear", "2511": "\u0120stay", "2512": "\u0120These", "2513": "overed", "2514": "\u0120stru", "2515": "\u0120goal", "2516": "\u0120Republican", "2517": "\u0120risk", "2518": "\u0120words", "2519": "\u0120Aug", "2520": "\u0120rev", "2521": "\u0120sold", "2522": "\u0120review", "2523": "icro", "2524": "\u0120contract", "2525": "\u0120results", "2526": "\u0120services", "2527": "\u0120laws", "2528": "They", "2529": "\u0120code", "2530": "cil", "2531": "\u0120Mich", "2532": "\u0120wind", "2533": "\u0120function", "2534": "\u0120aud", "2535": "\u0120Syri", "2536": "\u0120ce", "2537": "put", "2538": "\u0120total", "2539": "aut", "2540": "fect", "2541": "\u0120article", "2542": "\u0120age", "2543": "\u0120applic", "2544": "\u0120minutes", "2545": "urd", "2546": "\u0120Me", "2547": "\u0120personal", "2548": "ilities", "2549": "\u0120anyone", "2550": "uary", "2551": "ients", "2552": "itution", "2553": "\u0120June", "2554": "asons", "2555": "Ad", "2556": "ateg", "2557": "\u0120prim", "2558": "anger", "2559": "\u0120target", "2560": "\u0120den", "2561": "\u0120earlier", "2562": "ule", "2563": "\u0120favor", "2564": "\u0120express", "2565": "haps", "2566": "\u0120dead", "2567": "fer", "2568": "\u0120answ", "2569": "che", "2570": "\u0120upd", "2571": "\u0120popular", "2572": "\u0120comput", "2573": "\u0120vol", "2574": "pril", "2575": "\u0120necess", "2576": "ham", "2577": "\u0120hy", "2578": "\u0120rate", "2579": "ES", "2580": "aging", "2581": "\u0120technology", "2582": "apan", "2583": "\u0120respect", "2584": "val", "2585": "\u0120Pe", "2586": "\u0120environment", "2587": "\u01202011", "2588": "Ph", "2589": "\u0120received", "2590": "\u0120Ne", "2591": "\u0120expected", "2592": "\u0120Par", "2593": "ember", "2594": "ude", "2595": "ends", "2596": "\u0120base", "2597": "\u0120created", "2598": "\u0120surpr", "2599": "\u0120anti", "2600": "\u0120Sm", "2601": "\u0120July", "2602": "alt", "2603": "eter", "2604": "\u0120problems", "2605": "uel", "2606": "\u0120ways", "2607": "iple", "2608": "\u0120port", "2609": "action", "2610": "\u0120private", "2611": "\u0120Do", "2612": "\u0120scient", "2613": "\u0120increase", "2614": "ray", "2615": "reet", "2616": "\u0120announced", "2617": "\u0120comment", "2618": "isl", "2619": "\u0120cannot", "2620": "\u0120easy", "2621": "Al", "2622": "\u0120shot", "2623": "\u0120Congress", "2624": "\u0120questions", "2625": "\u0120En", "2626": "bit", "2627": "\u0120force", "2628": "aterial", "2629": "hern", "2630": "\u0120impact", "2631": "\u0120et", "2632": "\u0120Mond", "2633": "na", "2634": "ples", "2635": "\u0120pack", "2636": "\u0120+", "2637": "\u0120Facebook", "2638": "\u0120pur", "2639": "\u0120langu", "2640": "atives", "2641": "\u0120God", "2642": "ctor", "2643": "\u0120involved", "2644": "omb", "2645": "aving", "2646": "ills", "2647": "60", "2648": "lex", "2649": "hood", "2650": "onst", "2651": "\u0120Austral", "2652": "\u0120div", "2653": "uesday", "2654": "\u0120execut", "2655": "\u0120model", "2656": "itiz", "2657": "\u0120sen", "2658": "\u0120speak", "2659": "\u0120staff", "2660": "\u0120exact", "2661": "\u0120civil", "2662": "ires", "2663": "\u0120nearly", "2664": "\u0120type", "2665": "ourt", "2666": "okes", "2667": "\u0120original", "2668": "\u0120cases", "2669": "\u0120content", "2670": "\u0120197", "2671": "\u0120relationship", "2672": "\u0120terror", "2673": "\u0120Google", "2674": "To", "2675": "\u0120leave", "2676": "\u0120Friday", "2677": "\u0120response", "2678": "\u0120capt", "2679": "\u0120inside", "2680": "\u0120<", "2681": "rem", "2682": "\u0120phot", "2683": "At", "2684": "lled", "2685": "\u0120fans", "2686": "llig", "2687": "\u0120April", "2688": "\u0120Red", "2689": "\u0120international", "2690": "\u0120coll", "2691": "\u0120heart", "2692": "\u0120average", "2693": "\u0120broad", "2694": "\u0120arrest", "2695": "\u0120users", "2696": "\u0120Count", "2697": "cast", "2698": "\u0120cal", "2699": "rel", "2700": "\u0120cell", "2701": "\u0120worth", "2702": "\u0120soft", "2703": "\u0120ur", "2704": "\u0120living", "2705": "\u0120Em", "2706": "bor", "2707": "ips", "2708": "\u0120nation", "2709": "ky", "2710": "\u0120killed", "2711": "\u0120reports", "2712": "\u01202010", "2713": "\u00e3\u0123", "2714": "ging", "2715": "\u0120becom", "2716": "\u0120source", "2717": "\u0120Monday", "2718": "\u0120Tuesday", "2719": "\u0120subject", "2720": "ech", "2721": "\u0120worked", "2722": "atural", "2723": "ests", "2724": "\u0120estab", "2725": "\u0120immedi", "2726": "EN", "2727": "\u0120respond", "2728": "\u0120global", "2729": "\u0120associ", "2730": "joy", "2731": "tember", "2732": "\u0120club", "2733": "ops", "2734": "\u0120Americans", "2735": "ael", "2736": "\u0120obs", "2737": "ites", "2738": "\u0120Per", "2739": "\u0120Pal", "2740": "\u0120chance", "2741": "\u0120oil", "2742": "\u0120Act", "2743": "\u0120ability", "2744": "\u0120takes", "2745": "rought", "2746": "\u0120weap", "2747": "hel", "2748": "\u0120price", "2749": "\u0120Japan", "2750": "ological", "2751": "\u0120director", "2752": "izing", "2753": "\u0120workers", "2754": "\u0120terms", "2755": "\u0120tou", "2756": "\u0120road", "2757": "mon", "2758": "\u0120published", "2759": "\u0120del", "2760": "\u0120While", "2761": "\u0120phone", "2762": "rain", "2763": "\u0120collect", "2764": "\u0120financial", "2765": "\u0120mid", "2766": "osition", "2767": "\u0120decided", "2768": "ises", "2769": "OR", "2770": "\u0120Russia", "2771": "\u0120Some", "2772": "\u0120Wed", "2773": "\u0120mother", "2774": "\u0120squ", "2775": "\u0120defin", "2776": "\u0120lack", "2777": "ovember", "2778": "\u012040", "2779": "\u0120girl", "2780": "\u0120store", "2781": "\u0120gave", "2782": "\u0120buy", "2783": "\u0120influ", "2784": "\u0120Calif", "2785": "\u0120log", "2786": "\u0120happened", "2787": "ino", "2788": "\u0120require", "2789": "\u0120Now", "2790": "\u0120emer", "2791": "\u0120fem", "2792": "\u0120San", "2793": "\u0120capital", "2794": "clus", "2795": "\u0120foreign", "2796": "\u0120currently", "2797": "\u0120Off", "2798": "based", "2799": "\u0120goes", "2800": "\u0120By", "2801": "oved", "2802": "\u0120Geor", "2803": "vertise", "2804": "\u0120situation", "2805": "\u0120Cor", "2806": "\u0120indic", "2807": "\u0120offer", "2808": "\u0120whose", "2809": "\u0120@", "2810": "\u0120tal", "2811": "\u0120material", "2812": "\u0120lives", "2813": "\u0120affect", "2814": "rown", "2815": "ought", "2816": "\u0120plans", "2817": "nesday", "2818": "unt", "2819": "ese", "2820": "\u0120arri", "2821": "\u0120member", "2822": "\u0120pict", "2823": "ursday", "2824": "\u0120Feb", "2825": "\u0120particip", "2826": "ruction", "2827": "\u0120recogn", "2828": "\u0120turned", "2829": "\u0120method", "2830": "\u0120events", "2831": "\u0120January", "2832": "\u0120Hill", "2833": "\".", "2834": "\u0120network", "2835": "One", "2836": "ctions", "2837": "\u0120teams", "2838": "\u0120Sund", "2839": "fully", "2840": "\u0120bank", "2841": "\u0120meeting", "2842": "40", "2843": "\u0120norm", "2844": "\u0120introdu", "2845": "\u0120simple", "2846": "\u0120Islam", "2847": "\u0120ill", "2848": "\u0120Ag", "2849": "\u0120huge", "2850": "\u0120September", "2851": "oud", "2852": "\u0120regard", "2853": "\u0120areas", "2854": "\u0120cy", "2855": "order", "2856": "\u0120TV", "2857": "\u0120couple", "2858": "\u0120approach", "2859": "\u0120career", "2860": "aur", "2861": "\u0120Afric", "2862": "\u0120Gl", "2863": "load", "2864": "ttp", "2865": "\",", "2866": "\u0120deli", "2867": "\u0120race", "2868": "lin", "2869": "\u0120performance", "2870": "\u0120page", "2871": "ety", "2872": "apt", "2873": "\u0120November", "2874": "\u0120tool", "2875": "\u0120David", "2876": "\u0120felt", "2877": "\u0120quickly", "2878": "\u0120mis", "2879": "\u0120numbers", "2880": "oor", "2881": "\u0120email", "2882": "\u012021", "2883": "aily", "2884": "\u0120ord", "2885": "\u0120El", "2886": "istan", "2887": "ees", "2888": "\u0120administration", "2889": "\u0120hon", "2890": "\u0120Wednesday", "2891": "\u0120victim", "2892": "\u0120Paul", "2893": "\u0120via", "2894": "\u0120improve", "2895": "\u0120engine", "2896": "\u0120text", "2897": "chie", "2898": "--------", "2899": "\u0120fre", "2900": "\u0120pull", "2901": "\u0120Ang", "2902": "\u0120round", "2903": "bl", "2904": "\u0120built", "2905": "\u012022", "2906": "\u0120pers", "2907": "\u0120European", "2908": "\u0120dig", "2909": "\u0120Thursday", "2910": "\u0120father", "2911": "ornia", "2912": "ened", "2913": "\u0120loss", "2914": "avy", "2915": "\u0120thous", "2916": "\u00c2\u0143", "2917": "ructure", "2918": "\u0120production", "2919": "\u0120boy", "2920": "ume", "2921": "\u0120heard", "2922": "eed", "2923": "down", "2924": "Sh", "2925": "\u0120economy", "2926": "\u0120enjoy", "2927": "\u0120August", "2928": "\u0120trade", "2929": "\u0120Sch", "2930": "face", "2931": "\u0120website", "2932": "iment", "2933": "\u0120secret", "2934": "\u0120cover", "2935": "\u0120reveal", "2936": "\u0120wide", "2937": "\u0120board", "2938": "\u0120match", "2939": "AL", "2940": "\u0120allowed", "2941": "\u0120Court", "2942": "\u0120hands", "2943": "\u0120spent", "2944": "\u0120travel", "2945": "\u0120lower", "2946": "\u0120bi", "2947": "\u0120repe", "2948": "atory", "2949": "\u0120poll", "2950": "\u0120included", "2951": "\u0120ste", "2952": "cember", "2953": "\u0120October", "2954": "\u0120neigh", "2955": "\u0120legisl", "2956": "orters", "2957": "uses", "2958": "\u0120behav", "2959": "iction", "2960": "\u0120knew", "2961": "\u0120wants", "2962": "\u0120town", "2963": "?\u00e2\u0122\u013f", "2964": "ights", "2965": "\u0120British", "2966": "\u0120separ", "2967": "ences", "2968": "estern", "2969": "\u0120visit", "2970": "\u0120Canada", "2971": "rect", "2972": "anks", "2973": "With", "2974": "\u0120perfect", "2975": "\u0120gets", "2976": "ession", "2977": "\u0120movement", "2978": "ze", "2979": "ishing", "2980": "ground", "2981": "agement", "2982": "\u0120tried", "2983": "\u0120cause", "2984": "\u00e2\u0122\u013f.", "2985": "gest", "2986": "\u0120}", "2987": "\u0120forces", "2988": "\u0120Sunday", "2989": "\u0120ens", "2990": "After", "2991": "force", "2992": "ceed", "2993": "\u0120attention", "2994": "\u0120particular", "2995": "][", "2996": "ening", "2997": "\u0120veh", "2998": "\u0120bud", "2999": "\u0120fear", "3000": "\u0120population", "3001": "\u0120various", "3002": "\u0120UK", "3003": "\u0120reach", "3004": "ma", "3005": "\u0120looks", "3006": "\u012023", "3007": "\u0120California", "3008": "\u0120brought", "3009": "\u0120vo", "3010": "\u0120Kore", "3011": "\u0120link", "3012": "ibly", "3013": ");", "3014": "urning", "3015": "arily", "3016": "\u0120IS", "3017": "200", "3018": "\u0120previous", "3019": "ED", "3020": "\u0120mention", "3021": "\u0120Russian", "3022": "\u0120morning", "3023": "\u0120Qu", "3024": "cle", "3025": "idered", "3026": "\u0120Sw", "3027": "'d", "3028": "\u0120fair", "3029": "\u0120growth", "3030": "aker", "3031": "undred", "3032": "99", "3033": "sequ", "3034": "yond", "3035": "\u0120progress", "3036": "\u0120fell", "3037": "raz", "3038": "alled", "3039": "\u0120song", "3040": "iam", "3041": "AC", "3042": "\u0120training", "3043": "hold", "3044": "\u0120size", "3045": "uk", "3046": "Re", "3047": "\u0120Black", "3048": "cies", "3049": "\u0120December", "3050": "idents", "3051": "field", "3052": "ledge", "3053": "\u0120Her", "3054": "\u0120contact", "3055": "\u0120demand", "3056": "While", "3057": "\u0120image", "3058": "\u0120hor", "3059": "\u0120rac", "3060": "\u0120hot", "3061": "ification", "3062": "OS", "3063": "\u0120leader", "3064": "ecause", "3065": "\u0120rules", "3066": "\u0120liber", "3067": "\u0120prep", "3068": "\u0120search", "3069": "\u0120ess", "3070": "\u0120Post", "3071": "set", "3072": "\u0120citiz", "3073": "\u0120upon", "3074": "\u0120strugg", "3075": "\u0120Street", "3076": "\u0120latest", "3077": "come", "3078": "\u0120independ", "3079": "US", "3080": "uments", "3081": "inks", "3082": "arth", "3083": "\u0120features", "3084": "\u0120coach", "3085": "ondon", "3086": "\u0120Park", "3087": "ges", "3088": "Tr", "3089": "\u0120fast", "3090": "\u0120talking", "3091": "\u0120Cont", "3092": "\u0120Jew", "3093": "\u0120addition", "3094": "\u0120star", "3095": "\u0120wond", "3096": "\u0120Senate", "3097": "de", "3098": "oo", "3099": "IT", "3100": "\u0120Pat", "3101": "\u0120speed", "3102": "\u0120exam", "3103": "iant", "3104": "\u0120considered", "3105": "raq", "3106": "icles", "3107": "aries", "3108": "\u0120reb", "3109": "omp", "3110": "bed", "3111": "\u0120levels", "3112": "eth", "3113": "\u0120Times", "3114": "\u0120County", "3115": "lligence", "3116": "\u0120slow", "3117": "\u0120investigation", "3118": "ille", "3119": "\u0120conduct", "3120": "aph", "3121": "\u0120Party", "3122": "22", "3123": "\u0120King", "3124": "\u0120medical", "3125": "\u0120mach", "3126": "imately", "3127": "vent", "3128": "\u0120achie", "3129": "\u0120language", "3130": "aturday", "3131": "\u0120card", "3132": "\u0120sn", "3133": "unk", "3134": "\u0120critic", "3135": "\u0120sort", "3136": "ope", "3137": "\u0120Center", "3138": "\u0120Tex", "3139": "\u0120pen", "3140": "\u0120und", "3141": "wo", "3142": "\u0120India", "3143": "\u0120paper", "3144": "ysis", "3145": "IC", "3146": "\u01202008", "3147": "pir", "3148": "\u0120conserv", "3149": "\u0120parents", "3150": "imin", "3151": "\u0120sexual", "3152": "\u0120systems", "3153": "\u0120prior", "3154": "ha", "3155": "uit", "3156": "asc", "3157": "\u0120doll", "3158": "\u0120written", "3159": "uf", "3160": "\u0120safe", "3161": "\u0120box", "3162": "\u0120spokes", "3163": "igr", "3164": "\u0120seek", "3165": "\u0120sens", "3166": "\u0120document", "3167": "het", "3168": "idge", "3169": "eared", "3170": "\u0120increasing", "3171": "\u0120hear", "3172": "ani", "3173": "atform", "3174": "\u0120draw", "3175": "\u0120seven", "3176": "\u0120son", "3177": "\u0120Muslim", "3178": "\u0120effort", "3179": "ruary", "3180": "\u0120jobs", "3181": "sych", "3182": "\u0120Iran", "3183": "\u0120extreme", "3184": "\u0120prevent", "3185": "\u0120learn", "3186": "ining", "3187": "\u0120serious", "3188": "\u0120regul", "3189": "\u0120inn", "3190": "\u0120range", "3191": "room", "3192": "rast", "3193": "\u0120violence", "3194": "\u0120Mark", "3195": "80", "3196": "ources", "3197": "\u0120Iraq", "3198": "itch", "3199": "OP", "3200": "\u0120surve", "3201": "\u0120completely", "3202": "\u0120conc", "3203": "\u0120...", "3204": "\u01202009", "3205": "\u0120message", "3206": "tr", "3207": "ico", "3208": "\u0120\u00e2", "3209": "She", "3210": "\u0120obv", "3211": "\u0120interesting", "3212": "reedom", "3213": "\u0120screen", "3214": "abor", "3215": "\u0120opportunity", "3216": "\u0120Ke", "3217": "\u0120Char", "3218": "eff", "3219": "\u0120climate", "3220": "24", "3221": "\u0120majority", "3222": "anced", "3223": "\u0120particularly", "3224": "\u0120doub", "3225": "\u0120journal", "3226": "\u0120Rom", "3227": "\u0120despite", "3228": "\u0120claims", "3229": "\u0120answer", "3230": "\u0120society", "3231": "mp", "3232": "\u0120London", "3233": "\u0120defense", "3234": "\u0120carry", "3235": "entially", "3236": "aming", "3237": "\u0120guy", "3238": "\u0120extra", "3239": "ension", "3240": "\u0120Donald", "3241": "isions", "3242": "\u0120attacks", "3243": "\u0120required", "3244": "erve", "3245": "rench", "3246": "illed", "3247": "\u0120biggest", "3248": "vertisement", "3249": "\u0120exactly", "3250": "\u0120East", "3251": "\u0120paid", "3252": "\u0120More", "3253": "iers", "3254": "ibr", "3255": "\u0120experien", "3256": "\u0120aren", "3257": "lying", "3258": "uclear", "3259": "inese", "3260": "\u0120modern", "3261": "\u0120remain", "3262": "\u0120quarter", "3263": "\u0120officers", "3264": "\u0120hundred", "3265": "\u0120cross", "3266": "\u0120except", "3267": "\u0120Net", "3268": "utions", "3269": "ari", "3270": "\u0120table", "3271": "\u0120practice", "3272": "\u0120natural", "3273": "inally", "3274": "\u0120middle", "3275": "erc", "3276": "\u012027", "3277": "\u0120certainly", "3278": "\u0120dro", "3279": "oses", "3280": "\u0120Saturday", "3281": "\u0120stories", "3282": "\u0120histor", "3283": "\u0120gas", "3284": "\u0120products", "3285": "\u0120surv", "3286": "\u0120looked", "3287": "\u0120sometimes", "3288": "nces", "3289": "\u0120stuff", "3290": "\u0120science", "3291": "\u0120finally", "3292": "\u0120user", "3293": "AM", "3294": "\u0120summer", "3295": "\u0120movie", "3296": "\u0120blood", "3297": "ospital", "3298": "aves", "3299": "\u0120communic", "3300": "\u0120aw", "3301": "ously", "3302": "\u0120lay", "3303": "\u0120changed", "3304": "\u0120ones", "3305": "add", "3306": "\u0120leading", "3307": "\u0120described", "3308": "\u0120Sand", "3309": "\u0120imag", "3310": "\u0120term", "3311": "\u0120eight", "3312": "\u0120February", "3313": "\u0120prison", "3314": "\u0120convers", "3315": "fl", "3316": "ny", "3317": "\u0120details", "3318": "icks", "3319": "\u0120starting", "3320": "\u0120Spe", "3321": "\u0120quality", "3322": "\u0120occur", "3323": "\u0120pan", "3324": "hib", "3325": "\u0120showed", "3326": "\u0120named", "3327": "\u0120giving", "3328": "\u0120ult", "3329": "\u0120remains", "3330": "\u0120McC", "3331": "uing", "3332": "\u0120region", "3333": "pper", "3334": "\u0120provided", "3335": "\u0120costs", "3336": "akers", "3337": "\u0120Soc", "3338": "arr", "3339": "\u0120damage", "3340": "\u0120Mor", "3341": "\u0120mob", "3342": "\u0120danger", "3343": "\u0120fit", "3344": "\u0120TH", "3345": "\u0120Tur", "3346": "\u0120chief", "3347": "aught", "3348": "\u0120poor", "3349": "\u0120path", "3350": "ida", "3351": "\u0120education", "3352": "\u0120multiple", "3353": "\u0120continued", "3354": "ett", "3355": "enge", "3356": "\u0120growing", "3357": "No", "3358": "\u0120demonst", "3359": "\u0120Che", "3360": "\u0120*", "3361": "\u0120parts", "3362": "yl", "3363": "\u012026", "3364": "\u0120writing", "3365": "\u0120comments", "3366": "\u012028", "3367": "\u0120ment", "3368": "\u0120maintain", "3369": "\u0120assist", "3370": "\u0120thinking", "3371": "\u0120Des", "3372": "inary", "3373": "\u0120Republicans", "3374": "\u0120Even", "3375": "\u0120purp", "3376": "\u0120request", "3377": "\u0120write", "3378": "\u0120fix", "3379": "\u0120item", "3380": "\u0120purch", "3381": "\u0120Coun", "3382": "ables", "3383": "\u0120died", "3384": "\u0120Democratic", "3385": "FL", "3386": "coin", "3387": "ago", "3388": "\u0120ready", "3389": "\u0120wouldn", "3390": "\u0120implement", "3391": "23", "3392": "\u0120increased", "3393": "\u0120culture", "3394": "\u0120efforts", "3395": "\u0120voters", "3396": "ux", "3397": "\u0120camer", "3398": "\u0120mill", "3399": "aly", "3400": "....", "3401": "pre", "3402": "oper", "3403": "\u0120reading", "3404": "mitted", "3405": "iminal", "3406": "\u0120file", "3407": "\u0120usually", "3408": "\u0120calls", "3409": "\u0120spot", "3410": "\u0120effects", "3411": "Im", "3412": "\u0120Gener", "3413": "zz", "3414": "ban", "3415": "\u0120perhaps", "3416": "arian", "3417": "\u0120alone", "3418": "fort", "3419": "iles", "3420": "\u0120First", "3421": "\u0120Mon", "3422": "\u0120although", "3423": "\u0120towards", "3424": "\u0120League", "3425": "\u0120consist", "3426": "\u0120Bill", "3427": "\u0120Texas", "3428": "\u0120select", "3429": "\u0120guys", "3430": "\u0120standard", "3431": "\u0120Michael", "3432": "\u0120subst", "3433": "\u0120cele", "3434": "\u0120beyond", "3435": "\u0120directly", "3436": "\u0120platform", "3437": "\u0120Chinese", "3438": "\u0120(@", "3439": "\u0120hous", "3440": "using", "3441": "itute", "3442": "\u0120speech", "3443": "tered", "3444": "\u0120reality", "3445": "icated", "3446": "\u0120kids", "3447": "\u0120James", "3448": "\u0120avoid", "3449": "\u0120throughout", "3450": "\u0120football", "3451": "\u0120student", "3452": "ara", "3453": "\u0120couldn", "3454": "rowd", "3455": "BI", "3456": "\u0120unf", "3457": "ford", "3458": "\u0120immediately", "3459": "oul", "3460": "\u0120rob", "3461": "\u0120includes", "3462": "\u0120cat", "3463": "\u0120concept", "3464": "\u0120center", "3465": "\u0120choice", "3466": "\u0120scene", "3467": "\u0120complex", "3468": "anch", "3469": "\u0120additional", "3470": "sp", "3471": "\u0120challeng", "3472": "\u0120Cons", "3473": "\u0120wife", "3474": "\u0120clos", "3475": "urt", "3476": "\u0120tro", "3477": "\u0120recomm", "3478": "\u0120researc", "3479": "\u0120epis", "3480": "hest", "3481": "itor", "3482": "\u0120ver", "3483": "\u0120Minister", "3484": "\u0120sle", "3485": "All", "3486": "\u0120corpor", "3487": "\u0120\u00e2\u0122\u00a6", "3488": "\u0120designed", "3489": "\u0120Ser", "3490": "urg", "3491": "agon", "3492": "\u0120remember", "3493": "\u0120software", "3494": "\u0120safety", "3495": "\u0120Indian", "3496": "wise", "3497": "\u0120gone", "3498": "\u0120il", "3499": "astic", "3500": "ports", "3501": "\u0120sell", "3502": "\u0120toward", "3503": "\u0120agency", "3504": "\u0120ten", "3505": "\u0120officer", "3506": "aches", "3507": "\u0120figure", "3508": "\u0120piece", "3509": "\u0120brain", "3510": "omen", "3511": "\u0120battle", "3512": "\u0120Jack", "3513": "men", "3514": "\u0120counter", "3515": "\u0120debate", "3516": "airs", "3517": "ression", "3518": "ston", "3519": "\u0120thousands", "3520": "adem", "3521": "rupt", "3522": "\u0120opin", "3523": "\u0120ahead", "3524": "icient", "3525": "Now", "3526": "imum", "3527": "\u0120relative", "3528": "irth", "3529": "\u0120letter", "3530": "\u0120receive", "3531": "\u0120pressure", "3532": "\u0120\u00d0", "3533": "\u0120blog", "3534": "oes", "3535": "ilies", "3536": "ampions", "3537": "\u0120>", "3538": "\u0120sil", "3539": "\u0120moved", "3540": "\u0120launch", "3541": "\u0120appears", "3542": "\u0120option", "3543": "\u0120Play", "3544": "\u0120passed", "3545": "\u0120ut", "3546": "\u0120clean", "3547": "\u0120prec", "3548": "\u0120stage", "3549": "roy", "3550": "\u012060", "3551": "\u0120Bo", "3552": "\u0120Serv", "3553": "olute", "3554": "\u0120II", "3555": "atever", "3556": "berg", "3557": "OT", "3558": "\u0120property", "3559": "27", "3560": "\u0120helped", "3561": "amb", "3562": "\u0120drive", "3563": "\u0120Apple", "3564": "just", "3565": "\u0120alleged", "3566": "\u0120Green", "3567": "\u0120twe", "3568": "new", "3569": "\u0120disapp", "3570": "\u0120tour", "3571": "\u0120meaning", "3572": "\u0120rock", "3573": "\u0120dog", "3574": "\u0120x", "3575": "\u0120cris", "3576": "itation", "3577": "\u0120Associ", "3578": "\u0120suspect", "3579": "\u0120date", "3580": "\u0120Rich", "3581": "aughter", "3582": "\u0120moving", "3583": "\u0120score", "3584": "\u0120Democrats", "3585": "\u0120organization", "3586": "\u0120sat", "3587": "\u0120conditions", "3588": "\u0120touch", "3589": "\u0120dark", "3590": "\u0120command", "3591": "\u0120Then", "3592": "?\"", "3593": "\u0120ign", "3594": "\u0120reasons", "3595": "\u0120budget", "3596": "\u0120park", "3597": "more", "3598": "\u0120nuclear", "3599": "\u0120myself", "3600": "\u0120nom", "3601": "\u0120deg", "3602": "\u0120happy", "3603": "\u0120device", "3604": "\u0120difference", "3605": "rief", "3606": "\u0120Sim", "3607": "\u0120maybe", "3608": "chan", "3609": "\u0120beginning", "3610": "AD", "3611": "\u0120copy", "3612": "\u0120nature", "3613": "\u0120failed", "3614": "\u0120fan", "3615": "yan", "3616": "wood", "3617": "\u0120characters", "3618": "\u0120cast", "3619": "\u0120computer", "3620": "\u0120encour", "3621": "\u0120aim", "3622": "\u0120title", "3623": "\u0120wall", "3624": "\u0120compared", "3625": "\u0120league", "3626": "ocked", "3627": "\u0120Super", "3628": "ivity", "3629": "\u0120estim", "3630": "\u0120Val", "3631": "\u0120Star", "3632": "\u0120college", "3633": "\u0120eyes", "3634": "\u0120shown", "3635": "\u0120English", "3636": "\u0120century", "3637": "\u0120powerful", "3638": "\u0120Day", "3639": "lease", "3640": "ource", "3641": "\u0120bal", "3642": "aint", "3643": "\u0120limited", "3644": "\u0120yes", "3645": "\u0120band", "3646": "\u0120contribut", "3647": "\u0120positive", "3648": "\u0120forced", "3649": "\u0120sche", "3650": "\u0120necessary", "3651": "\u0120refer", "3652": "\u0120candidate", "3653": "\u0120stra", "3654": "\u0120disp", "3655": "35", "3656": "cient", "3657": "\u0120books", "3658": "\u0120trust", "3659": "AP", "3660": "\u0120French", "3661": "\u0120largest", "3662": "26", "3663": "\u0120arch", "3664": "enty", "3665": "\u0120sal", "3666": "\u0120Here", "3667": "\u0120conference", "3668": "\u0120Rober", "3669": "aud", "3670": "\u0120note", "3671": "\u0120analysis", "3672": "ufact", "3673": "\u0120spending", "3674": "\u0120presidential", "3675": "45", "3676": "\u0120Of", "3677": "\u0120citizens", "3678": "orks", "3679": "\u0120schools", "3680": "\u0120Mart", "3681": "igration", "3682": "\u0120Syria", "3683": "\u0120throw", "3684": "Be", "3685": "venue", "3686": "\u0120Ben", "3687": "\u0120aware", "3688": "\u0120meant", "3689": "\u0120executive", "3690": "\u0120eventually", "3691": "My", "3692": "\u0120physical", "3693": "\u0120followed", "3694": "\u0120feature", "3695": "\u0120Tor", "3696": "\u0120treatment", "3697": "\u0120crowd", "3698": "\u0120Wind", "3699": "\u0120firm", "3700": "\u0120Air", "3701": "\u0120streng", "3702": "\u0120confir", "3703": "\u0120mix", "3704": "\u0120bott", "3705": "ero", "3706": "orney", "3707": "\u012029", "3708": "ares", "3709": "\u0120Dis", "3710": "\u0120grad", "3711": "\u0120religious", "3712": "\u0120easily", "3713": "board", "3714": "\u0120autom", "3715": "\u0120esc", "3716": "\u0120pus", "3717": "band", "3718": "Is", "3719": "\u0120cool", "3720": "etro", "3721": "\u0120196", "3722": "\u0120families", "3723": "\u0120illeg", "3724": "ressed", "3725": "craft", "3726": "cul", "3727": "rated", "3728": "\u0120actions", "3729": "\u0120overall", "3730": "\u0120Mex", "3731": "\u0120allows", "3732": "\u0120gives", "3733": "\u0120feed", "3734": "\u0120\u00c2\u00a3", "3735": "ube", "3736": "):", "3737": "\u0120susp", "3738": "\u0120yourself", "3739": "By", "3740": "\u0120draft", "3741": "bum", "3742": "ken", "3743": "\u0120appeared", "3744": "\u0120smart", "3745": "\u0120detail", "3746": "\u0120income", "3747": "iring", "3748": "\u0120analy", "3749": "\u0120Bel", "3750": "\u0120signed", "3751": "New", "3752": "encies", "3753": "\u0120central", "3754": "\u0120ideas", "3755": "\u0120ang", "3756": "\u0120Govern", "3757": "\u0120senior", "3758": "Advertisement", "3759": "\u0120frequ", "3760": "\u0120weapons", "3761": "\u0120har", "3762": "ID", "3763": "\u0120display", "3764": "\u0120promot", "3765": "\u0120nice", "3766": "\u0120credit", "3767": "\u0120decades", "3768": "\u0120psych", "3769": "\u0120politics", "3770": "Don", "3771": "\u0120crime", "3772": "OM", "3773": "EC", "3774": "\u0120uses", "3775": "inn", "3776": "\u0120door", "3777": "\u0120dise", "3778": "uty", "3779": "\u0120International", "3780": "\u0120unique", "3781": "28", "3782": "\u0120swe", "3783": "\u0120altern", "3784": "\u0120lif", "3785": "According", "3786": "mar", "3787": "\u0120drop", "3788": "\u0120sales", "3789": "Ar", "3790": "\u0120developed", "3791": "resh", "3792": "\u0120customers", "3793": "ET", "3794": "\u0120benefits", "3795": "\u0120conflic", "3796": "urance", "3797": "\u0120related", "3798": "\u0120crisis", "3799": "\u0120School", "3800": "\u0120mist", "3801": "erry", "3802": "iable", "3803": "\u0120predict", "3804": "\u0120noted", "3805": "\u0120Cap", "3806": "29", "3807": "\u0120Australia", "3808": "\u0120EU", "3809": "\u0120truth", "3810": "box", "3811": "\u0120goals", "3812": "iny", "3813": "\u0120individuals", "3814": "\u0120charge", "3815": "\u0120Earth", "3816": "part", "3817": "\u0120beaut", "3818": "\u0120continues", "3819": "onents", "3820": "\u0120Union", "3821": "\u0120Arab", "3822": "\u0120observ", "3823": "\u0120rap", "3824": "\u0120challenge", "3825": "\u0120sto", "3826": "nown", "3827": "\u0120apparent", "3828": "\u0120Angel", "3829": "itely", "3830": "\u0120Smith", "3831": "\u0120lic", "3832": "\u0120projects", "3833": "\u0120peace", "3834": "\u0120measure", "3835": "\u0120Police", "3836": "\u0120correct", "3837": "oti", "3838": "\u0120intelligence", "3839": "\u0120Christian", "3840": "\u0120previously", "3841": "\u0120Germany", "3842": "\u0120fully", "3843": "\u0120rule", "3844": "\u0120manager", "3845": "\u0120brother", "3846": "\u0120rates", "3847": "\u0120advant", "3848": "Un", "3849": "change", "3850": "\u0120expand", "3851": "\u0120clearly", "3852": "\u0120reform", "3853": "\u0120lines", "3854": "net", "3855": "\u0120successful", "3856": "riage", "3857": "\u0120highly", "3858": "\u0120larger", "3859": "ounds", "3860": "21", "3861": "\u0120traff", "3862": "\u0120spread", "3863": "iance", "3864": "\u0120seemed", "3865": "\u0120Council", "3866": "ki", "3867": "\u0120straight", "3868": "Some", "3869": "\u0120Comp", "3870": "\u0120criminal", "3871": "\u0120minor", "3872": "\u0120emb", "3873": "\u0120George", "3874": "\u0120programs", "3875": "iced", "3876": "attle", "3877": "owers", "3878": "\u0120Franc", "3879": "\u0120incident", "3880": "\u0120resources", "3881": "\u0120Tom", "3882": "\u0120greater", "3883": "\u0120primary", "3884": "IA", "3885": "inated", "3886": "antly", "3887": "\u0120knowledge", "3888": "\u0120studies", "3889": "while", "3890": "dom", "3891": "\u0120save", "3892": "orter", "3893": "\u0120web", "3894": "ategy", "3895": "\u0120kept", "3896": "\u0120attract", "3897": "\u0120Flor", "3898": "olic", "3899": "\u0120spir", "3900": "que", "3901": "\u0120emot", "3902": "\u0120color", "3903": "\u0120feet", "3904": "ean", "3905": "\u0120Cr", "3906": "sey", "3907": "\u0120rare", "3908": "\u0120reached", "3909": "secut", "3910": "\u0120arm", "3911": "\u0120High", "3912": "levision", "3913": "\u0120Internet", "3914": "\u0120Brown", "3915": "oday", "3916": "iders", "3917": "osh", "3918": "rs", "3919": "\u0120favorite", "3920": "\u0120places", "3921": "\u0120Rec", "3922": "\u0120regular", "3923": "wide", "3924": "ota", "3925": "\u0120manufact", "3926": "\u0120laun", "3927": "\u0120Def", "3928": "100", "3929": "\u0120send", "3930": "\u0120prem", "3931": "\u0120Ham", "3932": "roll", "3933": "lick", "3934": "icit", "3935": "\u0120knows", "3936": "\u0120shooting", "3937": "\u0120activity", "3938": "\u0120pun", "3939": "\u0120sources", "3940": "\u0120normal", "3941": "icago", "3942": "bon", "3943": "term", "3944": "onent", "3945": "ingly", "3946": "ser", "3947": "\u0120Ant", "3948": "ville", "3949": "\u0120status", "3950": "\u0120fighting", "3951": "\u0120voice", "3952": "\u0120rise", "3953": "ocks", "3954": "\u0120fine", "3955": "\u0120owners", "3956": "\u0120caused", "3957": "\u0120claimed", "3958": "\u0120Mac", "3959": "\u0120enem", "3960": "\u0120liter", "3961": "\u0120Rob", "3962": "\u0120General", "3963": "aith", "3964": "EO", "3965": "\u0120options", "3966": "\u01202007", "3967": "\u0120integr", "3968": "ength", "3969": "\u0120Up", "3970": "usion", "3971": "\u0120spend", "3972": "\u0120Gold", "3973": "ado", "3974": "\u0120cities", "3975": "miss", "3976": "\u0120organiz", "3977": "ING", "3978": "\u0120ended", "3979": "iled", "3980": "\u0120researchers", "3981": "\u0120calling", "3982": "\u0120shut", "3983": "\u0120reflect", "3984": "\u0120La", "3985": "mission", "3986": "Pro", "3987": "mark", "3988": "org", "3989": "\u00e2\u0122\u013f,", "3990": "oles", "3991": "70", "3992": "roid", "3993": "\u0120prices", "3994": "\u0120Every", "3995": "\u0120album", "3996": "\u0120From", "3997": "ifying", "3998": "\u0120employees", "3999": "\u0120female", "4000": "\u0120England", "4001": "ya", "4002": "www", "4003": "\u0120virt", "4004": "\u0120haven", "4005": "\u0120ele", "4006": "\u0120raised", "4007": "mittee", "4008": "\u0120jump", "4009": "uana", "4010": "33", "4011": "\u0120supposed", "4012": "itness", "4013": "\u0120happens", "4014": "\u0120adding", "4015": "\u0120policies", "4016": "\u0120names", "4017": "\u0120charges", "4018": "\u0120Bre", "4019": "\u0120pros", "4020": "\u0120trou", "4021": "ribution", "4022": "ica", "4023": "uman", "4024": "\u0120basic", "4025": "iverse", "4026": "Not", "4027": "\u0120Mag", "4028": "\u0120concerns", "4029": "\u0120traditional", "4030": "\u0120wait", "4031": "inger", "4032": "\u0120absolute", "4033": "\u0120acqu", "4034": "\u0120plant", "4035": "\u0120hospital", "4036": "\u0120funding", "4037": "ram", "4038": "\u0120Bay", "4039": "\u0120slight", "4040": "\u0120commer", "4041": "rol", "4042": "\u0120print", "4043": "\u0120patients", "4044": "Sc", "4045": "\u0120authorities", "4046": "\u0120minister", "4047": "vere", "4048": "\u0120creating", "4049": "\u0120http", "4050": "\u0120freedom", "4051": "\u0120AP", "4052": "\u0120mechan", "4053": "\u0120scen", "4054": "\u0120style", "4055": "\u0120Mo", "4056": "\u0120seeing", "4057": "\u0120grand", "4058": ".\u00e2\u0122\u013b", "4059": "\u0120beat", "4060": "\u0120lik", "4061": "rian", "4062": "ona", "4063": "\u0120station", "4064": "\u0120Scott", "4065": "see", "4066": "\u0120push", "4067": "ijuana", "4068": "\u0120behavior", "4069": "\u0120beg", "4070": "\u0120leaving", "4071": "\u0120cry", "4072": "\u0120impl", "4073": "\u0120birth", "4074": "\u0120ir", "4075": "\u0120actual", "4076": "EL", "4077": "\u0120ensure", "4078": "pen", "4079": "\u0120offered", "4080": "\u0120agreement", "4081": "\u0120Florida", "4082": "\u0120eth", "4083": "\u0120Ber", "4084": "soft", "4085": "\u0120Hillary", "4086": "\u0120posted", "4087": "\u0120gold", "4088": "\u0120Sun", "4089": "\u0120weekend", "4090": "\u0120green", "4091": "\u0120Most", "4092": "\u0120Reg", "4093": "alse", "4094": "\u0120weight", "4095": "OU", "4096": "\u0120eye", "4097": ".'", "4098": "acing", "4099": "\u0120determin", "4100": "\u0120vac", "4101": "Here", "4102": "\u0120revealed", "4103": "\u0120Well", "4104": "\u0120application", "4105": "\u0120mostly", "4106": "\u0120values", "4107": "\u0120propos", "4108": "itude", "4109": "\u0120Alex", "4110": "aby", "4111": "\u0120willing", "4112": "earch", "4113": "\u0120rank", "4114": "\u0120adop", "4115": "\u0120According", "4116": "\u0120adult", "4117": "ttps", "4118": "\u0120establ", "4119": "\u0120records", "4120": "\u00e2\u0122\u00a2", "4121": "500", "4122": "\u0120enforce", "4123": "\u0120picture", "4124": "\u0120believed", "4125": "\u0120Let", "4126": "\u0120mer", "4127": "pri", "4128": "uild", "4129": "\u0120brief", "4130": "\u0120learned", "4131": "\u0120Law", "4132": "\u0120install", "4133": "\u0120strategy", "4134": "\u0120appl", "4135": "SA", "4136": "igned", "4137": "\u0120choose", "4138": "istry", "4139": "\u0120dire", "4140": "\u0120wonder", "4141": "\u0120qual", "4142": "\u0120massive", "4143": "cher", "4144": "\u0120devices", "4145": "\u0120benefit", "4146": "\u0120wild", "4147": "\u0120parties", "4148": "\u0120Chicago", "4149": "\u0120lawy", "4150": "\u0120uns", "4151": "gen", "4152": "\u0120People", "4153": "\u0120cars", "4154": "\u0120Trans", "4155": "\u0120Phil", "4156": "\u0120arrested", "4157": "\u0120Mat", "4158": "\u0120mount", "4159": "\u0120whatever", "4160": "\u0120wat", "4161": "\u0120Oh", "4162": "\u0120France", "4163": "\u0120street", "4164": "\u0120;", "4165": "\u0120provides", "4166": "\u0120whom", "4167": "\u0120assault", "4168": "90", "4169": "ties", "4170": "liament", "4171": "\u0120asking", "4172": "\u0120influence", "4173": "\u0120judge", "4174": "\u0120lose", "4175": "\u0120fat", "4176": "\u0120feeling", "4177": "ste", "4178": "\u0120operations", "4179": "\u0120produced", "4180": "\u0120temper", "4181": "cont", "4182": "\u0120critical", "4183": "\u0120Secret", "4184": "\u0120Lou", "4185": "\u0120negoti", "4186": "\u0120mission", "4187": "\u0120enter", "4188": "\u0120Bush", "4189": "Ex", "4190": "\u0120images", "4191": "\u00d0\u00be", "4192": "\u0120Stud", "4193": "\u0120confirmed", "4194": "point", "4195": "\u0120showing", "4196": "IL", "4197": "\u0120Port", "4198": "\u0120district", "4199": "ription", "4200": "\u0120runs", "4201": "\u0120pattern", "4202": "\u0120tend", "4203": "\u0120border", "4204": "\u0120residents", "4205": "ae", "4206": "orial", "4207": "rav", "4208": "\u0120debt", "4209": "However", "4210": "\u0120\u00c3", "4211": "aked", "4212": "no", "4213": "\u0120cru", "4214": "\u0120teac", "4215": "mine", "4216": "\u0120Committee", "4217": "la", "4218": "udd", "4219": "\u0120opposition", "4220": "\u0120celebr", "4221": "\u0120Wall", "4222": "\u0120Health", "4223": "\u0120section", "4224": "\u0120defend", "4225": "\u0120etc", "4226": "estic", "4227": "\u0120produce", "4228": "Le", "4229": "icial", "4230": "\u0120Inte", "4231": "\u0120Commission", "4232": "\u0120drink", "4233": "\u0120independent", "4234": "\u0120Mod", "4235": "ront", "4236": "cell", "4237": "\u0120Why", "4238": "\u0120brand", "4239": "ented", "4240": "ags", "4241": "ugg", "4242": "\u0120core", "4243": "\u0120Press", "4244": "\u0120tick", "4245": "\u0120digital", "4246": "\u0120Bit", "4247": "\u0120hero", "4248": "\u0120advoc", "4249": "\u0120dollars", "4250": "ocr", "4251": "rial", "4252": "\u0120effective", "4253": "\u0120solution", "4254": "\u0120Mal", "4255": "\u0120vill", "4256": "\u0120interested", "4257": "\u0120Sam", "4258": "\u0120Korea", "4259": "BA", "4260": "\u0120highest", "4261": "ords", "4262": "\u0120memory", "4263": "\u0120opening", "4264": "\u0120worse", "4265": "\u0120learning", "4266": "\u0120responsible", "4267": "\u0120trial", "4268": "\u0120daily", "4269": "\u0120kick", "4270": "\u0120theory", "4271": "\u0120Other", "4272": "\u0120offers", "4273": "\u0120Palest", "4274": "\u0120replace", "4275": "\u0120restrict", "4276": "\u0120Get", "4277": "\u0120mur", "4278": "\u0120Office", "4279": "\u0120agreed", "4280": "\u0120television", "4281": "\u0120Francis", "4282": "cience", "4283": "\u0120Micro", "4284": "\u0120Because", "4285": "\u0120occas", "4286": "CC", "4287": "ST", "4288": "illing", "4289": "\u0120vs", "4290": "\u0120detect", "4291": "\u0120train", "4292": "aste", "4293": "\u0120investment", "4294": "\u0120types", "4295": "iation", "4296": "\u0120Western", "4297": "aks", "4298": "icians", "4299": "\u0120chair", "4300": "\u0120miles", "4301": "\u0120millions", "4302": "Con", "4303": "uries", "4304": "\u0120chem", "4305": "\u0120Justice", "4306": "\u0120Del", "4307": "\u0120generally", "4308": "\u0120basis", "4309": "\u0120proposed", "4310": "\u012080", "4311": "\u0120Mike", "4312": "\u0120Mil", "4313": "\u0120Cup", "4314": "These", "4315": "ipe", "4316": "\u0120heavy", "4317": "\u0120explained", "4318": "\u0120map", "4319": "\u0120Our", "4320": "AA", "4321": "rad", "4322": "\u0120der", "4323": "\u0120bur", "4324": "oly", "4325": "win", "4326": "\u0120partners", "4327": "\u0120Add", "4328": "ander", "4329": "\u0120opinion", "4330": "\u0120defe", "4331": "\u0120onto", "4332": "\u0120protest", "4333": "________", "4334": "Get", "4335": "\u0120associated", "4336": "\u0120load", "4337": "rig", "4338": "azing", "4339": "\u0120NFL", "4340": "rate", "4341": "oom", "4342": "44", "4343": "\u0120Found", "4344": "\u0120male", "4345": "\u0120becomes", "4346": "\u0120reject", "4347": "vest", "4348": "outhern", "4349": "====", "4350": "\u0120Security", "4351": "\u0120coal", "4352": "\u0120obtain", "4353": "\u0120destroy", "4354": "\u0120advantage", "4355": "\u0120assum", "4356": "\u0120Liber", "4357": "\u0120condition", "4358": "\u0120announce", "4359": "\u0120hundreds", "4360": "ading", "4361": "\u0120achieve", "4362": "\u0120opened", "4363": "Cl", "4364": "eline", "4365": "\u0120understanding", "4366": "odes", "4367": "\u0120Johnson", "4368": "coming", "4369": "icip", "4370": "\u0120surround", "4371": "well", "4372": "orthern", "4373": "bert", "4374": "upp", "4375": "\u0120initial", "4376": "\u0120Big", "4377": "\u0120sleep", "4378": "36", "4379": "\u0120ship", "4380": "rey", "4381": "\u0120marriage", "4382": "\u0120management", "4383": "\u0120Windows", "4384": "\u0120thus", "4385": "\u0120limit", "4386": "\u0120born", "4387": "32", "4388": "\u0120becoming", "4389": "known", "4390": "\u0120photo", "4391": "\u0120easier", "4392": "FC", "4393": "\u0120Great", "4394": "\u0120rat", "4395": "\u0120legislation", "4396": "\u0120controvers", "4397": "\u0120unlike", "4398": "\u0120electric", "4399": "\u0120Many", "4400": "\u0120camera", "4401": "witch", "4402": "\u0120accused", "4403": "\u0120spl", "4404": "\u0120neighbor", "4405": "\u0120double", "4406": "\u0120ice", "4407": "\u0120species", "4408": "\u0120shared", "4409": "\u0120join", "4410": "\u0120illegal", "4411": "\u012031", "4412": "\u0120Lab", "4413": "\u01202006", "4414": "Mr", "4415": "\u0120machine", "4416": "\u0120harm", "4417": "\u0120served", "4418": "\u0120Jer", "4419": "GB", "4420": "\u0120extremely", "4421": "olf", "4422": "\u0120active", "4423": "\u012035", "4424": "\u0120serve", "4425": "\u0120documents", "4426": "\u0120Islamic", "4427": "\u0120frame", "4428": "za", "4429": "\u0120strik", "4430": "level", "4431": "\u0120Dist", "4432": "\u0120audience", "4433": "lant", "4434": "BS", "4435": "\u0120location", "4436": "\u0120AM", "4437": "\u0120scientists", "4438": "\u0120bottom", "4439": "\u0120victims", "4440": "orrow", "4441": "\u0120wealth", "4442": "\u0120professional", "4443": "ih", "4444": "\u0120resist", "4445": "\u0120reduce", "4446": "\u0120belief", "4447": "\u0120nine", "4448": "\u0120solid", "4449": "\u0120winning", "4450": "\u0120marijuana", "4451": "\u0120Uk", "4452": "\u0120negative", "4453": "75", "4454": "iful", "4455": "lands", "4456": "\u0120communities", "4457": "\u0120returned", "4458": "ortunately", "4459": "\u0120bed", "4460": "ears", "4461": "met", "4462": "\u0120incred", "4463": "\u0120PM", "4464": "\u0120Institute", "4465": "\u0120church", "4466": "PS", "4467": "\u0120department", "4468": "irgin", "4469": "\u0120Sanders", "4470": "\u0120ran", "4471": "\u0120victory", "4472": "\u0120purpose", "4473": "\u012090", "4474": "\u0120Commun", "4475": "\u0120amb", "4476": "\u0120vehicle", "4477": "\u0120internet", "4478": "\u0120leadership", "4479": "\u0120Hall", "4480": "istics", "4481": "ios", "4482": "\u0120bomb", "4483": "\u0120mobile", "4484": "ghan", "4485": "\u0120instance", "4486": "ipped", "4487": "38", "4488": "\u0120separate", "4489": "\u0120existing", "4490": "\u0120notice", "4491": "\u0120hearing", "4492": "\u0120die", "4493": "\u0120explain", "4494": "\u0120doubt", "4495": "\u0120faith", "4496": "\u0120teach", "4497": "house", "4498": "\u0120Your", "4499": "atically", "4500": "\u0120Fin", "4501": "\u0120episode", "4502": "\u0120watching", "4503": "\u0120comfort", "4504": "\u0120Canadian", "4505": "\u0120Bank", "4506": "aran", "4507": "\u0120notes", "4508": "\u0120Att", "4509": "\u0120Ev", "4510": "\u0120fresh", "4511": "\u0120unc", "4512": "\u0120radio", "4513": "\u0120Inc", "4514": "\u0120views", "4515": "\u0120putting", "4516": "asy", "4517": "\u0120supporters", "4518": "\u0120conservative", "4519": "\u0120purs", "4520": "\u0120argument", "4521": "omas", "4522": "\u0120Fox", "4523": "\u0120micro", "4524": "ario", "4525": "acity", "4526": "\u0120launched", "4527": "works", "4528": "scrib", "4529": "OL", "4530": "\u0120appeal", "4531": "iliar", "4532": "\u0120items", "4533": "\u0120committee", "4534": "\u0120Art", "4535": "resp", "4536": "\u0120Mad", "4537": "which", "4538": "\u0120definitely", "4539": "\u0120dangerous", "4540": "iller", "4541": "PA", "4542": "zen", "4543": "\u0120coverage", "4544": "\u0120direction", "4545": "\u0120Over", "4546": "\u0120sun", "4547": "\u0120charged", "4548": "\u0120floor", "4549": "\u0120max", "4550": "ography", "4551": "34", "4552": "EM", "4553": "\u0120Carol", "4554": "\u0120Church", "4555": "\u0120issued", "4556": "\u0120drugs", "4557": "Image", "4558": "ipp", "4559": "\u0120task", "4560": "\u0120background", "4561": "\u0120competition", "4562": "\u0120trend", "4563": "\u0120stated", "4564": "vention", "4565": "andom", "4566": "ada", "4567": "\u0120traffic", "4568": "\u0120FBI", "4569": "\u0120commercial", "4570": "\u0120Direct", "4571": "urb", "4572": "NA", "4573": "\u0120spoke", "4574": "inct", "4575": "\u0120transfer", "4576": "ctors", "4577": "\u0120suggested", "4578": "\u0120structure", "4579": "\u0120sett", "4580": "gu", "4581": "ady", "4582": "\u0120sites", "4583": "\u0120hus", "4584": "\u0120north", "4585": "\u0120Since", "4586": "\u0120Like", "4587": "\u0120restaur", "4588": "ampionship", "4589": "\u0120labor", "4590": "\u0120decade", "4591": "\u0120repeated", "4592": "\u0120Game", "4593": "\u0120react", "4594": "oman", "4595": "\u0120cards", "4596": "\u0120animals", "4597": "going", "4598": "\u0120novel", "4599": "but", "4600": "ribute", "4601": "\u0120daughter", "4602": "anted", "4603": "\u0120Sl", "4604": "\u0120driving", "4605": "\u0120closed", "4606": "\u0120worst", "4607": "\u0120contain", "4608": "\u0120entirely", "4609": "\u0120ded", "4610": "\u0120Britain", "4611": "gency", "4612": "\u0120driver", "4613": "ga", "4614": "\u0120Wil", "4615": "\u0120disease", "4616": "\u0120nor", "4617": "\u0120telling", "4618": "iling", "4619": "\u0120smaller", "4620": "\u0120ge", "4621": "\u0120discovered", "4622": "Bl", "4623": "akistan", "4624": "\u0120Pri", "4625": "Americ", "4626": "\u0120Los", "4627": "\u0120hack", "4628": "!\u00e2\u0122\u013f", "4629": "hem", "4630": "ference", "4631": "ius", "4632": "\u0120Que", "4633": "spe", "4634": "\u0120false", "4635": "\u0120cash", "4636": "equ", "4637": "\u0120concerned", "4638": "ulf", "4639": "ait", "4640": "\u0120plays", "4641": "\u0120surface", "4642": "semb", "4643": "annel", "4644": "\u0120supported", "4645": "ulated", "4646": "\u0120tools", "4647": "\u0120compar", "4648": "oyal", "4649": "\u0120Chris", "4650": "\u0120experiment", "4651": "\u0120finding", "4652": "\u0120transport", "4653": "night", "4654": "\u0120categ", "4655": "\u00e3\u0124", "4656": "\u0120aspect", "4657": "##", "4658": "\u0120businesses", "4659": "\u012070", "4660": "\u0120UN", "4661": "\u0120farm", "4662": "\u0120please", "4663": "\u0120older", "4664": "azon", "4665": "phone", "4666": "how", "4667": "\u0120activities", "4668": "\u0120requires", "4669": "CH", "4670": "\u0120gay", "4671": "itt", "4672": "\u0120Jones", "4673": "ibrary", "4674": "do", "4675": "\u0120strength", "4676": "48", "4677": "\u0120wel", "4678": "andon", "4679": "\u0120insurance", "4680": "\u0120consequ", "4681": "37", "4682": "\u0120largely", "4683": "\u0120murder", "4684": "NN", "4685": "ici", "4686": "55", "4687": "\u0120exerc", "4688": "\u0120caught", "4689": "\u0120candidates", "4690": "kins", "4691": "\u0120Israeli", "4692": "\u0120allowing", "4693": "icy", "4694": "\u0120blue", "4695": "\u0120Are", "4696": "\u0120annual", "4697": "\u0120Ken", "4698": "\u0120testing", "4699": "\u0120Tre", "4700": "ossible", "4701": "\u0120Sup", "4702": "\u0120strateg", "4703": "\u0120raise", "4704": "\u0120stock", "4705": "overy", "4706": "\u0120Robert", "4707": "izes", "4708": "\u0120decisions", "4709": "\u0120accur", "4710": "rick", "4711": "\u0120context", "4712": "lor", "4713": "\u0120fuel", "4714": "\u0120Ac", "4715": "SP", "4716": "osure", "4717": "\u0120Ukrain", "4718": "\u0120concern", "4719": "\u0120afford", "4720": "\u0120believes", "4721": "\u0120construction", "4722": "\u0120truly", "4723": "****", "4724": "\u0120tim", "4725": "\u0120Ty", "4726": "\u0120Miss", "4727": "\u0120justice", "4728": "igrants", "4729": "\u0120generation", "4730": "\u0120highlight", "4731": "\u0120unit", "4732": "rim", "4733": "\u0120presence", "4734": "\u0120Jewish", "4735": "anging", "4736": "!!", "4737": "\u0120Sil", "4738": "\u00d0\u00b0", "4739": "tery", "4740": "\u00d0\u00b5", "4741": "ception", "4742": "\u0120Africa", "4743": "\u0120guess", "4744": "ancy", "4745": "\u0120witness", "4746": "itable", "4747": "\u0120holding", "4748": "\u0120Gree", "4749": "\u0120establish", "4750": "\u0120length", "4751": "\u0120planning", "4752": "\u0120African", "4753": "\u0120sequ", "4754": "ava", "4755": "cknow", "4756": "\u0120san", "4757": "\u0120refuge", "4758": "\u0120placed", "4759": "\u0120catch", "4760": "\u0120Afghan", "4761": "inter", "4762": "\u0120Association", "4763": "\u0120tells", "4764": "\u00e2\u0122\u013a", "4765": "\u0120scale", "4766": "\u0120spokesman", "4767": "bre", "4768": "nel", "4769": "\u0120rough", "4770": "\u0120attend", "4771": "olly", "4772": "\u0120Ver", "4773": "\u0120cells", "4774": "\u0120joined", "4775": "\u0120mentioned", "4776": "\u0120interests", "4777": "\u0120abuse", "4778": "pective", "4779": "\u0120Jim", "4780": "More", "4781": "\u0120hasn", "4782": "\u0120PC", "4783": "\u0120initi", "4784": "\u0120enforcement", "4785": "\u0120Pre", "4786": "\u0120kid", "4787": "\u0120GOP", "4788": "\u0120introduced", "4789": "\u0120deliver", "4790": "\u0120conflict", "4791": "\u0120Mer", "4792": "\u0120rout", "4793": "\u0120Microsoft", "4794": "\u0120phil", "4795": "\u00e2\u0122\u0136\u00e2\u0122\u0136", "4796": "\u0120update", "4797": "ros", "4798": "\u0120missing", "4799": "\u0120providing", "4800": "\u0120waiting", "4801": "\u0120cancer", "4802": "39", "4803": "\u0120recommend", "4804": "ocracy", "4805": "\u0120established", "4806": "ey", "4807": "isation", "4808": "\u0120eat", "4809": "bour", "4810": "\u0120Yes", "4811": "\u0120occup", "4812": "\u0120Frank", "4813": "\u0120Jeff", "4814": "\u0120Angeles", "4815": "\u0120removed", "4816": "\u01202005", "4817": "ula", "4818": "\u0120offensive", "4819": "\u0120Fore", "4820": "\u0120Instead", "4821": "icon", "4822": "\u0120injury", "4823": "\u0120sports", "4824": "47", "4825": "\u0120fant", "4826": "\u0120discussion", "4827": "lig", "4828": "\u0120operation", "4829": "\u0120download", "4830": "\u0120useful", "4831": "\u0120newsp", "4832": "\u0120conversation", "4833": "\u0120homes", "4834": "ronic", "4835": "\u0120south", "4836": "\u0120cook", "4837": "\u0120CEO", "4838": "\u0120assess", "4839": "\u0120Group", "4840": "itz", "4841": "formation", "4842": "\u0120banks", "4843": "onto", "4844": "\u0120stopped", "4845": "\u0120Const", "4846": "\u0120obvious", "4847": "ications", "4848": "\u0120measures", "4849": "\u0120models", "4850": "\u0120Kh", "4851": "\u0120fourth", "4852": "\u0120MP", "4853": "Our", "4854": "season", "4855": "DA", "4856": "what", "4857": "\u0120bul", "4858": "anda", "4859": "\u01202018", "4860": "\u0120files", "4861": "\u0120girls", "4862": "\u0120Louis", "4863": "\u0120stick", "4864": "cks", "4865": "vant", "4866": "azine", "4867": "mail", "4868": "umn", "4869": "\u0120managed", "4870": "iter", "4871": "apped", "4872": "\u0120Palestin", "4873": "oted", "4874": "\u0120Tim", "4875": "\u0120figures", "4876": "oms", "4877": "\u0120identified", "4878": "Pl", "4879": "\u0120graph", "4880": "kin", "4881": "\u0120Jud", "4882": "\u0120Sal", "4883": "\u0120finished", "4884": "igan", "4885": "\u0120funds", "4886": "real", "4887": "\u0120Pakistan", "4888": "\u0120setting", "4889": "\u0120conclud", "4890": "\u0120prefer", "4891": "\u0120hair", "4892": "\u0120committed", "4893": "\u0120Mexico", "4894": "49", "4895": "\u0120skills", "4896": "\u0120appropri", "4897": "\u0120spirit", "4898": "\u0120Rock", "4899": "\u0120veter", "4900": "\u0120focused", "4901": "\u0120arrived", "4902": "\u0120THE", "4903": "\u0120housing", "4904": "\u0120Leg", "4905": "\u0120Virgin", "4906": "gers", "4907": "\u0120keeping", "4908": "\u0120therefore", "4909": "\u0120acknow", "4910": "ulate", "4911": "Des", "4912": "\u0120partner", "4913": "\u0120exclus", "4914": "\u0120Android", "4915": "enses", "4916": "ups", "4917": "\u0120earth", "4918": "\u0120transl", "4919": "outs", "4920": "place", "4921": "\u0120tough", "4922": "\u0120Japanese", "4923": "\u01202000", "4924": "\u0120relatively", "4925": "\u00c3\u00a1", "4926": "\u0120Supreme", "4927": "wing", "4928": "owl", "4929": "\u0120identity", "4930": "\u0120feels", "4931": "\u0120Met", "4932": "\u0120otherwise", "4933": "rd", "4934": "\u0120survey", "4935": "RA", "4936": "\u0120Ryan", "4937": "ocal", "4938": "ication", "4939": "itutional", "4940": "\u0120protection", "4941": "agn", "4942": "\u0120exchange", "4943": "\u0120owner", "4944": "isf", "4945": "Trump", "4946": "\u0120steps", "4947": "\u0120Inter", "4948": "\u0120trip", "4949": "imb", "4950": "\u0120husband", "4951": "\u0120tweet", "4952": "gar", "4953": "\u0120connection", "4954": "\u0120Army", "4955": "\u0120slightly", "4956": "\u0120Prof", "4957": "erences", "4958": "ka", "4959": "eah", "4960": "\u0120weak", "4961": "\u0120Government", "4962": "verse", "4963": "\":", "4964": "\u0120circum", "4965": "\u0120elements", "4966": "\u0120click", "4967": "\u0120Richard", "4968": "\u0120strike", "4969": "\u0120photos", "4970": "\u0120mere", "4971": "\u0120defensive", "4972": "\u0120Nor", "4973": "dden", "4974": "\u0120gain", "4975": "\u0120fle", "4976": "\u0120depend", "4977": "ucky", "4978": "\u0120collection", "4979": "onym", "4980": "hens", "4981": "\u0120killing", "4982": "\u0120roll", "4983": "ighter", "4984": "Go", "4985": "\u0120corner", "4986": "\u0120Martin", "4987": "ancing", "4988": "odies", "4989": "\u0120suggests", "4990": "uct", "4991": "\u0120aggress", "4992": "with", "4993": "prof", "4994": "\u0120guard", "4995": "Photo", "4996": "\u0120gender", "4997": "makers", "4998": "\u0120College", "4999": "\u0120commission", "5000": "\u0120Although", "5001": "range", "5002": "\u0120dat", "5003": "\u0120Sur", "5004": "46", "5005": "\u0120Ir", "5006": "\u0120Dec", "5007": "\u0120mental", "5008": "icide", "5009": "\u0120amazing", "5010": "rees", "5011": "\u0120Sub", "5012": "hi", "5013": "mas", "5014": "\u0120planet", "5015": "\u0120Team", "5016": "rency", "5017": "\u0120Out", "5018": "\u0120bigger", "5019": "\u0120failure", "5020": "\u0120Jose", "5021": "\u0120supply", "5022": "Why", "5023": "ania", "5024": "\u0120starts", "5025": "\u0120sides", "5026": "vis", "5027": "hedul", "5028": "\u0120familiar", "5029": "\u0120remind", "5030": "\u0120sust", "5031": "ils", "5032": "\u0120spect", "5033": "uate", "5034": "\u0120speaking", "5035": "\u0120talks", "5036": "\u0120happening", "5037": "ym", "5038": "\u0120organizations", "5039": "\u0120hate", "5040": "gypt", "5041": "\u0120window", "5042": "\u0120army", "5043": "\u0120Good", "5044": "\u0120Joe", "5045": "\u0120none", "5046": "uke", "5047": "\u0120Pet", "5048": "\u0120taxes", "5049": "\u0120planned", "5050": "\u0120thanks", "5051": "\u0120Mary", "5052": "\u0120struct", "5053": "\u0120pit", "5054": "\u0120decide", "5055": "\u0120sudden", "5056": "\u0120wish", "5057": "\u0120crew", "5058": "\u0120carried", "5059": "lo", "5060": "\u0120Mont", "5061": "oston", "5062": "\u0120pet", "5063": "awn", "5064": "agues", "5065": "ynam", "5066": "\u0120regist", "5067": "TC", "5068": "\u0120multi", "5069": "idering", "5070": "\u0120helping", "5071": "ano", "5072": "Last", "5073": "\u0120award", "5074": "\u0120standards", "5075": "\u012032", "5076": "\u0120Fire", "5077": "gn", "5078": "\u0120revolution", "5079": "\u0120environmental", "5080": "\u0120Web", "5081": "pm", "5082": "arsh", "5083": "\u0120Thomas", "5084": "olit", "5085": "\u0120script", "5086": "ola", "5087": "\u0120seconds", "5088": "run", "5089": "\u0120Research", "5090": "\u0120scientific", "5091": "\u0120Bern", "5092": "\u0120immigration", "5093": "\u0120standing", "5094": "\u0120Their", "5095": "\u012045", "5096": "\u0120que", "5097": "stream", "5098": "ocol", "5099": "\u0120beer", "5100": "\u0120domestic", "5101": "imal", "5102": "adium", "5103": "\u0120pair", "5104": "uters", "5105": "\u0120Also", "5106": "fe", "5107": "\u0120Secretary", "5108": "\u0120Us", "5109": "\u0120academ", "5110": "\u0120cold", "5111": "\u0120variety", "5112": "\u0120markets", "5113": "\u0120sch", "5114": "].", "5115": "HL", "5116": "\u0120territ", "5117": "\u0120dropped", "5118": "\u0120accounts", "5119": "!\"", "5120": "\u0120filed", "5121": "erous", "5122": "acks", "5123": "illa", "5124": "\u0120balance", "5125": "eless", "5126": "\u0120impossible", "5127": "\u0120Ter", "5128": "aven", "5129": "\u0120interact", "5130": "\u0120rou", "5131": "\u0120neighborhood", "5132": "aren", "5133": "\u0120degree", "5134": "Read", "5135": "\u0120Atlant", "5136": "\u0120turns", "5137": "ores", "5138": "itect", "5139": "\u0120possibly", "5140": "\u0120appre", "5141": "\u0120operating", "5142": "\u0120princ", "5143": "\u0120alternative", "5144": "\u0120union", "5145": "\u0120votes", "5146": "\u0120vul", "5147": "ader", "5148": "\u0120professor", "5149": "\u0120tack", "5150": "\u0120Service", "5151": "\u0120increasingly", "5152": "ayer", "5153": "ruit", "5154": "\u0120apply", "5155": "\u0120fellow", "5156": "\u0120cuts", "5157": "stein", "5158": "\u0120honest", "5159": "\u0120univers", "5160": "\u0120Prime", "5161": "\u0120server", "5162": "iser", "5163": "\u0120developers", "5164": "arks", "5165": "\u0120Syrian", "5166": "abb", "5167": "\u0120apparently", "5168": "\u0120lived", "5169": "\u0120changing", "5170": "\u0120worry", "5171": "rastructure", "5172": "\u0120Carolina", "5173": "\u0120tests", "5174": "\u0120units", "5175": "\u0120rich", "5176": "\u0120Two", "5177": "cious", "5178": "icted", "5179": "aded", "5180": "From", "5181": "\u0120humans", "5182": "IM", "5183": "\u0120Foundation", "5184": "\u0120Mos", "5185": "\u0120agencies", "5186": "\u0120sounds", "5187": "ashed", "5188": "\u0120twice", "5189": "\u0120ultimately", "5190": "obby", "5191": "\u0120losing", "5192": "\u0120philos", "5193": "\u0120authority", "5194": "\u0120soldiers", "5195": "\u00e3\u0125", "5196": "\u0120animal", "5197": "\u0120ath", "5198": "\u0120Images", "5199": "\u0120settle", "5200": "\u0120schedul", "5201": "\u0120mut", "5202": "\u0120colle", "5203": "\u0120corporate", "5204": "\u0120absolutely", "5205": "\u0120healthy", "5206": "\u0120paying", "5207": "och", "5208": "\u0120equip", "5209": "iams", "5210": "\u0120developing", "5211": "\u0120sea", "5212": "\u0120closer", "5213": "\u0120Den", "5214": "\u0120innov", "5215": "\u0120Time", "5216": "related", "5217": "\u0120seeking", "5218": "\u0120regarding", "5219": "roud", "5220": "coh", "5221": "\u0120skin", "5222": "\u0120expensive", "5223": "ansion", "5224": "\u0120possibility", "5225": "\u0120beautiful", "5226": "\u0120religion", "5227": "\u0120Central", "5228": "\u0120apart", "5229": "\u0120fundament", "5230": "\u0120experts", "5231": "\u0120solar", "5232": "65", "5233": "\u0120yards", "5234": "\u0120writer", "5235": "\u0120flight", "5236": "\u0120vast", "5237": "\u0120District", "5238": "\u0120Last", "5239": "\u0120deploy", "5240": "\u0120adjust", "5241": "Of", "5242": "\u0120internal", "5243": "\u0120Under", "5244": "\u0120Lat", "5245": "31", "5246": "\u0120Peter", "5247": "\u0120Plan", "5248": "apers", "5249": "\u0120imagine", "5250": "\u0120Jon", "5251": "IV", "5252": "\u0120applications", "5253": "iot", "5254": "ologies", "5255": "\u0120vision", "5256": "look", "5257": "state", "5258": "osen", "5259": "\u0120Francisco", "5260": "\u0120Toronto", "5261": "den", "5262": "\u0120sitting", "5263": "\u0120trail", "5264": "\u0120unless", "5265": "\u0120USA", "5266": "\u0120Jes", "5267": "isted", "5268": "\u0120heat", "5269": "\u0120gar", "5270": "\u01202004", "5271": "Even", "5272": "\u0120responsibility", "5273": "\u0120capacity", "5274": "\u0120Dan", "5275": "IP", "5276": "atures", "5277": "\u0120Middle", "5278": "\u0120error", "5279": "aine", "5280": "ias", "5281": "\u0120symb", "5282": "\u0120fol", "5283": "\u0120arms", "5284": "\u0120pil", "5285": "pire", "5286": "\u0120covered", "5287": "idden", "5288": "\u0120Bur", "5289": "\u0120appoint", "5290": "\u0120famous", "5291": "\u0120Camp", "5292": "\u0120forms", "5293": "uzz", "5294": "ND", "5295": "\u0120university", "5296": "\u0120tight", "5297": "top", "5298": "\u0120presented", "5299": "ortion", "5300": "oving", "5301": "enced", "5302": "\u0120ST", "5303": "\u0120Egypt", "5304": "\u0120earn", "5305": "\u0120Put", "5306": "\u0120convention", "5307": "under", "5308": "Just", "5309": "\u0120Public", "5310": "\u0120surprise", "5311": "\u0120attorney", "5312": "\u0120elections", "5313": "\u0120estimated", "5314": "\u0120fif", "5315": "\u0120Ari", "5316": "gl", "5317": "\u0120teen", "5318": "\u0120instit", "5319": "\u0120vehicles", "5320": "rible", "5321": "\u0120Amazon", "5322": "road", "5323": "\u0120intended", "5324": ".\u00e2\u0122\u013f<|", "5325": "\u0120rid", "5326": "\u0120odd", "5327": "\u0120helps", "5328": "\u0120occurred", "5329": "person", "5330": "\u0120streets", "5331": "uster", "5332": "hand", "5333": "ini", "5334": "\u0120Boston", "5335": "\u0120Sol", "5336": "\u0120=>", "5337": "=\"", "5338": "sen", "5339": "\u0120Mur", "5340": "\u0120sport", "5341": "\u0120determine", "5342": "ressive", "5343": "\u0120Bitcoin", "5344": "\u0120expert", "5345": "alls", "5346": "\u0120consult", "5347": "uration", "5348": "Let", "5349": "\u0120broken", "5350": "\u0120guaran", "5351": "lets", "5352": "\u0120fired", "5353": "\u0120ton", "5354": "\u0120flow", "5355": "\u0120domin", "5356": "\u0120Gal", "5357": "inte", "5358": "porary", "5359": "eder", "5360": "LE", "5361": "\u0120shall", "5362": "\u0120reserv", "5363": "\u0120troops", "5364": "ION", "5365": "\u0120Those", "5366": "\u0120hyp", "5367": "Up", "5368": "\u0120nar", "5369": "terday", "5370": "\u0120pieces", "5371": "\u0120Chief", "5372": "\u0120prepared", "5373": "\u0120Mass", "5374": "\u0120Cath", "5375": "\u0120rapid", "5376": "orage", "5377": "\u0120Jo", "5378": "rie", "5379": "\u0120located", "5380": "\u0120Social", "5381": "\u0120baby", "5382": "----------------", "5383": "\u0120conclus", "5384": "\u0120bringing", "5385": "\u0120prove", "5386": "\u0120specifically", "5387": "\u0120Any", "5388": "\u0120potentially", "5389": "\u0120sector", "5390": "anche", "5391": "\u0120random", "5392": "\u0120jail", "5393": "OW", "5394": "\u0120selling", "5395": "\u0120Ve", "5396": "\u0120governments", "5397": "\u0120Once", "5398": "\u0120scr", "5399": "Ab", "5400": "\u0120equal", "5401": "Ne", "5402": "class", "5403": "\u0120faster", "5404": "\u0120heav", "5405": "\u0120Spr", "5406": "\u0120boost", "5407": "useum", "5408": "vey", "5409": "war", "5410": "\u0120clin", "5411": "\u0120proposal", "5412": "oty", "5413": "\u0120factors", "5414": "\u0120plenty", "5415": "TH", "5416": "\u0120equipment", "5417": "\u0120council", "5418": "\u0120era", "5419": "\u0120infrastructure", "5420": "Do", "5421": "\u0120stress", "5422": "phas", "5423": "\u0120stars", "5424": "\u0120Journal", "5425": "\u0120Rub", "5426": "endment", "5427": "\u0120Virginia", "5428": "\u0120breat", "5429": "\u0120prosecut", "5430": "\u0120voted", "5431": "\u0120offering", "5432": "\u0120carbon", "5433": "inent", "5434": "\u0120expressed", "5435": "\u0120combat", "5436": "\u0120vulner", "5437": "\u0120Paris", "5438": "\u0120broke", "5439": "()", "5440": "ureau", "5441": "\u0120clot", "5442": "ours", "5443": "\u0120ruling", "5444": "\u0120Federal", "5445": "\u0120retail", "5446": "\u0120Guard", "5447": "\u0120refused", "5448": "\u0120dram", "5449": "\u0120elected", "5450": "\u0120Open", "5451": "\u0120River", "5452": "Every", "5453": "\u0120secure", "5454": "cean", "5455": "\u0120seasons", "5456": "\u0120conducted", "5457": ",'", "5458": "\u0120challenges", "5459": "\u0120remove", "5460": "isher", "5461": "ht", "5462": "\u0120methods", "5463": "\u0120weapon", "5464": "noon", "5465": "\u0120pointed", "5466": "\u0120Island", "5467": "\u0120master", "5468": "\u0120remained", "5469": "\u0120Australian", "5470": "\u0120prime", "5471": "ENT", "5472": "\u0120trig", "5473": "\u0120Mel", "5474": "\u0120positions", "5475": "\u0120Cru", "5476": "\u0120infect", "5477": "\u0120din", "5478": "\u0120criticism", "5479": "ipping", "5480": "First", "5481": "ocking", "5482": "\u0120Medic", "5483": "\u0120Fe", "5484": "\u0120Please", "5485": "tion", "5486": "rog", "5487": "onom", "5488": "IG", "5489": "\u0120sale", "5490": "olved", "5491": "\u0120cultural", "5492": "that", "5493": "\u0120weren", "5494": "\u0120significantly", "5495": "\u0120brow", "5496": "etic", "5497": "\u0120originally", "5498": "Ste", "5499": "\u0120During", "5500": "\u0120stret", "5501": "\u0120affected", "5502": "\u0120appearance", "5503": "\u0120cas", "5504": "\u0120Sant", "5505": "\u0120tourn", "5506": "\u0120facing", "5507": "\u0120greatest", "5508": "\u0120finish", "5509": "\u0120Lee", "5510": "\u0120youth", "5511": "yr", "5512": "\u0120tele", "5513": "\u0120Who", "5514": "\u0120Cur", "5515": "\u0120percentage", "5516": "\u0120Photo", "5517": "col", "5518": "\u0120determined", "5519": "\u0120signs", "5520": "\u0120involve", "5521": "95", "5522": "cel", "5523": "\u00d0\u00b8", "5524": "64", "5525": "\u0120thank", "5526": "\u0120bought", "5527": "\u0120500", "5528": "lyn", "5529": "\u0120Sing", "5530": "standing", "5531": "\u0120chemical", "5532": "ashion", "5533": "\u0120shape", "5534": "\u0120vir", "5535": "\u0120regime", "5536": "\u0120grew", "5537": "pired", "5538": "\u0120remaining", "5539": "\u0120Steve", "5540": "lymp", "5541": "\u0120minimum", "5542": "\u0120Saud", "5543": "reens", "5544": "\u0120indeed", "5545": "\u0120dream", "5546": "rier", "5547": "aling", "5548": "Since", "5549": "\u0120marg", "5550": "Sp", "5551": "\u0120Ro", "5552": "\u0120Both", "5553": ">>", "5554": "\u0120mode", "5555": "\u0120herself", "5556": "\u0120voting", "5557": "\u0120Color", "5558": "\u0120obviously", "5559": "\u0120Force", "5560": "\u0120reduced", "5561": "ordin", "5562": "\u0120Nov", "5563": "\u0120Rem", "5564": "\u0120wood", "5565": "\u0120recorded", "5566": "\u0120argued", "5567": "\u01201990", "5568": "\u0120revenue", "5569": "\u0120tact", "5570": "\u0120wearing", "5571": "ighters", "5572": "\u0120leads", "5573": "edia", "5574": "\u0120hun", "5575": "\u0120politicians", "5576": "\u0120plus", "5577": "\u0120switch", "5578": "\u0120contrast", "5579": "\u0120handle", "5580": "\u0120purchase", "5581": "\u0120thr", "5582": "\u0120subs", "5583": "\u0120concent", "5584": "\u0120proced", "5585": "gment", "5586": "\u00d1\u0124", "5587": "\u0120agent", "5588": "arp", "5589": "\u0120Williams", "5590": "\u0120appreci", "5591": "eds", "5592": "\u0120experienced", "5593": "\u0120hurt", "5594": "\u0120excited", "5595": "\u0120videos", "5596": "\u0120https", "5597": "cohol", "5598": "\u0120supporting", "5599": "DP", "5600": "\u0120Haw", "5601": "mm", "5602": "\u0120Free", "5603": "\u0120surprising", "5604": "ller", "5605": "\u0120minute", "5606": "odd", "5607": "\u0120explos", "5608": "\u0120Pac", "5609": "\u0120belong", "5610": "\u0120consumers", "5611": "\u0120identify", "5612": "\u0120considering", "5613": "ownt", "5614": "\u0120Conserv", "5615": "apter", "5616": "\u0120aircraft", "5617": "\u0120aid", "5618": "\u0120pulled", "5619": "\u0120rent", "5620": "CL", "5621": "\u0120basically", "5622": "\u0120differences", "5623": "ogue", "5624": "\u0120Book", "5625": "\u0120glass", "5626": "http", "5627": "\u0120afternoon", "5628": "\u0120Rad", "5629": "\u0120shift", "5630": "\u0120diss", "5631": "\u0120ends", "5632": "essions", "5633": "\u0120turning", "5634": "\u0120bound", "5635": "\u0120films", "5636": "\u0120spring", "5637": "\u0120depart", "5638": "\u0120prospect", "5639": "ruption", "5640": "ket", "5641": "\u0120Charl", "5642": "hab", "5643": "05", "5644": "life", "5645": "\u0120treated", "5646": "\u0120accident", "5647": ",[", "5648": "01", "5649": "\u0120motiv", "5650": "\u0120listen", "5651": "\u0120seat", "5652": "\u0120Power", "5653": "uts", "5654": "\u0120combined", "5655": "\u0120construct", "5656": "Ind", "5657": "\u0120seriously", "5658": "\u0120privacy", "5659": "apping", "5660": "\u0120evening", "5661": "hered", "5662": "\u0120opportunities", "5663": "asp", "5664": "hy", "5665": "\u0120struggle", "5666": "\u0120195", "5667": "\u0120panel", "5668": "\u0120enemy", "5669": "\u0120lots", "5670": "\u0120completed", "5671": "\u0120Daily", "5672": "\u0120visual", "5673": "His", "5674": "pet", "5675": "Phone", "5676": "Pe", "5677": "\u0120talked", "5678": "pted", "5679": "\u0120hopes", "5680": "oral", "5681": "\u0120passing", "5682": "\u0120id", "5683": "\u0120apps", "5684": "osite", "5685": "\u0120Step", "5686": "PD", "5687": "\u0120calcul", "5688": "\u0120mort", "5689": "Another", "5690": "\u0120widely", "5691": "ensions", "5692": "\u0120emergency", "5693": "\u0120Hol", "5694": "\u0120Show", "5695": "\u0120suit", "5696": "\u0120element", "5697": "amm", "5698": "\u0120ast", "5699": "anged", "5700": "SS", "5701": "ucks", "5702": "aled", "5703": "\u0120powers", "5704": "\u0120Rel", "5705": "\u0120BBC", "5706": "\u0120flat", "5707": "\u0120Olymp", "5708": "\u0120burn", "5709": "TV", "5710": "\u0120discl", "5711": "\u0120plants", "5712": "obe", "5713": "\u0120Space", "5714": "ato", "5715": "\u0120liberal", "5716": "raud", "5717": "\u0120opposed", "5718": "Well", "5719": "\u0120proceed", "5720": "ompl", "5721": "\u0120copyright", "5722": "oking", "5723": "\u0120Project", "5724": "\u0120advance", "5725": "\u0120factor", "5726": "\u0120distance", "5727": "\u01202003", "5728": "ivered", "5729": "\u0120dismiss", "5730": "plom", "5731": "\u0120attempts", "5732": "\u0120tun", "5733": "\u0120Bet", "5734": "\u0120Road", "5735": "abilities", "5736": "Am", "5737": "\u0120IN", "5738": "\u0120trouble", "5739": "ributed", "5740": "unction", "5741": "\u0120hol", "5742": "\u0120collabor", "5743": "\u0120default", "5744": "idel", "5745": "\u0120zone", "5746": "\u0120encoun", "5747": "\u0120Jackson", "5748": "\u0120upgr", "5749": "rawn", "5750": "ita", "5751": "\u0120reaction", "5752": "\u0120storm", "5753": "\u0120reporters", "5754": "\u0120Mem", "5755": "\u0120frust", "5756": "PR", "5757": "nell", "5758": "mosp", "5759": "adow", "5760": "\u0120writes", "5761": "mond", "5762": "aints", "5763": "\u0120typically", "5764": "lines", "5765": "\u0120Today", "5766": "respond", "5767": "UT", "5768": "\u0120pages", "5769": "\u0120instruct", "5770": "ternal", "5771": "\u0120reference", "5772": "\u0120package", "5773": "\u0120bodies", "5774": "zer", "5775": "\u0120matters", "5776": "sts", "5777": "42", "5778": "free", "5779": "\u0120denied", "5780": "care", "5781": "edd", "5782": "App", "5783": "\u0120quant", "5784": "\u0120disappoint", "5785": "\u0120sem", "5786": "\u0120explo", "5787": "ette", "5788": "\u0120NAS", "5789": "\u0120optim", "5790": "ache", "5791": "\u0120quiet", "5792": "\u0120entertain", "5793": "\u0120mal", "5794": "\u0120responded", "5795": "\u0120approved", "5796": "\u0120Turkey", "5797": "\u0120satisf", "5798": "aped", "5799": "Rep", "5800": "\u0120broadcast", "5801": "esters", "5802": "De", "5803": "\u0120institutions", "5804": "\u0120advert", "5805": "\u0120stands", "5806": "\u0120Director", "5807": "\u0120sets", "5808": "estival", "5809": "\u0120elimin", "5810": "isters", "5811": "razy", "5812": "\u00c3\u00a4", "5813": "\u0120Penn", "5814": "\u0120valid", "5815": "host", "5816": "\u0120renew", "5817": "\u0120Ohio", "5818": "Cont", "5819": "0000", "5820": "\u0120split", "5821": "\u0120severe", "5822": "\u0120William", "5823": "\u0120sac", "5824": "abin", "5825": "\u0120capable", "5826": "\u0120Matt", "5827": "\u01202001", "5828": "\u0120//", "5829": "\u0120pitch", "5830": "aniel", "5831": "\u0120caption", "5832": "\u0120cloud", "5833": "\u0120loved", "5834": "\u0120technical", "5835": "\u0120giant", "5836": "pass", "5837": "\u0120cann", "5838": "\u0120tradition", "5839": "water", "5840": "\u0120bull", "5841": "\u0120confident", "5842": "elly", "5843": "uous", "5844": "\u0120confidence", "5845": "\u0120numerous", "5846": "\u0120reportedly", "5847": "\u0120faces", "5848": "],", "5849": "writ", "5850": "\u0120weather", "5851": "\u0120fly", "5852": "\u0120Ma", "5853": "\u0120transition", "5854": "rid", "5855": "\u012036", "5856": "\u0120System", "5857": "unte", "5858": "\u0120Afghanistan", "5859": "\u0120gra", "5860": "\u0120Squ", "5861": "\u0120waste", "5862": "\u0120creation", "5863": "\u0120perspective", "5864": "\u0120unable", "5865": "\u0120forget", "5866": "\u0120Labour", "5867": "43", "5868": "\u0120Yet", "5869": "astern", "5870": "employ", "5871": ".\"<|", "5872": "oken", "5873": "\u0120Media", "5874": "angers", "5875": "II", "5876": "\u0120craft", "5877": "\u0120substant", "5878": "\u0120cooper", "5879": "\u0120violent", "5880": "\u0120suffered", "5881": "ilit", "5882": "\u0120mand", "5883": "ampion", "5884": "\u0120coast", "5885": "\u0120pictures", "5886": "\u0120experiences", "5887": "\u0120approx", "5888": "\u0120route", "5889": "abled", "5890": "rant", "5891": "88", "5892": "\u0120flag", "5893": "\u0120advice", "5894": "\u0120Andrew", "5895": "usiness", "5896": "\u0120declared", "5897": "\u0120Wal", "5898": "\u0120ordered", "5899": "\u0120Human", "5900": "razil", "5901": "\u0120crimes", "5902": "\u0120coff", "5903": "\u0120proud", "5904": "ishes", "5905": "\u0120reporting", "5906": "\u0120messages", "5907": "sex", "5908": "\u0120circumst", "5909": "\u0120findings", "5910": "\u0120Lin", "5911": "\u0120eval", "5912": "ulations", "5913": "Res", "5914": "\u0120excell", "5915": "Over", "5916": "\u0120declined", "5917": "\u0120explains", "5918": "can", "5919": "\u0120delay", "5920": "\u0120\\", "5921": "\u0120Follow", "5922": "\u0120newspaper", "5923": "ounded", "5924": "\u0120connected", "5925": "ilty", "5926": "\u0120shouldn", "5927": "evin", "5928": "oves", "5929": "\u0120ongoing", "5930": "\u0120van", "5931": "dule", "5932": "\u0120movies", "5933": "\u0120picked", "5934": "resents", "5935": "77", "5936": "\u0120admitted", "5937": "\u0120delivered", "5938": "During", "5939": "\u0120guns", "5940": "\u0120ML", "5941": "ionally", "5942": "\u0120Scot", "5943": "\u0120walking", "5944": "\u0120prin", "5945": "\u0120agents", "5946": "called", "5947": "\u0120editor", "5948": "\u0120thoughts", "5949": "\u0120married", "5950": "\u0120Tra", "5951": "\u0120auth", "5952": "\u0120emails", "5953": "\u0120appropriate", "5954": "\u0120emphas", "5955": "uations", "5956": "\u0120edge", "5957": "\u0120architect", "5958": "\u0120Grand", "5959": "\u0120leaves", "5960": "\u0120updates", "5961": "\u0120accompl", "5962": "OD", "5963": "\u0120gather", "5964": "\u0120Muslims", "5965": "\u0120forg", "5966": "ansas", "5967": "\u0120Wood", "5968": "\u0120quarterback", "5969": "\u0120session", "5970": "ooth", "5971": "41", "5972": "arn", "5973": "\u0120Techn", "5974": "\u0120pool", "5975": "\u0120Science", "5976": "cos", "5977": "\u0120injured", "5978": "\u0120publicly", "5979": "ellow", "5980": "\u0120Sov", "5981": "\u0120statements", "5982": "\u0120perman", "5983": "\u0120legit", "5984": "arl", "5985": "nergy", "5986": "MA", "5987": "\u0120confirm", "5988": "\u0120Lake", "5989": "\u0120ourselves", "5990": "Other", "5991": "\u0120realize", "5992": "\u0120drivers", "5993": "\u0120rot", "5994": "\u0120Av", "5995": "Te", "5996": "\u0120Dou", "5997": "TA", "5998": "mates", "5999": ",\u00e2\u0122\u013b", "6000": "\u0120armed", "6001": "essor", "6002": "\u0120dial", "6003": "cons", "6004": "\u0120lawyer", "6005": "ourney", "6006": "\u0120rail", "6007": "\u0120readers", "6008": "reland", "6009": "\u0120sad", "6010": "\u0120contains", "6011": "\u0120argue", "6012": "\u0120Rev", "6013": "\u0120talent", "6014": "\u0120filled", "6015": "\u0120Sum", "6016": "\u0120allegations", "6017": "\u0120activists", "6018": "\u0120Christmas", "6019": "\u0120dynam", "6020": "\u01201980", "6021": "\u0120Michigan", "6022": "date", "6023": "\u0120Back", "6024": "\u0120Ron", "6025": "long", "6026": "\u0120crack", "6027": "\u0120transform", "6028": "Tube", "6029": "\u0120Read", "6030": "\u0120buildings", "6031": "\u0120wear", "6032": "Many", "6033": "\u0120Ill", "6034": "\u0120terrorist", "6035": "\u0120sam", "6036": "\u0120tree", "6037": "\u0120exercise", "6038": "enda", "6039": "\u0120label", "6040": "\u0120effectively", "6041": "Oh", "6042": "\u0120practices", "6043": "\u0120subsequ", "6044": "ala", "6045": "\u0120Jul", "6046": "\u0120Sher", "6047": "TS", "6048": "uls", "6049": "\u0120flo", "6050": "\u0120fish", "6051": "\u0120Hy", "6052": "enture", "6053": "\u0120shop", "6054": "\u0120examples", "6055": "\u0120See", "6056": "\u0120patient", "6057": "\u0120Gen", "6058": "\u0120Seattle", "6059": "\u0120objects", "6060": "\u0120tech", "6061": "\u0120secretary", "6062": "asure", "6063": "\u0120rain", "6064": "gia", "6065": "\u0120missed", "6066": "\u0120causes", "6067": "illy", "6068": "rum", "6069": "\u0120debut", "6070": "\u0120Rod", "6071": "\u0120essentially", "6072": "66", "6073": "\u0120moral", "6074": "orders", "6075": "amin", "6076": "ador", "6077": "word", "6078": "def", "6079": "acter", "6080": "\u0120Work", "6081": "arters", "6082": "\u0120Ukraine", "6083": "\u0120Stan", "6084": "\u0120centre", "6085": "Follow", "6086": "\u0120Vict", "6087": "bur", "6088": "\u0120ID", "6089": "icing", "6090": "\u0120injuries", "6091": "\u0120Phot", "6092": "\u0120motor", "6093": "\u0120iPhone", "6094": "\u0120artist", "6095": "\u0120client", "6096": "\u0120bond", "6097": "\u0120thinks", "6098": "iat", "6099": "orse", "6100": "ouston", "6101": "\u0120pure", "6102": "\u0120hell", "6103": "Although", "6104": "\u0120Saudi", "6105": "\u0120facts", "6106": "\u0124\u00ac", "6107": "\u0120desire", "6108": "agers", "6109": "aza", "6110": "\u0120ske", "6111": "orry", "6112": "\u0120linked", "6113": "\u00c3\u0143", "6114": "\u0120governor", "6115": "\u0120Bat", "6116": "\u0120materials", "6117": "\u0120performed", "6118": "Spe", "6119": "\u0120franch", "6120": "esome", "6121": "\u0120suc", "6122": "\u0120philosoph", "6123": "\u0120initially", "6124": "iest", "6125": "\u0120Sign", "6126": "\u0120necessarily", "6127": "\u0120Fer", "6128": "\u0120expansion", "6129": "\u0120scheduled", "6130": "ERS", "6131": "\u0120warned", "6132": "\u0120diplom", "6133": "\u0120advanced", "6134": "\u0120ing", "6135": "\u0120explan", "6136": "\u0120vari", "6137": "\u0120everybody", "6138": "\u0120joint", "6139": "\u0120decre", "6140": "\u0120resolution", "6141": "\u0120increases", "6142": "enger", "6143": "Yes", "6144": "\u0120accepted", "6145": "\u0120incor", "6146": "\u0120myster", "6147": "\u0120faced", "6148": "\u0120bare", "6149": "illance", "6150": "\u0120announcement", "6151": "\u0120follows", "6152": "gent", "6153": "\u0120Mount", "6154": "\u0120nations", "6155": "\u0120playoff", "6156": "\u0120Life", "6157": "\u0120abandon", "6158": "\u0120Second", "6159": "\u0120radical", "6160": "\u0120athlet", "6161": "\u0120neither", "6162": "\u0120yesterday", "6163": "\u0120datab", "6164": "\u0120nearby", "6165": "\u0120distribution", "6166": "otic", "6167": "\u0120applied", "6168": "irty", "6169": "\u0120magazine", "6170": "Most", "6171": "athan", "6172": "rich", "6173": "\u0120consequences", "6174": "\u0120mir", "6175": "\u0120doctor", "6176": "\u0120listed", "6177": "\u0120Columb", "6178": "\u0120atmosp", "6179": "American", "6180": "\u0120surprised", "6181": "\u0120fort", "6182": "\u0120offense", "6183": "uy", "6184": "Qu", "6185": "itors", "6186": "\u0120CNN", "6187": "\u0120RE", "6188": "\u0120spons", "6189": "\u0120begins", "6190": "\u0120Week", "6191": "\u0120threats", "6192": "\u0120af", "6193": "sembly", "6194": "\u0120represents", "6195": "edy", "6196": "\u0120Jews", "6197": "\u0120GM", "6198": "\u0120Aff", "6199": "\u0120enh", "6200": "\u0120moves", "6201": "\u0120remark", "6202": "\u0120TO", "6203": "\u0120pra", "6204": "\u0120songs", "6205": "kay", "6206": "\u0120behavi", "6207": "omin", "6208": "\u0120ride", "6209": "\u0120adds", "6210": "Can", "6211": "\u0120withd", "6212": "\u00c3\u0124", "6213": "\u0120improved", "6214": "rip", "6215": "\u0120phen", "6216": "\u0120Blue", "6217": "\u0120bot", "6218": "\u0120warm", "6219": "\u0120alcohol", "6220": "\u0120output", "6221": "law", "6222": "\u0120AT", "6223": "\u0120flood", "6224": "\u0120Develop", "6225": "\u0120Hen", "6226": "whel", "6227": "\u0120shots", "6228": "\u0120fill", "6229": "\u0120Vol", "6230": "\u0120stood", "6231": "\u0120brings", "6232": "\u0120alt", "6233": "\u0120pushed", "6234": "\u0120guilty", "6235": "\u0120Romney", "6236": "\u0120Kim", "6237": "\u0120subscrib", "6238": "85", "6239": "\u0120entry", "6240": "ocratic", "6241": "\u0120Dev", "6242": "\u0120Brazil", "6243": "\u0120democracy", "6244": "\u0120boys", "6245": "rac", "6246": "\u012033", "6247": "\u0120row", "6248": "\u0120Swed", "6249": "\u0120config", "6250": "\u0120NBA", "6251": "\u0120lawsuit", "6252": "\u0120Ireland", "6253": "\u0120manufacture", "6254": "\u0120receiving", "6255": "\u0120rein", "6256": "\u0120Barack", "6257": "Then", "6258": "\u0120trib", "6259": "\u0120totally", "6260": "\u0120Only", "6261": "\u0120discussed", "6262": "\u0120restaurant", "6263": "\u0120sought", "6264": "\u0120rising", "6265": "\u0120entered", "6266": "\u0120ISIS", "6267": "\u0120Board", "6268": "\u0120consistent", "6269": "\u0120historical", "6270": "twitter", "6271": "\u0120storage", "6272": "ideo", "6273": "\u0120correspond", "6274": "\u0120plane", "6275": "\u0120combination", "6276": "\u0120scored", "6277": "\u0120input", "6278": "\u0120300", "6279": "\u0120symbol", "6280": "\u0120bright", "6281": "\u0120button", "6282": "irds", "6283": "\u0120succeed", "6284": "stood", "6285": "\u0120creative", "6286": "\u0120investors", "6287": "\u0120square", "6288": "\u0120articles", "6289": "\u01202002", "6290": "\u0120island", "6291": "pty", "6292": "mes", "6293": "\u0120deaths", "6294": "\u0120functions", "6295": "\u0120networks", "6296": "\u0120classes", "6297": "\u0120unlikely", "6298": "alty", "6299": "\u0120heads", "6300": "ician", "6301": "\u0120boss", "6302": "\u0120native", "6303": "icious", "6304": "\u0120lie", "6305": "\u0120sav", "6306": "\u0120Lib", "6307": "\u0120roughly", "6308": "\u0120consumer", "6309": "\u0120Whe", "6310": "\u0120Walk", "6311": "\u0120Prem", "6312": "fortunately", "6313": "\u0120Ms", "6314": "\u0120string", "6315": "\u0120Maybe", "6316": "\u0120heavily", "6317": "\u0120Another", "6318": "\u0120fairly", "6319": "\u0120temperature", "6320": "arden", "6321": "ican", "6322": "\u0120kit", "6323": "\u0120existence", "6324": "\u0120Its", "6325": "\u0120Asia", "6326": "\u0120contest", "6327": "Add", "6328": "\u0120plot", "6329": "issions", "6330": "dis", "6331": "\u0120Cub", "6332": "\u0120resident", "6333": "Man", "6334": "usal", "6335": "\u0120targets", "6336": "\u0120Bob", "6337": "\u0120resc", "6338": "\u0120Korean", "6339": "duc", "6340": "\u0120lock", "6341": "\u0120younger", "6342": "\u0120Str", "6343": "',", "6344": "\u0120colleagues", "6345": "PU", "6346": "\u0120library", "6347": "\u00c3\u00b6", "6348": "\u0120rally", "6349": "\u0120parliament", "6350": "\u0120protests", "6351": "\u0120anywhere", "6352": "oked", "6353": "\u0120Sports", "6354": "\u0120Sky", "6355": "\u0120bike", "6356": "zona", "6357": "\u0120breaking", "6358": "ii", "6359": "acle", "6360": "\u0120grab", "6361": "\u0120stores", "6362": "\u0120expression", "6363": "\u0120sym", "6364": "\u0120chain", "6365": "\u0120blow", "6366": "\u0120warning", "6367": "\u0120importance", "6368": "\u0120defined", "6369": "\u0120chart", "6370": "\u0120buying", "6371": "greg", "6372": "\u0120manage", "6373": "\u0120prohib", "6374": "\u0120classic", "6375": "\u0120cere", "6376": "\u0120snow", "6377": "\u0120adults", "6378": "\u0120illust", "6379": "\u0120Each", "6380": "See", "6381": "\u0120marketing", "6382": "Ob", "6383": "\u0120links", "6384": "\u00c3\u00b3", "6385": "iques", "6386": "\u0120shif", "6387": "born", "6388": "andal", "6389": "\u0120Club", "6390": "\u0120tow", "6391": "\u0120Hist", "6392": "\u0120fraud", "6393": "OC", "6394": "pret", "6395": "\u0120facility", "6396": "ollywood", "6397": "cho", "6398": "\u0120hardware", "6399": "\u0120schol", "6400": "\u0120allegedly", "6401": "\u012037", "6402": "\u0120regulations", "6403": "\u0120bon", "6404": "\u0120doctors", "6405": "\u0120Colorado", "6406": "agan", "6407": "\u0120currency", "6408": "\u0120household", "6409": "\u0120replaced", "6410": "\u0120essential", "6411": "En", "6412": "opy", "6413": "onna", "6414": "\u0120Ram", "6415": "\u0120somewhat", "6416": "\u0120Div", "6417": "press", "6418": "86", "6419": "\u0120nav", "6420": "power", "6421": "\u0120favour", "6422": "\u0120promise", "6423": "\u0120DC", "6424": "\u0120Boy", "6425": "\u0120laugh", "6426": "Pol", "6427": "\u0120Rights", "6428": "\u0120holds", "6429": "\u0120opposite", "6430": "ocket", "6431": "ena", "6432": "\u00d1\u0123", "6433": "\u0120moments", "6434": "west", "6435": "\u0120hat", "6436": "tering", "6437": "\u0120opponent", "6438": "\u0120bug", "6439": "\u0120Far", "6440": "\u0120campus", "6441": "\u0120acts", "6442": "\u0120rum", "6443": "etroit", "6444": "\u0120versions", "6445": "\u0120metal", "6446": "\u0120motion", "6447": "hips", "6448": "\u0120evolution", "6449": "ometimes", "6450": "\u0120vice", "6451": "anish", "6452": "\u0120sees", "6453": "\u0120Image", "6454": "\u0120bag", "6455": "\u0120relevant", "6456": "\u0120industrial", "6457": "\u0120zero", "6458": "\u0120sick", "6459": "IR", "6460": "oma", "6461": "\u0120closely", "6462": "\u0120Ann", "6463": "hetic", "6464": "\u0120emotional", "6465": "chen", "6466": "game", "6467": "IF", "6468": "\u0120YouTube", "6469": "\u0120Year", "6470": "va", "6471": "\u0120fewer", "6472": "\u0120division", "6473": "olve", "6474": "\u0120adm", "6475": "\u0120downt", "6476": "\u0120harder", "6477": "\u0120refere", "6478": "\u0120customer", "6479": "\u0120hoping", "6480": "ologist", "6481": "\u0120tom", "6482": "\u0120Brook", "6483": "Donald", "6484": "\u0120Valley", "6485": "\u0120hur", "6486": "\u0120Gra", "6487": "\u0120mechanism", "6488": "ittle", "6489": "po", "6490": "ml", "6491": "\u0120Houston", "6492": "\u0120Elect", "6493": "inem", "6494": "\u0120returns", "6495": "NC", "6496": "atell", "6497": "\u0120volunte", "6498": "\u0120participants", "6499": "\u0120extent", "6500": "\u0120intention", "6501": "gas", "6502": "alian", "6503": "pan", "6504": "\u0120excellent", "6505": "\u0120Soviet", "6506": "\u0120syn", "6507": "\u0120acknowled", "6508": "llect", "6509": "ulous", "6510": "\u0120Mot", "6511": "oming", "6512": "\u0120Games", "6513": "\u0120squad", "6514": "\u0120circumstances", "6515": "\u0120fashion", "6516": "\u0120isol", "6517": "\u00c3\u00bc", "6518": "otal", "6519": "\u0120immediate", "6520": "\u0120Eric", "6521": "\u0120suffering", "6522": "esc", "6523": "\u0120Watch", "6524": "\u0120lies", "6525": "\u0120tiny", "6526": "\u0120authors", "6527": "\u0120batt", "6528": "\u012038", "6529": "\u0120grown", "6530": "\u0120Gar", "6531": "iger", "6532": "\u0120immigrants", "6533": "\u00c3\u0125", "6534": "print", "6535": "ora", "6536": "\u0120kinds", "6537": "utch", "6538": "\u012049", "6539": "\u0120Die", "6540": "\u0120cheap", "6541": "\u0120mine", "6542": "\u0120detailed", "6543": "ordan", "6544": "\u0120Hel", "6545": "name", "6546": "\u0120featured", "6547": "\u0120Wik", "6548": "ayers", "6549": "\u0120meat", "6550": "\u0120Er", "6551": "\u0120unus", "6552": "\u0120Aut", "6553": "\u0120competitive", "6554": "\u0120describe", "6555": "\u0120formed", "6556": "\u0120Home", "6557": "\u0120IP", "6558": "nic", "6559": "certain", "6560": "\u0120carrying", "6561": "\u0120tournament", "6562": "\u0120termin", "6563": "\u0120trick", "6564": "\u0120relationships", "6565": "friend", "6566": "\u0120fundamental", "6567": "kel", "6568": "\u0120wave", "6569": "\u0120cycle", "6570": "obb", "6571": "\u0120crazy", "6572": "\u0120signing", "6573": "\u0120Way", "6574": "\u0120Cy", "6575": "rome", "6576": "\u0120guide", "6577": "efully", "6578": "\u0120wins", "6579": "\u0120Catholic", "6580": "\u0120earned", "6581": "08", "6582": "\u0120decline", "6583": "\u0120regional", "6584": "nam", "6585": "ensus", "6586": "style", "6587": "\u0120embr", "6588": "\u0120strange", "6589": "\u0120Palestinian", "6590": "\u0120Jesus", "6591": "\u0120Long", "6592": "\u0120ancient", "6593": "\u0120frequently", "6594": "06", "6595": "\u0120acting", "6596": "\u0120Putin", "6597": "\u0120Sar", "6598": "\u0120manner", "6599": "\u0120efficient", "6600": "\u0120pushing", "6601": "\u0120CIA", "6602": "\u0120comfortable", "6603": "\u0120Card", "6604": "\u0120pip", "6605": "ORE", "6606": "Per", "6607": "\u0120sharing", "6608": "\u0120wire", "6609": "\u0120skill", "6610": "\u0120Econom", "6611": "ockey", "6612": "chers", "6613": "\u0120instru", "6614": "\u0120owned", "6615": "\u0120Ell", "6616": "bar", "6617": "\u0120commitment", "6618": "\u0120alongside", "6619": "\u0120OF", "6620": "uated", "6621": "\u0120Lord", "6622": "anes", "6623": "09", "6624": "\u0120Davis", "6625": "\u0120cart", "6626": "rison", "6627": "\u0120controversial", "6628": "\u0120artists", "6629": "\u0120referred", "6630": "weight", "6631": "\u0120egg", "6632": "\u0120mouth", "6633": "\u0120repeatedly", "6634": "\u012048", "6635": "\u0120Top", "6636": "\u00ef\u00bf", "6637": "\u012034", "6638": "FP", "6639": "awa", "6640": "\u0120attempted", "6641": "Se", "6642": "\u0120femin", "6643": "umber", "6644": "\u0120updated", "6645": "foot", "6646": "\u0120cert", "6647": "vin", "6648": "\u0120pregn", "6649": "\u0120Old", "6650": "ua", "6651": "\u0120schedule", "6652": "xy", "6653": "\u0120PS", "6654": "amily", "6655": "adel", "6656": "\u0120dedicated", "6657": "\u00d0\u00bd", "6658": "\u0120posts", "6659": "\u0120AL", "6660": "\u0120sentence", "6661": "\u0120upcoming", "6662": "\u0120Down", "6663": "\u0120NY", "6664": "\u0120column", "6665": "\u0120Di", "6666": "hus", "6667": "\u0120depth", "6668": "\u0120pled", "6669": "\u0120virtual", "6670": "uable", "6671": "\u0120journey", "6672": "\u0120struck", "6673": "\u00d1\u0122", "6674": "\u0120desk", "6675": "\u0120studio", "6676": "\u0120realized", "6677": "\u0120Energy", "6678": "Despite", "6679": "ceived", "6680": "%)", "6681": "ographic", "6682": "DS", "6683": "ko", "6684": "ugh", "6685": "\u0120medic", "6686": "\u0120serving", "6687": "iami", "6688": "\u0120walked", "6689": "rive", "6690": "iveness", "6691": "\u0120king", "6692": "\u0120ring", "6693": "\u0120reput", "6694": "phy", "6695": "you", "6696": "\u0120urban", "6697": "07", "6698": "\u0120Cle", "6699": "\u0120Charles", "6700": "\u0120Wild", "6701": "\u0120targeted", "6702": "\u0120channel", "6703": "gor", "6704": "\u0120assets", "6705": "luding", "6706": "\u0120inspired", "6707": "\u0120hotel", "6708": "\u0120Arizona", "6709": "\u0120newslet", "6710": "Like", "6711": "Two", "6712": "\u0120Supp", "6713": "\u0120universe", "6714": "\u0120agenda", "6715": "\u0120causing", "6716": "\u0120watched", "6717": "\u0120suicide", "6718": "\u0120tort", "6719": "\u0120stream", "6720": "\u0120overwhel", "6721": "\u0120Py", "6722": "\u0120usual", "6723": "\u0120surveillance", "6724": "\u0120Men", "6725": "\u0120intent", "6726": "sole", "6727": "People", "6728": "\u0120liqu", "6729": "\u0120sister", "6730": "\u0120opponents", "6731": "\u0120chairman", "6732": "\u0120du", "6733": "\u0120Wars", "6734": "bel", "6735": "\u0120Cruz", "6736": "\u0120mainstream", "6737": "\u0120latter", "6738": "\u0120hall", "6739": "\u0120surrounding", "6740": "\u0120folks", "6741": "\u0120knowing", "6742": "\u0120orders", "6743": "\u0120Inf", "6744": "\u0120remote", "6745": "\u012075", "6746": "\u0120sand", "6747": "\u0120literally", "6748": "\u0120Java", "6749": "\u0120observed", "6750": "\u0120Again", "6751": "\u0120Right", "6752": "\u0120subsid", "6753": "\u0120Defense", "6754": "\u0120infl", "6755": "\u0120approval", "6756": "rence", "6757": "iments", "6758": "\u0120basket", "6759": "\u0120Van", "6760": "burg", "6761": "rations", "6762": "avor", "6763": "\u0120teachers", "6764": "azi", "6765": "izz", "6766": "Fr", "6767": "aze", "6768": "ta", "6769": "\u0120winter", "6770": "iciency", "6771": "alle", "6772": "\u0120exciting", "6773": "acc", "6774": "iro", "6775": "aylor", "6776": "\u0120Tal", "6777": "\u0120format", "6778": "boy", "6779": "\u0120congress", "6780": "\u0120protected", "6781": "ati", "6782": "\u0120noticed", "6783": "\u0120simpl", "6784": "\u0120dealing", "6785": "\u0120Young", "6786": "\u0120Pan", "6787": "\u0120Child", "6788": "\u0120precise", "6789": "xual", "6790": "67", "6791": "\u0120deeply", "6792": "ipl", "6793": "\u0120communication", "6794": "\u0120gang", "6795": "\u0120sending", "6796": "\u0120forth", "6797": "\u0120Jr", "6798": "\u0120fasc", "6799": "\u0120battery", "6800": "\u0120wal", "6801": "mun", "6802": "\u0120sky", "6803": "\u0120narr", "6804": "\u0120fixed", "6805": "post", "6806": "abis", "6807": "\u0120aside", "6808": "\u0120requirements", "6809": "\u0120properties", "6810": "rors", "6811": "str", "6812": "\u0120alive", "6813": "\u0120narrow", "6814": "\u0120wake", "6815": "allas", "6816": "\u0120passion", "6817": "\u0120Arch", "6818": "onymous", "6819": "\u0120eating", "6820": "ensity", "6821": "\u0120mistake", "6822": "wart", "6823": "woman", "6824": "\u0120explore", "6825": "\u0120coffee", "6826": "\u01201970", "6827": "\u0120rape", "6828": "\u0120volume", "6829": "\u0120promised", "6830": "\u0120diet", "6831": "acking", "6832": "\u0120risks", "6833": "\u0120exhib", "6834": "\u0120Polit", "6835": "\u0120sweet", "6836": "May", "6837": "\u0120Enter", "6838": "\u0120Wat", "6839": "\u0120neut", "6840": "\u0120involving", "6841": "\u0120wage", "6842": "\u0120selection", "6843": "\u0120Max", "6844": "\u0120tested", "6845": "ether", "6846": "\u0120flu", "6847": "ulture", "6848": "\u0120defeat", "6849": "\u0120northern", "6850": "\u0120reward", "6851": "\u0120welcome", "6852": "\u0120extended", "6853": "\u0120puts", "6854": "\u0120territory", "6855": "\u0120phenomen", "6856": "\u0120unemploy", "6857": "\u0120refugees", "6858": "\u0120sample", "6859": "\u0120height", "6860": "\u0120approximately", "6861": "\u0120Kevin", "6862": "59", "6863": "\u0120blame", "6864": "\u0120Brad", "6865": "\u0120anyway", "6866": "ums", "6867": "\u0120Detroit", "6868": "\u0120destroyed", "6869": "obile", "6870": "\u0120impressive", "6871": "\u0120Stephen", "6872": "asks", "6873": "\u0120god", "6874": "\u0120proof", "6875": "\u0120gap", "6876": "\u0120dry", "6877": "\u00ef\u00bf\u00bd", "6878": "\u0120crash", "6879": "ingu", "6880": "\u0120unknown", "6881": "\u0120locations", "6882": "04", "6883": "\u0120selected", "6884": "apse", "6885": "\u0120west", "6886": "anges", "6887": "gery", "6888": "\u0120Fil", "6889": "stone", "6890": "\u0120attacked", "6891": "\u0120Tit", "6892": "lv", "6893": "\u0120maximum", "6894": "\u0120Miller", "6895": "\u0120Wilson", "6896": "\u0120promote", "6897": "\u00e2\u0122\u013b.", "6898": "\u0120shel", "6899": "\u0120merely", "6900": "\u0120franchise", "6901": "arry", "6902": "\u0120requests", "6903": "\u0120sho", "6904": "\u0120retire", "6905": "\u0120suddenly", "6906": "aser", "6907": "\u0120slowly", "6908": "\u0120protesters", "6909": "\u0120disag", "6910": "dro", "6911": "\u0120teacher", "6912": "\u0120typical", "6913": "ogan", "6914": "\u0120Ins", "6915": "ixt", "6916": "\u0120Women", "6917": "\u0120conver", "6918": "list", "6919": "\u0120chose", "6920": "\u0120Camer", "6921": "\u0120Class", "6922": "\u0120Lu", "6923": "\u0120matches", "6924": "\u0120license", "6925": "\u0120properly", "6926": "\u0120assume", "6927": "oration", "6928": "\u0120discover", "6929": "03", "6930": "\u0120wid", "6931": "\u0120PR", "6932": "\u0120Mic", "6933": "Rel", "6934": "\u0120worried", "6935": "\u0120moder", "6936": "Or", "6937": "\u0120abortion", "6938": "fire", "6939": "owered", "6940": "\u0120allies", "6941": "\u0120oblig", "6942": "\u0120terrorism", "6943": "02", "6944": "\u0120supports", "6945": "ao", "6946": "\u0120\u00ce", "6947": "uilding", "6948": "\u00c3\u0125\u00c3\u0124", "6949": "inson", "6950": "verty", "6951": "\u0120arguments", "6952": "\u0120theme", "6953": "\u0120adapt", "6954": "\u0120confront", "6955": "\u0120facilities", "6956": "\u0120sustain", "6957": "igg", "6958": "gender", "6959": "\u0120pal", "6960": "\u0120east", "6961": "\u0120recognize", "6962": "igure", "6963": "\u0120fuck", "6964": "\u00c3\u0125\u00c3\u0124\u00c3\u0125\u00c3\u0124", "6965": "lies", "6966": "\u0120equival", "6967": "\u0120obtained", "6968": "\u0120poverty", "6969": "\u0120rub", "6970": "\u0120Italy", "6971": "mo", "6972": "\u0120nomine", "6973": "\u0120deals", "6974": "\u0120fees", "6975": "itarian", "6976": "osis", "6977": "alo", "6978": "\u0120Hollywood", "6979": "\u0120understood", "6980": "\u0120controlled", "6981": "VER", "6982": "\u0120Best", "6983": "\u0120Dam", "6984": "\u0120topic", "6985": "\u0120critics", "6986": "\u0120Society", "6987": "\u0120Agency", "6988": "axy", "6989": "\u0120Ford", "6990": "\u0120sole", "6991": "\u0120Jersey", "6992": "arity", "6993": "\u0120village", "6994": "\u0120diagn", "6995": "\u0120Administ", "6996": "raid", "6997": "68", "6998": "\u0120likes", "6999": "celer", "7000": "sters", "7001": "\u0120Four", "7002": "\u0120evil", "7003": "\u0120punish", "7004": "\u0120dress", "7005": "cript", "7006": "\u0120ped", "7007": "\u0120Georgia", "7008": "asts", "7009": "\u0120bunch", "7010": "\u0120Company", "7011": "\u0120journalists", "7012": "John", "7013": "\u0120exposed", "7014": "\u0120regions", "7015": "redit", "7016": "ocation", "7017": "\u0120scheme", "7018": "\u0120communications", "7019": "lls", "7020": "\u0120transp", "7021": "\u0120stim", "7022": "\u0120limits", "7023": "\u0120somehow", "7024": "\u0120strongly", "7025": "\u0120honor", "7026": "\u0120drag", "7027": "\u0120resistance", "7028": "\u0120champion", "7029": "\u0120Labor", "7030": "\u0120phase", "7031": "\u0120NASA", "7032": "pool", "7033": "\u0120Carl", "7034": "\u0120truck", "7035": "\u0120profit", "7036": "\u0120constant", "7037": "\u0120condem", "7038": "\u0120escape", "7039": "\u0120personally", "7040": "\u0120Dun", "7041": "rimination", "7042": "\u0120Night", "7043": "\u0120Land", "7044": "aug", "7045": "\u0120Fort", "7046": "\u0120bid", "7047": "\u0120NHL", "7048": "\u0120Stand", "7049": "\u0120vacc", "7050": "\u0120deck", "7051": "CA", "7052": "nesota", "7053": "iform", "7054": "\u0120falling", "7055": "ads", "7056": "GBT", "7057": "\u0120Network", "7058": "\u0120somewhere", "7059": "cers", "7060": "\u0120employee", "7061": "\u0120harass", "7062": "\u0120bear", "7063": "\u0120CD", "7064": "iner", "7065": "\u0120comparison", "7066": "orted", "7067": "ciples", "7068": "\u0120polls", "7069": "owa", "7070": "\u0120inqu", "7071": "\u0120Love", "7072": "pected", "7073": "\u0120southern", "7074": "oric", "7075": "\u0120decent", "7076": "cow", "7077": "\u0120Spanish", "7078": "\u0120encourage", "7079": "\u0120emissions", "7080": "\u012039", "7081": "\u0120Kn", "7082": "\u0120View", "7083": "enders", "7084": "\u0120empty", "7085": "\u0120Miami", "7086": "\u0120hits", "7087": "oster", "7088": "\u0120Cam", "7089": "\u0120definition", "7090": "57", "7091": "\u0120directed", "7092": "\u0120pic", "7093": "\u0120Bell", "7094": "pes", "7095": "\u0120flex", "7096": "wan", "7097": "zens", "7098": "\u0120Ok", "7099": "\u0120meetings", "7100": "\u0120End", "7101": "\u00d0\u00be\u00d0", "7102": "\u0120comprom", "7103": "\u0120winner", "7104": "intend", "7105": "icken", "7106": "\u0120gotten", "7107": "\u0120Daniel", "7108": "\u0120Turk", "7109": "\u0120electricity", "7110": "\u0120chosen", "7111": "\u0120officially", "7112": "\u0120bench", "7113": "\u0120stretch", "7114": "\u0120database", "7115": "\u0120Despite", "7116": "\u0120intellect", "7117": "\u0120spin", "7118": "igation", "7119": "\u0120stronger", "7120": "Com", "7121": "\u0120deleg", "7122": "\u0120purposes", "7123": "\u0120DNA", "7124": "teen", "7125": "\u0120cutting", "7126": "\u0120Turn", "7127": "\u0120fold", "7128": "aun", "7129": "rary", "7130": "\u0120extensive", "7131": "\u0120amounts", "7132": "\u0120desper", "7133": "\u0120trees", "7134": "\u0120anx", "7135": "\u0120ideal", "7136": "\u0120Asian", "7137": "\u0120thread", "7138": "\u0120fifth", "7139": "\u012a\u0134", "7140": "rett", "7141": "CS", "7142": "UR", "7143": "\u0120goods", "7144": "\u0120colon", "7145": "\u0120developer", "7146": "\u0120claiming", "7147": "unning", "7148": "Any", "7149": "\u0120retain", "7150": "\u0120soul", "7151": "\u0120captured", "7152": "\u0120Though", "7153": "\u0120finds", "7154": "\u0120driven", "7155": "aire", "7156": "\u0120payments", "7157": "\u0120Jordan", "7158": "ras", "7159": "\u0120ties", "7160": "\u0120reasonable", "7161": "\u0120dogs", "7162": "\u00e2\u0138", "7163": "\u0120somebody", "7164": "\u0120ending", "7165": "\u0120Nations", "7166": "\u0120choices", "7167": "\u0120ble", "7168": "\u0120seats", "7169": "\u0120Services", "7170": "asters", "7171": "\u0120Thank", "7172": "\u0120pod", "7173": "\u0120engage", "7174": "\u0120drawn", "7175": "\u0120sight", "7176": "CE", "7177": "\u0120param", "7178": "\u0120threatened", "7179": "\u0120ruled", "7180": "\u0120Dar", "7181": "\u0120Attorney", "7182": "\u0120Irish", "7183": "eping", "7184": "ura", "7185": "\u0120Sea", "7186": "\u0120trading", "7187": "owed", "7188": "\u0120primarily", "7189": "\u0120aspects", "7190": "\u0120fighters", "7191": "ML", "7192": "\u0120answers", "7193": "\u0120perfectly", "7194": "irms", "7195": "\u0120Academ", "7196": "\u0120incl", "7197": "\u0120rival", "7198": "\u0120parking", "7199": "\u0120rejected", "7200": "\u0120Gall", "7201": "\u0120Cat", "7202": "\u0120constantly", "7203": "\u0120Hun", "7204": "\u0120payment", "7205": "fast", "7206": "\u0120distinct", "7207": "\u0120flying", "7208": "\u0120rig", "7209": "\u0120technologies", "7210": "\u0120Real", "7211": "</", "7212": "\u0120components", "7213": "Police", "7214": "\u0120admit", "7215": "\u0120Scotland", "7216": "\u0120elsewhere", "7217": "\u0120Dark", "7218": "\u0120constit", "7219": "\u0120tur", "7220": "\u0120anymore", "7221": "lder", "7222": "\u0120Cast", "7223": "\u0120fields", "7224": "\u0120icon", "7225": "\u0120estimates", "7226": "EW", "7227": "sea", "7228": "\u0120solutions", "7229": "\u0120resulting", "7230": "78", "7231": "\u0120Bru", "7232": "\u0120awesome", "7233": "\u0120province", "7234": "mod", "7235": "\u0120worldwide", "7236": "\u0120actor", "7237": "\u0120regularly", "7238": "\u0120Moore", "7239": "\u0120courts", "7240": "\u0120narrative", "7241": "Once", "7242": "\u0120boot", "7243": "\u0120Ut", "7244": "\u0120enemies", "7245": "\u0120mixed", "7246": "regon", "7247": "\u0120OS", "7248": "\u0120Disney", "7249": "sm", "7250": "icer", "7251": "\u0120houses", "7252": "\u0120nobody", "7253": "\u0120Sk", "7254": "inations", "7255": "\u0120controls", "7256": "\u0120Water", "7257": "\u0120letters", "7258": "agram", "7259": "iana", "7260": "imp", "7261": "\u012042", "7262": "\u0120murd", "7263": "\u0120mayor", "7264": "\u0120outcome", "7265": "\u0120MS", "7266": "\u0120contem", "7267": "sell", "7268": "\u0120Tem", "7269": "vy", "7270": "Sec", "7271": "ship", "7272": "apes", "7273": "\u0120Light", "7274": "isan", "7275": "onic", "7276": "\u0120apartment", "7277": "\u0120Brian", "7278": "\u0120Steven", "7279": "\u0120coalition", "7280": "\u0120contributed", "7281": "\u0120Bas", "7282": "\u0120tank", "7283": "\u0120concluded", "7284": "\u0120Adam", "7285": "\u0120exists", "7286": "\u0120founder", "7287": "\u0120Lew", "7288": "\u0120atmosphere", "7289": "\u0120profile", "7290": "\u0120brew", "7291": "\u0120Id", "7292": "\u0120Tw", "7293": "\u0120situations", "7294": "ls", "7295": "\u0120Championship", "7296": "\u0120loan", "7297": "\u0120Author", "7298": "rates", "7299": "\u0120incredible", "7300": "\u0120Constitution", "7301": "\u0120signal", "7302": "otes", "7303": "\u0120Rog", "7304": "\u0120accurate", "7305": "300", "7306": "\u0120Victor", "7307": "otten", "7308": "\u0120unp", "7309": "\u0120Where", "7310": "ker", "7311": "\u0120Southern", "7312": ".\"[", "7313": "\u0120employment", "7314": "earing", "7315": "\u0120clients", "7316": "\u0120keeps", "7317": "\u0120informed", "7318": "\u0120continuing", "7319": "inity", "7320": "\u0120taste", "7321": "\u0120baseball", "7322": "\u0120generate", "7323": "\u0120ticket", "7324": "\u0120conven", "7325": "Also", "7326": "\u0120Conf", "7327": "oft", "7328": "\u0120weird", "7329": "lock", "7330": "\u0120tied", "7331": "adelph", "7332": "\u0120category", "7333": "zy", "7334": "ilarly", "7335": "acked", "7336": "\u0120angry", "7337": "\u0120Organ", "7338": "\u0120routine", "7339": "aron", "7340": "\u0120kil", "7341": "\u0120raising", "7342": "ifer", "7343": "\u0120machines", "7344": "\u0120registered", "7345": "\u0120proved", "7346": "there", "7347": "\u0120demands", "7348": "\u0120gaming", "7349": "\u0120Italian", "7350": "\u0120incredibly", "7351": "\u0120crucial", "7352": "MP", "7353": "\u0120stuck", "7354": "\u0120Civil", "7355": "\u0120Dallas", "7356": "\u0120terrible", "7357": "56", "7358": "\u0120feedback", "7359": "\u0120upper", "7360": "\u0120plastic", "7361": "\u0120imper", "7362": "\u0120newly", "7363": "\u0120Joseph", "7364": "\u0120consumption", "7365": "rage", "7366": "\u0120dozen", "7367": "\u0120enthus", "7368": "ali", "7369": "\u0120estate", "7370": "\u0120innoc", "7371": "\u0120manip", "7372": "\u0120conscious", "7373": "\u0120bills", "7374": "\u0120Cross", "7375": "ept", "7376": "\u0120Spain", "7377": "ifications", "7378": "Today", "7379": "\u0120writers", "7380": "\u0120excess", "7381": "inding", "7382": "\u0120aggressive", "7383": "\u0120reporter", "7384": "\u0120compens", "7385": "\u0120returning", "7386": "\u0120stead", "7387": "\u0120programming", "7388": "\u0120Thanks", "7389": "\u0120represented", "7390": "\u0120conclusion", "7391": "98", "7392": "\u0120rus", "7393": "\u0120Bowl", "7394": "MS", "7395": "\u0120AR", "7396": "\u0120origin", "7397": "\u0120assistant", "7398": "adelphia", "7399": "\u0120roster", "7400": "\u0120Minnesota", "7401": "\u0120organized", "7402": "ria", "7403": "\u0120penalty", "7404": "lers", "7405": "\u0120drinking", "7406": "\u0120paint", "7407": "\u0120satell", "7408": "\u0120gro", "7409": "\u0120Program", "7410": "\u0120capture", "7411": "\u0120conspir", "7412": "\u0120interpret", "7413": "\u0120explanation", "7414": "iscal", "7415": "ni", "7416": "58", "7417": "\u0120county", "7418": "iscons", "7419": "essed", "7420": "ima", "7421": "\u0120%", "7422": "Dr", "7423": "mont", "7424": "anny", "7425": "gorith", "7426": "isconsin", "7427": "\u0120assistance", "7428": "\u0120complaint", "7429": "\u0120Roman", "7430": "star", "7431": "\u0120ru", "7432": "\u0120nut", "7433": "LA", "7434": "\u0120magic", "7435": "\u0120tall", "7436": "\u0120Oper", "7437": "\u0120granted", "7438": "Ed", "7439": "Because", "7440": "\u0120Contin", "7441": "Off", "7442": "\u0120Parliament", "7443": "\u0120complicated", "7444": "emen", "7445": "\u0120chances", "7446": "\u0120audio", "7447": "\u0120extract", "7448": "\u0120Gi", "7449": "\u01201999", "7450": "\u0120Educ", "7451": "era", "7452": "\u0120shares", "7453": "\u0120hel", "7454": "\u0120successfully", "7455": "rete", "7456": "esy", "7457": "\u0120Win", "7458": "........", "7459": "\u0120Hot", "7460": "\u0120pilot", "7461": "\u0120IT", "7462": "\u0120Ep", "7463": "\u0120myth", "7464": "\u0120recovery", "7465": "\u0120Test", "7466": "\u0120techniques", "7467": "\u0120iron", "7468": "\u0120Care", "7469": "\u0120Zeal", "7470": "\u0120SC", "7471": "\u0120scenes", "7472": "\u0120Fre", "7473": "\u0120veteran", "7474": "\u0120($", "7475": "\u0120degrees", "7476": "actions", "7477": "ked", "7478": "thew", "7479": "\u0120sympt", "7480": "\u0120lawmakers", "7481": "\u0120western", "7482": "\u0120operate", "7483": "\u0120ads", "7484": "rating", "7485": "\u0120habit", "7486": "rep", "7487": "\u0120aimed", "7488": "Inst", "7489": "anchester", "7490": "\u0120phr", "7491": "idency", "7492": "\u0120engaged", "7493": "\u0120privile", "7494": "\u012055", "7495": "========", "7496": "uan", "7497": "\u0120rating", "7498": "\u0120teaching", "7499": "\u0120Os", "7500": "\u0120academic", "7501": "!<|", "7502": "itar", "7503": "\u0120therap", "7504": "\u0120passes", "7505": "\u0120dollar", "7506": "\u0120automatically", "7507": "hent", "7508": "\u0120Pacific", "7509": "\u0120monit", "7510": "\u0120blocks", "7511": "abama", "7512": "\u0120attended", "7513": "\u0120permanent", "7514": "\u0120survive", "7515": "\u0120anticip", "7516": "\u0120enable", "7517": "\u0120Look", "7518": "\u0120extrem", "7519": "\u0120Foreign", "7520": "chain", "7521": "\u0120chat", "7522": "\u0120marked", "7523": "itals", "7524": "\u0120hidden", "7525": "\u0120accomp", "7526": "\u0120titles", "7527": "\u0120Senator", "7528": "\u0120NBC", "7529": "cr", "7530": "\u0120taught", "7531": "aed", "7532": "\u0120Linux", "7533": "\u0120bom", "7534": "\u0120index", "7535": "everal", "7536": "\u0120elite", "7537": "ibilities", "7538": "\u0120lawyers", "7539": "\u0120depending", "7540": "from", "7541": "\u0120valuable", "7542": "\u0120installed", "7543": "\u0120championship", "7544": "\u0120root", "7545": "\u0120compre", "7546": "mal", "7547": "\u0120Bull", "7548": "\u0120downtown", "7549": "\u0120equivalent", "7550": "\u0120solve", "7551": "rific", "7552": "\u0120duty", "7553": "\u0120Special", "7554": "\u0120Business", "7555": "\u012064", "7556": "\u0120pace", "7557": "HS", "7558": "\u0120reputation", "7559": "\u0120uncertain", "7560": "\u0120phones", "7561": "\u0120overse", "7562": "uine", "7563": "bal", "7564": "\u0120Taylor", "7565": "\u0120personnel", "7566": "\u0120pin", "7567": "reams", "7568": "aturally", "7569": "\u0120sufficient", "7570": "\u0120visited", "7571": "\u0120warming", "7572": "\u0120principles", "7573": "\u0120vulnerable", "7574": "\u0120enjoyed", "7575": "\u0120fake", "7576": "\u0120Nick", "7577": "\u0120advis", "7578": "\u0120negotiations", "7579": "inder", "7580": "\u0120generated", "7581": "\u0120exposure", "7582": "ye", "7583": "Me", "7584": "\u0120recording", "7585": "\u0120collected", "7586": "\u0120regardless", "7587": "\u0120dict", "7588": "%.", "7589": "EA", "7590": "\u0120bitcoin", "7591": "\u0120elev", "7592": "\u00e3\u0122", "7593": "active", "7594": "\u0120Kelly", "7595": "\u0120Anth", "7596": "\u0120cup", "7597": "\u0120patterns", "7598": "Getty", "7599": "\u0120Take", "7600": "))", "7601": "\u0120Avenue", "7602": "\u0120Josh", "7603": "bro", "7604": "\u0120disaster", "7605": "\u0120cable", "7606": "\u012065", "7607": "\u0120worker", "7608": "\u0120mainly", "7609": "lla", "7610": "\u0120racial", "7611": "quarters", "7612": "\u0120Viet", "7613": "\u0120Coast", "7614": "month", "7615": "\u0120pounds", "7616": "\u0120150", "7617": "\u0120Call", "7618": "\u0120portion", "7619": "\u0120Ah", "7620": "\u0120afraid", "7621": "\u0120inspir", "7622": "\u0120defence", "7623": "\u0120bes", "7624": "\u0120Eastern", "7625": "\u0120Tony", "7626": "\u0120tracks", "7627": "da", "7628": "\u0120busy", "7629": "\u0120shit", "7630": "\u0120intense", "7631": "\u0120Series", "7632": "\u0120LGBT", "7633": "orne", "7634": "\u0120Still", "7635": "athy", "7636": "\u0120funny", "7637": "mann", "7638": "\u0120apolog", "7639": "\u0120surgery", "7640": "\u0120Moscow", "7641": "\u0120Coll", "7642": "\u0120possession", "7643": "\u0120prominent", "7644": "\u0120Mars", "7645": "\u0120comic", "7646": "\u0120Ger", "7647": "ashes", "7648": "97", "7649": "ules", "7650": "\u0120Ray", "7651": "\u0120thin", "7652": "\u0120engineering", "7653": "\u0120troub", "7654": "\u0120Kurd", "7655": "this", "7656": "\u0120processes", "7657": "\u0120Nation", "7658": "\u0120Kent", "7659": "\u0120Come", "7660": "fall", "7661": "\u0120entit", "7662": "\u0120\u00e2\u0122\u013b", "7663": "\u0120unusual", "7664": "raph", "7665": "etary", "7666": "\u0120describes", "7667": "Col", "7668": "world", "7669": "96", "7670": "\u0120resulted", "7671": "\u0120emerged", "7672": "\u0120taxp", "7673": "\u0120gall", "7674": "iler", "7675": "\u0120dim", "7676": "\u0120propag", "7677": "\u0120Iowa", "7678": "\u0120Oregon", "7679": "\u0120coordin", "7680": "\u0120corruption", "7681": "\u0120stations", "7682": "\u0120Invest", "7683": "\u0120fought", "7684": "\u0120AD", "7685": "\u0120brut", "7686": "\u0120extension", "7687": "prise", "7688": "\u0120blind", "7689": "\u0120adopted", "7690": "\u0120compete", "7691": "\u0120recru", "7692": "tes", "7693": "\u0120grant", "7694": "\u0120Zealand", "7695": "\u0120hadn", "7696": "Pr", "7697": "\u0120400", "7698": "\u0120mail", "7699": "ref", "7700": "\u0120everywhere", "7701": "\u0120Balt", "7702": "\u0120Hom", "7703": "ba", "7704": "Rec", "7705": "Mean", "7706": "icate", "7707": "\u0120crypt", "7708": "herent", "7709": "\u0120contracts", "7710": "\u0120Ali", "7711": "\u0120neuro", "7712": "\u0120Int", "7713": "front", "7714": "\u0120Dead", "7715": "\u0120Rick", "7716": "\u0120feelings", "7717": "\u0120firms", "7718": "idelines", "7719": "\u00e2\u0122\u013b,", "7720": "\u0120minority", "7721": "cles", "7722": "HA", "7723": "\u0120advertising", "7724": "\u0120spr", "7725": "\u0120rarely", "7726": "\u0120discipl", "7727": "gun", "7728": "making", "7729": "\u0120Northern", "7730": "\u0120sanctions", "7731": "scape", "7732": "\u0120Philadelphia", "7733": "upid", "7734": "\u0120cameras", "7735": "log", "7736": "\u0120explicit", "7737": "\u0120strict", "7738": "viously", "7739": "\u0120enorm", "7740": "\u0120finance", "7741": "\u0120cited", "7742": "ifies", "7743": "\u0120Before", "7744": "\u0120shortly", "7745": "\u0120Policy", "7746": "UL", "7747": "\u0120expectations", "7748": "\u0120implementation", "7749": "ogen", "7750": "\u0120recip", "7751": "cling", "7752": "\u0120Greek", "7753": "olt", "7754": "\u0120thick", "7755": "\u0120thousand", "7756": "antic", "7757": "\u0120Mu", "7758": "\u0120loud", "7759": "istent", "7760": "\u0120affili", "7761": "orough", "7762": "urrent", "7763": "\u0120Navy", "7764": "\u0120inev", "7765": "cus", "7766": "\u0120photograph", "7767": "\u0120medium", "7768": "azz", "7769": "\u0120Wisconsin", "7770": "\u0120scenario", "7771": "\u0120Food", "7772": "\u0120Live", "7773": "\u0120sup", "7774": "ilton", "7775": "test", "7776": "\u0120plug", "7777": "\u0120veget", "7778": "Co", "7779": "\u0120ho", "7780": "\u0120visible", "7781": "\u0120lights", "7782": "LC", "7783": "\u0120creates", "7784": "\u0120priority", "7785": "\u0120ven", "7786": "\u0120bridge", "7787": "inking", "7788": "\u0120obst", "7789": "\u0120agric", "7790": "ATE", "7791": "\u0120permission", "7792": "Mar", "7793": "\u0120Foot", "7794": "\u0120algorith", "7795": "izon", "7796": "\u0120participate", "7797": "aska", "7798": "\u0120wing", "7799": "who", "7800": "asion", "7801": "\u0120tor", "7802": "\u0120Prote", "7803": "\u0120browser", "7804": "\u0120Global", "7805": "\u0120tag", "7806": "car", "7807": "\u0120Has", "7808": "\u0120mel", "7809": "\u0120Ash", "7810": "\u0120acceler", "7811": "elect", "7812": "\u0120dozens", "7813": "\u0120Kingdom", "7814": "ez", "7815": "\u0120historic", "7816": "\u0120computers", "7817": "\u0120laid", "7818": "\u0120basketball", "7819": "\u0120losses", "7820": "\u0120Saf", "7821": "76", "7822": "\u0120unw", "7823": "ogether", "7824": "::", "7825": "\u0120Amendment", "7826": "\u0120strikes", "7827": "\u0120principle", "7828": "\u0120Development", "7829": "\u0120formal", "7830": "EP", "7831": "54", "7832": "\u0120scoring", "7833": "lan", "7834": "obs", "7835": "athered", "7836": "\u012044", "7837": "\u0120counsel", "7838": "++", "7839": "\u0120shock", "7840": "\u0120wonderful", "7841": "\u0120SP", "7842": "\u0120behalf", "7843": "abs", "7844": "\u0120uncom", "7845": "profit", "7846": "igen", "7847": "52", "7848": "enth", "7849": "ems", "7850": "\u0120interface", "7851": "\u0120establishment", "7852": "\u0120toler", "7853": "\u0120Henry", "7854": "lete", "7855": "bell", "7856": "\u0120Greg", "7857": "amber", "7858": "\u0120Major", "7859": "\u0120Thus", "7860": "Us", "7861": "\u0120gained", "7862": "\u0120fee", "7863": "jo", "7864": "\u0120founded", "7865": "\u0120foundation", "7866": "etime", "7867": "51", "7868": "\u0120ESP", "7869": "ilipp", "7870": "\u0120clubs", "7871": "\u0120cannabis", "7872": "\u0120ju", "7873": "\u0120airport", "7874": "ystem", "7875": "\u0120Key", "7876": "\u0120borrow", "7877": "olis", "7878": "iel", "7879": "weet", "7880": "BO", "7881": "\u0120manufacturing", "7882": "\u0120rely", "7883": "\u0120Hit", "7884": "\u0120Pay", "7885": "\u0120Alabama", "7886": "\u0120genuine", "7887": "\u0120Royal", "7888": "rators", "7889": "Before", "7890": "\u0120component", "7891": "\u0120ridic", "7892": "osexual", "7893": "\u0120wheel", "7894": "rative", "7895": "\u0120Oak", "7896": "\u0120journalist", "7897": "\u0120relief", "7898": "\u0120Sn", "7899": "\u0120saved", "7900": "\u0120hole", "7901": "\u0120yield", "7902": "\u0120headed", "7903": "\u0120cyber", "7904": "she", "7905": "\u0120Moh", "7906": "uer", "7907": "ependent", "7908": "\u0120Ol", "7909": "\u0120gift", "7910": "aus", "7911": "\u0120withdraw", "7912": "\u0120fault", "7913": "\u0120indicate", "7914": "\u0120drawing", "7915": "\u0120uniform", "7916": "umer", "7917": "\u0120Rand", "7918": "arlier", "7919": "\u0120Vis", "7920": "\u0120stable", "7921": "\u0120ships", "7922": "\u0120->", "7923": "\u0120banned", "7924": "\u0120magn", "7925": "\u0120Mid", "7926": "\u0120footage", "7927": "Meanwhile", "7928": "rous", "7929": "\u0120doors", "7930": "\u0120recognized", "7931": "\u01201960", "7932": "\u0120containing", "7933": "pread", "7934": "\u0120FC", "7935": "\u0120river", "7936": "\u0120struggling", "7937": "Sub", "7938": "\u0120spark", "7939": "\u0120Academy", "7940": "\u0120walls", "7941": "\u0120achieved", "7942": "opher", "7943": "ounced", "7944": "\u0120neighb", "7945": "aning", "7946": "\u0120plate", "7947": "\u0120edition", "7948": "\u0120HT", "7949": "portion", "7950": "mate", "7951": "\u0120movements", "7952": "\u0120deliber", "7953": "uce", "7954": "Post", "7955": "\u0120sharp", "7956": "\u0120AS", "7957": "\u0120Snow", "7958": "ulating", "7959": "\u0120Three", "7960": "\u0120episodes", "7961": "\u0120neutral", "7962": "\u0120Premier", "7963": "\u0120Ret", "7964": "\u0120Fund", "7965": "\u0120exception", "7966": "etts", "7967": "\u0120producer", "7968": "________________", "7969": "\u0120Fred", "7970": "\u0120destruction", "7971": "\u01201998", "7972": "ami", "7973": "oured", "7974": "osa", "7975": ":<|", "7976": "\u0120beliefs", "7977": "\u012047", "7978": "\u0120Review", "7979": "\u0120pump", "7980": "\u0120legend", "7981": "\u0120McG", "7982": "\u0120backed", "7983": "umin", "7984": "\u0120liked", "7985": "\u0120hired", "7986": "idespread", "7987": "cription", "7988": "ca", "7989": "\u0120roles", "7990": "\u0120languages", "7991": "\u0120profession", "7992": "\u0120entering", "7993": "\u0120VR", "7994": "oen", "7995": "\u0120interviews", "7996": "\u0120hang", "7997": "isp", "7998": "\u0120Kir", "7999": "\u0120tox", "8000": "\u0120philosophy", "8001": "\u0120Administration", "8002": "\u0120arrange", "8003": "interest", "8004": "\u0120flaw", "8005": "Those", "8006": "\u0120Nob", "8007": "sylv", "8008": "imore", "8009": "\u0120stadium", "8010": "\u0120Atlanta", "8011": "\u0120Jac", "8012": "\u0120reduction", "8013": "\u0120dinner", "8014": "\u0120bath", "8015": "ja", "8016": "uper", "8017": "\u0120Turkish", "8018": "eman", "8019": "\u0120Report", "8020": "400", "8021": "\u0120aver", "8022": "\u0120finger", "8023": "\u0120Note", "8024": "\u0120Conference", "8025": "\u0120tackle", "8026": "burgh", "8027": "\u0120cha", "8028": "\u0120gonna", "8029": "\u0120Diego", "8030": "\u0120Centre", "8031": "\u0120crop", "8032": "\u0120farmers", "8033": "\u0120Manchester", "8034": "\u0120nominee", "8035": "\u012041", "8036": "53", "8037": "aching", "8038": "\u0120Jason", "8039": "\u0120barely", "8040": "ATO", "8041": "\u0120structures", "8042": "\u0120contained", "8043": "\u0120synt", "8044": "\u0120delivery", "8045": "\u0120convin", "8046": "\u0120Ott", "8047": "%,", "8048": "\u0120processing", "8049": "\u0120discrimination", "8050": "\u0120incent", "8051": "riers", "8052": "\u0120Fair", "8053": "erved", "8054": "RS", "8055": "\u0120Data", "8056": "\u0120Lo", "8057": "then", "8058": "\u0120Arm", "8059": "abinet", "8060": "\u0120intellectual", "8061": "amsung", "8062": "\u012046", "8063": "\u0120Radio", "8064": "\u0120Bry", "8065": "\u0120OK", "8066": "\u0120Field", "8067": "\u0120Did", "8068": "\u0120upset", "8069": "\u0120Perhaps", "8070": "\u0120Mir", "8071": "\u0120Education", "8072": "sylvania", "8073": "away", "8074": "President", "8075": "\u0120challenging", "8076": "\u0120proven", "8077": "\u0120restrictions", "8078": "rik", "8079": "gener", "8080": "\u0120forever", "8081": "https", "8082": "olen", "8083": "\u0120electronic", "8084": "\u0120hitting", "8085": "\u0120Hay", "8086": "\u0120euro", "8087": "\u0120unex", "8088": "ho", "8089": "\u0120reviews", "8090": "\u0120Fed", "8091": "\u0120Christians", "8092": "\u012043", "8093": "\u0120Hor", "8094": "Star", "8095": "\u0120convicted", "8096": "\u0120illness", "8097": "\u0120smooth", "8098": "Dav", "8099": "page", "8100": "\u0120retired", "8101": "\u0120indicated", "8102": "usive", "8103": "\u0120producing", "8104": "\u0120Harry", "8105": "\u0120About", "8106": "\u0120rapidly", "8107": "\u0120rose", "8108": "\u0120hide", "8109": "\u0120corporations", "8110": "\u0120ocean", "8111": "\u0120NC", "8112": "\u0120Rus", "8113": "\u0120Point", "8114": "aying", "8115": "owing", "8116": "\u0120Sat", "8117": "\u0120listening", "8118": "\u0120Reuters", "8119": "\u0120UFC", "8120": "\u0120technique", "8121": "\u0120mo", "8122": "yard", "8123": "sels", "8124": "lessly", "8125": "\u0120loyal", "8126": "\u0120Nic", "8127": "iy", "8128": "\u0120robot", "8129": "\u0120climb", "8130": "\u0120notion", "8131": "\u0120begun", "8132": "87", "8133": "\u0120ren", "8134": "\u0120util", "8135": "\u0120recognition", "8136": "ouver", "8137": "engers", "8138": "inf", "8139": "\u0120perpet", "8140": "\u0120association", "8141": "\u0120milk", "8142": "\u0120asks", "8143": "\u0120websites", "8144": "\u0120description", "8145": "\u0120Pack", "8146": "\u0120tickets", "8147": "\u0120Pen", "8148": "achus", "8149": "\u0120flash", "8150": "\u0120bra", "8151": "\u0120suggesting", "8152": "enny", "8153": "\u0120Judge", "8154": "\u0120exclusive", "8155": "\u0120reaching", "8156": "\u0120prepare", "8157": "iti", "8158": "\u0120Kansas", "8159": "found", "8160": "ione", "8161": "Who", "8162": "\u0120bail", "8163": "\u0120frag", "8164": "\u0120progressive", "8165": "\u0120burd", "8166": "\u0120exceed", "8167": "\u0120equally", "8168": "\u0120Hard", "8169": "\u0120hardly", "8170": "\u0120widespread", "8171": "\u0120ABC", "8172": "\u0120campaigns", "8173": "\u0120Mayor", "8174": "\u0120contribute", "8175": "udes", "8176": "elf", "8177": "ologists", "8178": "\u0120branch", "8179": "Look", "8180": "\u0120Rose", "8181": "\u0120grass", "8182": "\u0120initiative", "8183": "\u0120Market", "8184": "\u0120ethnic", "8185": "\u0120external", "8186": "ikes", "8187": "\u0120Circ", "8188": "uma", "8189": "rient", "8190": "\u0120sensitive", "8191": "\u0120practical", "8192": "usted", "8193": "\u0120unclear", "8194": "\u0120normally", "8195": "Ref", "8196": "\u0120representative", "8197": "pat", "8198": "89", "8199": "\u0120welf", "8200": "\u0120Full", "8201": "thon", "8202": "\u0120reducing", "8203": "appy", "8204": "\u0120friendly", "8205": "bec", "8206": "\u0120carefully", "8207": "\u0120Arabia", "8208": "\u0120Ref", "8209": "lad", "8210": "\u0120Ly", "8211": "PM", "8212": "\u0120Luc", "8213": "\u0120racist", "8214": "\u0120invent", "8215": "rical", "8216": "PG", "8217": "ouch", "8218": "\u0120CO", "8219": "\u0120respectively", "8220": "senal", "8221": "\u0120exem", "8222": "rator", "8223": "\u0120tail", "8224": "imm", "8225": "\u0120McCain", "8226": "\u0120Bernie", "8227": "ancouver", "8228": "\u0120overwhelming", "8229": "\u0120viewers", "8230": "\u0120Beach", "8231": "\u0120welfare", "8232": "arrass", "8233": "stract", "8234": "\u0120Further", "8235": "\u0120convinced", "8236": "UN", "8237": "\u0120smoke", "8238": "umes", "8239": "\u0120collapse", "8240": "\u0120involvement", "8241": "\u0120Lind", "8242": "ester", "8243": "\u0120thrown", "8244": "pload", "8245": "\u0120connections", "8246": "heast", "8247": "\u0120terrorists", "8248": "\u0120Battle", "8249": "\u0120strategic", "8250": "\u0120hook", "8251": "\u012000", "8252": "\u0120Latin", "8253": "\u0120recover", "8254": "omething", "8255": "\u0120Ont", "8256": "\u0120wine", "8257": "\u0120Next", "8258": "Mc", "8259": "inois", "8260": "\u0120Music", "8261": "rolled", "8262": "\u0120minds", "8263": "igrant", "8264": "\u0120vital", "8265": "\u0120settlement", "8266": "\u0120statistics", "8267": "\u0120lists", "8268": "\u0120vary", "8269": "\u0120Sir", "8270": "\u0120featuring", "8271": "\u0120ESPN", "8272": "ecut", "8273": "\u0120Dig", "8274": "achusetts", "8275": "\u0120behaviour", "8276": "\u0120independence", "8277": "worth", "8278": "\u0120fantasy", "8279": "\u0120devast", "8280": "nedy", "8281": "core", "8282": "uties", "8283": "\u0120invited", "8284": "\u0120complaints", "8285": "\u0120joining", "8286": "dem", "8287": "\u0120scores", "8288": "\u0120fiscal", "8289": "\u0120deeper", "8290": "abil", "8291": "\u0120Pennsylvania", "8292": "ifest", "8293": "\u0120steal", "8294": "\u0120anger", "8295": "\u0120deputy", "8296": "\u0120elig", "8297": "\u0120wars", "8298": "\u0120Square", "8299": "\u0120Tenn", "8300": "\u0120investigate", "8301": "\u0120Town", "8302": "\u0120sugar", "8303": "\u0120constitutional", "8304": "\u0120Pit", "8305": "\u0120III", "8306": "\u0120scholars", "8307": "\u0120iOS", "8308": "\u0120anybody", "8309": "\u0120subjects", "8310": "\u0120AND", "8311": "\u0120array", "8312": "\u0120alien", "8313": "FA", "8314": "\u0120Gov", "8315": "\u0120lobby", "8316": "\u0120ownership", "8317": "\u0120framework", "8318": "\u0120Ult", "8319": "\u0120unemployment", "8320": "\u0120Division", "8321": "\u0120transgender", "8322": "bn", "8323": "\u0120improvements", "8324": "\u0120SS", "8325": "\u0120menu", "8326": "\u0120peak", "8327": "Back", "8328": "\u0120screens", "8329": "ihad", "8330": "\u0120inject", "8331": "\u0120luck", "8332": "iversary", "8333": "\u0120define", "8334": "\u0120tasks", "8335": "\u0120Xbox", "8336": "\u0120democratic", "8337": "\u0120scandal", "8338": "icking", "8339": "\u0120jury", "8340": "\u0120Anton", "8341": "Che", "8342": "\u0120Ministry", "8343": "\u0120Kat", "8344": "\u0120cos", "8345": "\u0120comprehens", "8346": "osit", "8347": "\u0120Es", "8348": "unior", "8349": "\u0120remem", "8350": "\u0120discovery", "8351": "\u0120register", "8352": "\u0120casual", "8353": "\u0120citizen", "8354": "RI", "8355": "\u0120fab", "8356": "Under", "8357": "\u0120roads", "8358": "\u0120disagree", "8359": "\u0120failing", "8360": "\u0120Never", "8361": "\u0120Little", "8362": "\u0120Jay", "8363": "\u0120dynamic", "8364": "\u0120serves", "8365": "\u0120Cameron", "8366": "\u0120Brother", "8367": "\u0120Mah", "8368": "\u0120testim", "8369": "\u0120gathered", "8370": "\u0120Stone", "8371": "\u0120Information", "8372": "asty", "8373": "Sm", "8374": "\u0120soph", "8375": "oding", "8376": "\u0120implemented", "8377": "\u0120controversy", "8378": "\u0120collective", "8379": "\u0120trained", "8380": "anna", "8381": "\u0120NSA", "8382": "\u0120neighbour", "8383": "\u0120fears", "8384": "\u0120guarante", "8385": "leveland", "8386": "\u0120samples", "8387": "\u0120fiction", "8388": "\u0120prosec", "8389": "\u0120estimate", "8390": "\u0120Community", "8391": "69", "8392": "\u0120Ice", "8393": "\u0120Medical", "8394": "agg", "8395": "\u0120Sept", "8396": "\u01201997", "8397": "\u0120Philipp", "8398": "\u0120referring", "8399": "\u0120tip", "8400": "\u0120captain", "8401": "Will", "8402": "\u01201996", "8403": "\u0120spaces", "8404": "cific", "8405": "\u0120Walker", "8406": "\u0120versus", "8407": "\u0120legs", "8408": "\u0120Santa", "8409": "\u0120temporary", "8410": "\u0120noise", "8411": "\u0120sin", "8412": "\u0120HD", "8413": "PC", "8414": "\u0120incorpor", "8415": "\u0120tone", "8416": "eland", "8417": "acon", "8418": "\u0120overt", "8419": "\u0120visitors", "8420": "\u0120reven", "8421": "\u0120civilians", "8422": "\u0120wages", "8423": "\u0120hypot", "8424": "\u0120remarks", "8425": "\u0120awareness", "8426": "\u0120ON", "8427": "\u0120Spring", "8428": "\u0120recommended", "8429": "\u0120stupid", "8430": "\u0120Allen", "8431": "\u0120heading", "8432": "\u0120handful", "8433": "\u0120regulation", "8434": "icket", "8435": "\u0120Action", "8436": "\u0120Core", "8437": "\u0120platforms", "8438": "\u0120accus", "8439": "\u0120Anthony", "8440": "\u0120affairs", "8441": "\u0120touchdown", "8442": "\u0120rural", "8443": "\u0120attacking", "8444": "\u0120extend", "8445": "\u0120ultimate", "8446": "\u0120attached", "8447": "\u0120Vegas", "8448": "\u0120discussions", "8449": "\u0120horse", "8450": "mad", "8451": "\u0120Brew", "8452": "\u0120reprodu", "8453": "\u0120genetic", "8454": "\u0120expanded", "8455": "\u0120attempting", "8456": "phones", "8457": "\u0120Matthew", "8458": "\u0120races", "8459": "including", "8460": "\u0120Queen", "8461": "iry", "8462": "\u0120raw", "8463": "\u0120ignore", "8464": "\u0120Columbia", "8465": "serv", "8466": "\u0120Pent", "8467": "\u0120Guardian", "8468": "hour", "8469": "\u0120Cook", "8470": "itionally", "8471": "\u0120gear", "8472": "\u0120iP", "8473": "\u0120symptoms", "8474": "\u0120Patrick", "8475": "\u0120suffer", "8476": "\u0120settings", "8477": "\u0120Make", "8478": "\u00e2\u0122\u0136\u00e2\u0122\u0136\u00e2\u0122\u0136\u00e2\u0122\u0136", "8479": "alling", "8480": "\u0120salary", "8481": "han", "8482": "case", "8483": "\u0120licens", "8484": "\u0120roof", "8485": "mary", "8486": "GO", "8487": "\u0120tweeted", "8488": "angel", "8489": "'.", "8490": "\u0120publication", "8491": "\u0120brill", "8492": "\u0120factory", "8493": "\u0120suspected", "8494": "\u0120purchased", "8495": "\u0120intervention", "8496": "aret", "8497": "\u0120eastern", "8498": "\u0120holiday", "8499": "type", "8500": "2014", "8501": "\u0120prompt", "8502": "esh", "8503": "\u0120theat", "8504": "About", "8505": "\u0120displ", "8506": "\u0120ranked", "8507": "\u0120Budd", "8508": "\u0120neck", "8509": "\u0120Austin", "8510": "\u0120Conservative", "8511": "\u0120Museum", "8512": "\u0120Roy", "8513": "\")", "8514": "\u0120cro", "8515": "\u0120enormous", "8516": "Sen", "8517": "####", "8518": "intendo", "8519": "\u0120cogn", "8520": "\u0120logic", "8521": "ultural", "8522": "ictions", "8523": "\u0120API", "8524": "\u0120improvement", "8525": "\u0120viewed", "8526": "\u0120ingred", "8527": "\u0120entertainment", "8528": "Ass", "8529": "\u0120legitimate", "8530": "\u0120Professor", "8531": "ommod", "8532": "\u0120presum", "8533": "\u0120Albert", "8534": "\u0120Massachusetts", "8535": "\u0120Ball", "8536": "\u01202019", "8537": "\u0120www", "8538": "News", "8539": "\u0120actors", "8540": "\u0120substantial", "8541": "\u0120humanity", "8542": "\u0120involves", "8543": "\u0120resource", "8544": "arms", "8545": "\u0120brothers", "8546": "\u0120liquid", "8547": "\u0120rational", "8548": "\u0120seemingly", "8549": "\u0120sorry", "8550": "\u0120layer", "8551": "\u0120loans", "8552": "\u0120rook", "8553": "\u0120investigating", "8554": "\u0120absence", "8555": "\u0120providers", "8556": "\u0120tomorrow", "8557": "\u0120fallen", "8558": "\u0120bureau", "8559": "rec", "8560": "\u0120grounds", "8561": "\u0120coaches", "8562": "\u0120stake", "8563": "\u0120resign", "8564": "\u0120outs", "8565": "\u0120advocates", "8566": "\u0120\u00e2\u0124\u00ac", "8567": "RC", "8568": "\u0120investigators", "8569": "\u0120conspiracy", "8570": "\u0120medicine", "8571": "\u0120dramatic", "8572": "Where", "8573": "\u0120fulf", "8574": "\u0120monitor", "8575": "\u0120Chair", "8576": "repre", "8577": "EST", "8578": "\u0120chapter", "8579": "\u0120Season", "8580": "\u0120coc", "8581": "oval", "8582": "\u0120overs", "8583": "GE", "8584": "lah", "8585": "plete", "8586": ".-", "8587": "\u0120activist", "8588": "ped", "8589": "\u0120boat", "8590": "\u0120Check", "8591": "aka", "8592": "\u0120Control", "8593": "\u0120jur", "8594": "\u0120suspended", "8595": "\u0120papers", "8596": "Script", "8597": "\u0120Greece", "8598": "\u0120opinions", "8599": "\u0120Such", "8600": "\u0120Ross", "8601": "\u0120missile", "8602": "\u0120Golden", "8603": "\u0120celeb", "8604": "\u0120Revolution", "8605": "2016", "8606": "\u0120stayed", "8607": "\u0120covers", "8608": "\u0120Head", "8609": "iverpool", "8610": "\u0120diversity", "8611": "otype", "8612": "\u0120bars", "8613": "\u0120gam", "8614": "Russ", "8615": "rets", "8616": "\u0120je", "8617": "xit", "8618": "\u0120embarrass", "8619": "\u0120offices", "8620": "\u0120Acc", "8621": "ourse", "8622": "\u0120Pot", "8623": "claim", "8624": "Part", "8625": "hot", "8626": "\u0120Iranian", "8627": "ammed", "8628": "\u0120disrupt", "8629": "cover", "8630": "\u0120WW", "8631": "\u0120preced", "8632": "mat", "8633": "\u0120poly", "8634": "\u0120forest", "8635": "wered", "8636": "\u0120careful", "8637": "\u0120Ap", "8638": "reprene", "8639": "vard", "8640": "\u0120amid", "8641": "\u0120History", "8642": "79", "8643": "\u0120Ho", "8644": "\u0120Hospital", "8645": "isting", "8646": "\u0120Ale", "8647": "\u0120authent", "8648": "quest", "8649": "\u0120Illinois", "8650": "\u0120CBS", "8651": "\u0120Sony", "8652": "uction", "8653": "\u0120ham", "8654": "geon", "8655": "Related", "8656": "dit", "8657": "74", "8658": "72", "8659": "rine", "8660": "\u0120transportation", "8661": "\u0120Vancouver", "8662": "\u0120Gaza", "8663": "\u0120handed", "8664": "\u0120protocol", "8665": "\u0120consistently", "8666": "\u0120mountain", "8667": "\u012052", "8668": "\u0120reads", "8669": "\u0120Stat", "8670": "\u0120pref", "8671": "\u0120clothes", "8672": "\u0120attitude", "8673": "iability", "8674": "ection", "8675": "\u0120Po", "8676": "\u0120Share", "8677": "\u0120Kennedy", "8678": "\u0120porn", "8679": "\u0120princip", "8680": "\u0120Freedom", "8681": "bi", "8682": "\u0120depends", "8683": "\u0120mining", "8684": "\u0120petition", "8685": "\u0120noting", "8686": "\u0120conce", "8687": "des", "8688": "\u0120colors", "8689": "\u0120lowest", "8690": "\u0120Anderson", "8691": "\u0120warrant", "8692": "\u0120addressed", "8693": "\u0120Tri", "8694": "\u0120Family", "8695": "unes", "8696": "\u0120entr", "8697": "\u0120Ra", "8698": "ptions", "8699": "xx", "8700": "\u0120Stadium", "8701": "\u0120throwing", "8702": "\u0120virtually", "8703": "\u0120fruit", "8704": "!)", "8705": "\u0120stone", "8706": "\u0120foss", "8707": "\u0120Mean", "8708": "\u0120guarantee", "8709": "\u0120referend", "8710": "Both", "8711": "\u0120speaks", "8712": "\u0120Baltimore", "8713": "inch", "8714": "??", "8715": "\u0120steel", "8716": "\u0120closing", "8717": "\u0120reader", "8718": "FF", "8719": "dri", "8720": "\u0120buff", "8721": "\u0120personality", "8722": "\u0120Cre", "8723": "\u0120appreciate", "8724": "\u0120surf", "8725": "\u0120Iraqi", "8726": "pton", "8727": "\u0120Environment", "8728": "\u0120nerv", "8729": "iences", "8730": "maker", "8731": "keep", "8732": "\u0120km", "8733": "\u0120handling", "8734": "\u0120profits", "8735": "ordon", "8736": "\u0120grav", "8737": "low", "8738": "\u0120marks", "8739": "\u0120tries", "8740": "\u0120Broad", "8741": "\u0120Ext", "8742": "\u0120contributions", "8743": "\u0120Engine", "8744": "ropri", "8745": "zed", "8746": "\u0120spiritual", "8747": "\u0120conversations", "8748": "\u0120fantastic", "8749": "\u0120Tro", "8750": "\u0120lands", "8751": "\u0120console", "8752": "ila", "8753": "\u0120horror", "8754": "ppers", "8755": "\".[", "8756": "icity", "8757": "\u0120gains", "8758": "Her", "8759": "\u0120covering", "8760": "\u0120tea", "8761": "ivals", "8762": "\u0120Harris", "8763": "\u0120astron", "8764": "\u0120hint", "8765": "aval", "8766": "\u0120shoulder", "8767": "scale", "8768": "\u0120wrest", "8769": "\u0120guest", "8770": "\u0120Bad", "8771": "\u0120accommod", "8772": "uted", "8773": "uits", "8774": "\u0120depression", "8775": "\u0120CA", "8776": "\u0120_", "8777": "\u0120Lewis", "8778": "\u0120lucky", "8779": "\u0120Bang", "8780": "\u0120encouraged", "8781": "flix", "8782": "amac", "8783": "\u0120judges", "8784": "\u0120incidents", "8785": "\u0120Cleveland", "8786": "\u0120drew", "8787": "\u0120subsequent", "8788": "ira", "8789": "\u0120spoken", "8790": "\u0120Ren", "8791": "\u0120Howard", "8792": "\u0120brown", "8793": "\u0120bacter", "8794": "Please", "8795": "ixed", "8796": "annels", "8797": "\u0120rhet", "8798": "\u0120ranks", "8799": "\u0120Getty", "8800": "\u0120photograp", "8801": "\u0120inflation", "8802": "\u0120inner", "8803": "\u0120Intelligence", "8804": "eding", "8805": "itting", "8806": "\u0120Ba", "8807": "\u0120maps", "8808": "abeth", "8809": "\u0120Patri", "8810": "ported", "8811": "ijing", "8812": "plate", "8813": "\u0120divided", "8814": "\u01201995", "8815": "\u0120NATO", "8816": "********", "8817": "\u0120paralle", "8818": "\u0120drama", "8819": "\u0120Mexican", "8820": "\u0120distributed", "8821": "\u0120gal", "8822": "\u0120innovation", "8823": "\u0120swing", "8824": "unicip", "8825": "\u0120cust", "8826": "\u0120Unfortunately", "8827": "\u0120premium", "8828": "\u0120voter", "8829": "\u0120permit", "8830": "\u0120revel", "8831": "\u0120Kong", "8832": "\u0120trem", "8833": "\u0120dance", "8834": "\u0120clim", "8835": "pled", "8836": "\u0120Las", "8837": "\u0120efficiency", "8838": "\u0120promises", "8839": "\u0120Indeed", "8840": "Note", "8841": "\u0120CH", "8842": "\u0120Which", "8843": "\u0120ballot", "8844": "\u012051", "8845": "\u0120temperatures", "8846": "\u0120Samsung", "8847": "\u0120portray", "8848": "\u0120spokesperson", "8849": "\u0120locked", "8850": "\u0120lying", "8851": "\u0120improving", "8852": "\u0120threw", "8853": "\u0120joy", "8854": "\u0120dump", "8855": "\u0120musical", "8856": "PP", "8857": "\u0120mistakes", "8858": "dated", "8859": "\u0120shout", "8860": "conf", "8861": "\u0120homeless", "8862": "\u0120replacement", "8863": "eries", "8864": "\u0120Start", "8865": "\u0120comedy", "8866": "\u0120checks", "8867": "\u0120Moon", "8868": "\u0120Without", "8869": "\u0120instrument", "8870": "ounce", "8871": "\u0120Connect", "8872": "\u0120acknowledged", "8873": "\u0120barrel", "8874": "\u0120responses", "8875": "\u0120protecting", "8876": "backs", "8877": "\u0120Det", "8878": "\u00c2\u0134", "8879": "\u0120silver", "8880": "\u0120copies", "8881": "heim", "8882": "\u0120les", "8883": "\u0120AC", "8884": "\u0120dad", "8885": "\u0120breaks", "8886": "\u0120Plus", "8887": "\u0120Buff", "8888": "Ke", "8889": "\u0120commonly", "8890": "\u0120lets", "8891": "\u0120legacy", "8892": "itage", "8893": "\u0120protein", "8894": "\u0120mathem", "8895": "\u0120joke", "8896": "amacare", "8897": "erted", "8898": "hop", "8899": "\u0120passengers", "8900": "2015", "8901": "\u0120yellow", "8902": "\u0120Marvel", "8903": "\u0120naturally", "8904": "Your", "8905": "\u0120Scient", "8906": "\u0120nomination", "8907": "Source", "8908": "\u0120measured", "8909": "aping", "8910": "oded", "8911": "alia", "8912": "\u0120Use", "8913": "\u0120abandoned", "8914": "\u0120mad", "8915": "\u0120Prince", "8916": "\u0120studied", "8917": "800", "8918": "\u0120Football", "8919": "Art", "8920": "helsea", "8921": "asted", "8922": "\u0120diverse", "8923": "\u0120rom", "8924": "argo", "8925": "\u0120acquired", "8926": "ieties", "8927": "\u0120Lyn", "8928": "Cons", "8929": "\u0120Marsh", "8930": "\u0120soil", "8931": "\u0120demonstrated", "8932": "\u0120rear", "8933": "\u0120funded", "8934": "\u0120headquarters", "8935": "hesis", "8936": "esty", "8937": "\u0120stolen", "8938": "yo", "8939": "\u0120scan", "8940": "yer", "8941": "\u0120counts", "8942": "\u0120tape", "8943": "\u0120partnership", "8944": "\u0120midfield", "8945": "\u0120NOT", "8946": "\u0120(\u00e2\u0122\u013e", "8947": "\u0120upgrade", "8948": "\u0120Cost", "8949": "\u0120Atlantic", "8950": "\u0120march", "8951": "\u0120ordinary", "8952": "\u0120Aud", "8953": "\u0120Nev", "8954": "aware", "8955": "\u0120literature", "8956": "\u0120plain", "8957": "\u0120stages", "8958": "\u0120\u00e2\u0122\u00a2", "8959": "\u0120assert", "8960": "\u01201994", "8961": "high", "8962": "\u0120AI", "8963": "\u0120helpful", "8964": "\u0120arrive", "8965": "\u0120exit", "8966": "\u0120scope", "8967": "\u0120falls", "8968": "63", "8969": "dog", "8970": "\u0120ignored", "8971": "BM", "8972": "\u0120twenty", "8973": "eters", "8974": "\u0120Master", "8975": "\u0120clock", "8976": "\u0120compe", "8977": "inction", "8978": "\u0120virus", "8979": "\u0120Trib", "8980": "\u0120referendum", "8981": "\u0120inequ", "8982": "\u0120unions", "8983": "\u0120Does", "8984": "assador", "8985": "\u0120conservatives", "8986": "\u0120Gun", "8987": "\u0120rif", "8988": "\u0120grid", "8989": "\u0120symp", "8990": "\u0120festival", "8991": "\u0120fro", "8992": "\u0120shopping", "8993": "\u0120waters", "8994": "\u0120Pop", "8995": "\u0120capabilities", "8996": "\u0120Bron", "8997": "\u0120ax", "8998": "lahoma", "8999": "\u0120usage", "9000": "\u0120Hind", "9001": "iate", "9002": "zing", "9003": "\u0120Empire", "9004": "aeda", "9005": "\u0120Abb", "9006": "ington", "9007": "\u0120Indiana", "9008": "iley", "9009": "\u0120transactions", "9010": "\u0120hoped", "9011": "erg", "9012": "\u0120distract", "9013": "\u0120guitar", "9014": "VE", "9015": "\u0120Eag", "9016": "ctic", "9017": "\u0120sty", "9018": "\u0120ramp", "9019": "\u0120assessment", "9020": "\u0120universities", "9021": "\u0120Dave", "9022": "\u0120moon", "9023": "ormal", "9024": "\u0120monitoring", "9025": "acket", "9026": "bridge", "9027": "\u0120representing", "9028": "Facebook", "9029": "\u0120Death", "9030": "\u0120ratio", "9031": "encing", "9032": "62", "9033": "ught", "9034": "\u0120Prov", "9035": "\u0120Ast", "9036": "orge", "9037": "ji", "9038": "\u0120conventional", "9039": "comes", "9040": "UST", "9041": "\u0120Set", "9042": "\u0120trave", "9043": "\u0120tracking", "9044": "door", "9045": "ntil", "9046": "pie", "9047": "\u0120Sometimes", "9048": "61", "9049": "only", "9050": "shire", "9051": "\u0120hung", "9052": "\u0120Sus", "9053": "\u0120reliable", "9054": "\u0120tie", "9055": "\u0120proposals", "9056": "\u0120skept", "9057": "\u0120replied", "9058": "uh", "9059": "\u0120Ros", "9060": "\u0120criticized", "9061": "\u0120appearances", "9062": "rimin", "9063": "ecutive", "9064": "\u0120racism", "9065": "\u0120insisted", "9066": "organ", "9067": "\u0120introduction", "9068": "\u01202020", "9069": "\u0120appointed", "9070": "dney", "9071": "\u0120Bureau", "9072": "olph", "9073": "agic", "9074": "\u0120Pass", "9075": "cut", "9076": "\u0120Line", "9077": "\u0120beauty", "9078": "\u0120concrete", "9079": "\u0120receiver", "9080": "fund", "9081": "\u0120supplies", "9082": "\u0120performing", "9083": "made", "9084": "\u0120bub", "9085": "\u0120exch", "9086": "rite", "9087": "\u0120Ha", "9088": "\u0120Hell", "9089": "\u0120visiting", "9090": "\u0120Technology", "9091": "\u0120Denver", "9092": "ocument", "9093": "EE", "9094": "theless", "9095": "omes", "9096": "\u0120Capt", "9097": "RL", "9098": "\u0120letting", "9099": "AND", "9100": "\u0120deficit", "9101": "\u0120classified", "9102": "\u0120Galaxy", "9103": "\u0120render", "9104": "HT", "9105": "\u0120absor", "9106": "\u0120Orig", "9107": "\u0120swim", "9108": "\u0120accomplish", "9109": "\u0120auto", "9110": "\u0120programme", "9111": "\u0120presidency", "9112": "crib", "9113": "\u0120blocked", "9114": "\u0120Sweden", "9115": "\u0120Jam", "9116": "\u0120ec", "9117": "archy", "9118": "\u0120dust", "9119": "\u0120Utah", "9120": "\u0120drove", "9121": "\u0120landscape", "9122": "\u0120cance", "9123": "\u0120Portland", "9124": "plus", "9125": "\u0120dismissed", "9126": "\u0120LA", "9127": "\u0120hyper", "9128": "\u0120abroad", "9129": "\u0120bonus", "9130": "\u0120Tour", "9131": "\u0120sequence", "9132": "\u0120predicted", "9133": "\u0120senator", "9134": "\u00c2\u00b0", "9135": "ela", "9136": "\u0120Age", "9137": "\u0120warn", "9138": "\u0120domain", "9139": "\u0120Code", "9140": "\u0120Bon", "9141": "\u0120museum", "9142": "\u0120Associated", "9143": "\u0120persons", "9144": "NS", "9145": "\u0120dub", "9146": "aga", "9147": "\u0120requested", "9148": "\u0120trigger", "9149": "\u0120Ontario", "9150": "iano", "9151": "\u0120Corpor", "9152": "\u0120hockey", "9153": "\u0120artific", "9154": "\u0120dates", "9155": "\u0120testimony", "9156": "\u0120centers", "9157": "\u00d0\u00bb", "9158": "\u0120rocket", "9159": "irts", "9160": "\u0120ves", "9161": "\u0120transit", "9162": "\u0120congressional", "9163": "\u0120entitled", "9164": "ultane", "9165": "acco", "9166": "\u0120spokeswoman", "9167": "\u0120Front", "9168": "\u0120Nintendo", "9169": "\u0120Alexander", "9170": "\u0120rescue", "9171": "\u0120Cooper", "9172": "mony", "9173": "\u0120assign", "9174": "\u0120equality", "9175": "\u0120patch", "9176": "\u0120urged", "9177": "afe", "9178": "\u0120bread", "9179": "\u0120Olympic", "9180": "\u0120documentary", "9181": "\u0120veterans", "9182": "\u0120clar", "9183": "fol", "9184": "93", "9185": "king", "9186": "\u0120\u00e2\u0122\u013f", "9187": "\u0120recall", "9188": "\u0120populations", "9189": "94", "9190": "ais", "9191": "\u0120breath", "9192": "\u0120Low", "9193": "Still", "9194": "92", "9195": "ounding", "9196": "rooms", "9197": "Are", "9198": "\u0120whenever", "9199": "\u0120violation", "9200": "\u0120tactics", "9201": "\u0120wider", "9202": "71", "9203": "\u0120targeting", "9204": "Yet", "9205": "through", "9206": "\u0120pursue", "9207": "\">", "9208": "\u0120salt", "9209": "izabeth", "9210": "\u0120firing", "9211": "don", "9212": "\u0120Mill", "9213": "Comp", "9214": "\u0120acid", "9215": "har", "9216": "\u0120mole", "9217": "inating", "9218": "\u0120restaurants", "9219": "\u0120compare", "9220": "73", "9221": "fare", "9222": "orous", "9223": "\u0120wedd", "9224": "ennis", "9225": "ective", "9226": "\u0120employed", "9227": "\u0120Roberts", "9228": "\u0120contrad", "9229": "\u0120Bible", "9230": "\u0120politically", "9231": "\u0120phrase", "9232": "\u0120satellite", "9233": "\u0120Cro", "9234": "\u0120survival", "9235": "\u0120retirement", "9236": "\u0120banking", "9237": "\u0120Form", "9238": "isons", "9239": "\u0120brilliant", "9240": "\u0120Girl", "9241": "\u0120channels", "9242": "\u0120servers", "9243": "\u0120Beijing", "9244": "\u0120soccer", "9245": "trans", "9246": "\u0120Mach", "9247": "they", "9248": "\u0120introduce", "9249": "\u0120Justin", "9250": "atar", "9251": "\u0120experiments", "9252": "aver", "9253": "enez", "9254": "\u0120prisoners", "9255": "rapped", "9256": "\u0120cig", "9257": "\u0120WH", "9258": "jud", "9259": "\u0120fighter", "9260": "600", "9261": "\u0120scientist", "9262": "OK", "9263": "\u0120YOU", "9264": "usalem", "9265": "\u0120List", "9266": "\u0120submit", "9267": "\u0120approached", "9268": "\u0120Award", "9269": "\u0120monthly", "9270": "\u0120Liverpool", "9271": "rell", "9272": "\u0120designs", "9273": "\u0120representatives", "9274": "\u0120cul", "9275": "\u0120titled", "9276": "ordinary", "9277": "\u0120quote", "9278": "\u0120popularity", "9279": "olves", "9280": "oenix", "9281": "\u0120abilities", "9282": "\u0120PD", "9283": "\u0120membership", "9284": "\u0120investigations", "9285": "\u0120focusing", "9286": "pa", "9287": "mans", "9288": "\u0120hosp", "9289": "\u0120bab", "9290": "\u0120Bridge", "9291": "Though", "9292": "\u0120Maryland", "9293": "\u0120Adv", "9294": "\u0120saving", "9295": "\u0120rush", "9296": "\u0120Governor", "9297": "\u0120mit", "9298": "\u0120shadow", "9299": "bow", "9300": "ouri", "9301": "\u0120Hur", "9302": "\u0120Base", "9303": "\u0120objective", "9304": "berry", "9305": "\u0120encry", "9306": "\u0120Ted", "9307": "erts", "9308": "ederation", "9309": "\u0120prepar", "9310": "\u0120tips", "9311": "\u0120Was", "9312": "\u0120pipeline", "9313": "David", "9314": "\u0120childhood", "9315": "ika", "9316": "\u0120ratings", "9317": "\u0120thorough", "9318": "\u0120entreprene", "9319": "\u0120Kar", "9320": "enter", "9321": "\u0120Vill", "9322": "tel", "9323": "\u0120Dutch", "9324": "was", "9325": "break", "9326": "emed", "9327": "\u0120actively", "9328": "\u0120Harvard", "9329": "\u0120Som", "9330": "\u0120pig", "9331": "\u0120demanding", "9332": "\u0120loose", "9333": "\u0120Bra", "9334": "\u0120unexpected", "9335": "CO", "9336": "\u0120smoking", "9337": "\u0120smell", "9338": "\u0120deny", "9339": "\u0120universal", "9340": "\u0120forecast", "9341": "\u0120argues", "9342": "\u0120phenomenon", "9343": "\u0120overseas", "9344": "mers", "9345": "olds", "9346": "\u0120settled", "9347": "walk", "9348": "\u0120Beck", "9349": "\u0120generations", "9350": "\u0120weekly", "9351": "\u0120chicken", "9352": "\u0120preparing", "9353": "\u012095", "9354": "\u0120smartphone", "9355": "\u0120producers", "9356": "\u0120butt", "9357": "\u0120PA", "9358": "\u0120legislative", "9359": "\u0120Cry", "9360": "\u0120anxiety", "9361": "\u0120Have", "9362": "\u0120disturb", "9363": "\u0120innocent", "9364": "minute", "9365": "\u0120Click", "9366": "\u0120mortg", "9367": "\u0120celebrate", "9368": "Dem", "9369": "iki", "9370": "\u0120provision", "9371": "\u0120DO", "9372": "\u0120keys", "9373": "\u0120Ur", "9374": "ded", "9375": "\u0120shame", "9376": "\u0120arguing", "9377": "\u0120Design", "9378": "held", "9379": "\u0120questioned", "9380": "\u0120forcing", "9381": "\u0120Cow", "9382": "\u0120Hop", "9383": "agh", "9384": "ompson", "9385": "\u00e2\u0136", "9386": "\u0120broader", "9387": "\u0120encounter", "9388": "\u0120flags", "9389": "SL", "9390": "\u0120fool", "9391": "\u0120mac", "9392": "\u012053", "9393": "\u0120deadly", "9394": "\u0120fur", "9395": "84", "9396": "\u0120reverse", "9397": "\u0120weigh", "9398": "\u0120Edward", "9399": "\u0120Among", "9400": "\u0120tens", "9401": "\u0120~", "9402": "\u0120mos", "9403": "\u0120wealthy", "9404": "\u0120Obamacare", "9405": "\u0120unpre", "9406": "\u0120maintained", "9407": "\u0120surely", "9408": "\u0120shield", "9409": "\u0120Prop", "9410": "ocolate", "9411": "oret", "9412": "\u0120secondary", "9413": "isa", "9414": "aved", "9415": "Sim", "9416": "\u0120savings", "9417": "irlf", "9418": "\u0120stability", "9419": "\u0120civilian", "9420": "\u0120tab", "9421": "\u00c4\u0125", "9422": "\u0120Carter", "9423": "\u0120reveals", "9424": "mind", "9425": "\u0120mini", "9426": "elson", "9427": "\u0120alarm", "9428": "\u0120anniversary", "9429": "\u0120sorts", "9430": "\u0120Ak", "9431": "vernment", "9432": "El", "9433": "\u0120tonight", "9434": "\u0120releases", "9435": "isk", "9436": "\u0120Hon", "9437": "\u0120rooms", "9438": "irlfriend", "9439": "\u0120Gulf", "9440": "\u0120outrage", "9441": "\u0120prosecutors", "9442": "\u0120Left", "9443": "ois", "9444": "ele", "9445": "\u0120disorder", "9446": "inals", "9447": "\u0120exha", "9448": "orious", "9449": "\u0120shr", "9450": "\u0120relax", "9451": "\u0120windows", "9452": "\u0120threatening", "9453": "\u0120differently", "9454": "\u0120harassment", "9455": "\u0120quoted", "9456": "\u0120healthcare", "9457": "\u0120submitted", "9458": "\u0120arbit", "9459": "step", "9460": "\u0120lunch", "9461": "itter", "9462": "\u0120Run", "9463": "\u0120reforms", "9464": "\u0120torture", "9465": "rection", "9466": "\u0120fate", "9467": "\u0120stored", "9468": "\u0120okay", "9469": "\u0120Belg", "9470": "\u0120propaganda", "9471": "\u0120spots", "9472": "\u0120instructions", "9473": "\u0120Vietnam", "9474": "\u0120sevent", "9475": "\u0120rounds", "9476": "\u0120odds", "9477": "\u01201992", "9478": "\u0120aer", "9479": "html", "9480": "tenance", "9481": "aa", "9482": "\u0120errors", "9483": "\u0120Oklahoma", "9484": "\u0120hydro", "9485": "icism", "9486": "GA", "9487": "\u0120delic", "9488": "ailed", "9489": "\u0120Liberal", "9490": "\u0120silence", "9491": "\u0120Graham", "9492": "acts", "9493": "\u0120Warren", "9494": "\u0120graduate", "9495": "\u0120Sab", "9496": "\u0120circle", "9497": "\u0120affordable", "9498": "sect", "9499": "\u0120Bloom", "9500": "oz", "9501": "\u0120cooperation", "9502": "\u0120picks", "9503": "\u0120sear", "9504": "itary", "9505": "\u0120Sarah", "9506": "\u0120Fall", "9507": "orship", "9508": "\u0120Expl", "9509": "\u0120striking", "9510": "\u0120puzz", "9511": "van", "9512": "\u0120persu", "9513": "\u0120streaming", "9514": "\u0120comprehensive", "9515": "\u0120importantly", "9516": "\u0120cow", "9517": "\u0120possess", "9518": "Watch", "9519": "\u0120fing", "9520": "\u0120execution", "9521": "\u0120Ruby", "9522": "lined", "9523": "rows", "9524": "\u0120intim", "9525": "\u0120struggled", "9526": "\u0120Person", "9527": "\u0120Silver", "9528": "\u0120assass", "9529": "\u0120Leader", "9530": "uten", "9531": "ahu", "9532": "\u0120gent", "9533": "Ty", "9534": "\u0120Price", "9535": "Reuters", "9536": "ishop", "9537": "\u0120deserve", "9538": "\u0120Jerusalem", "9539": "\u0120landing", "9540": "\u0120calm", "9541": "\u0120alter", "9542": "\u0120hal", "9543": "\u0120ceremony", "9544": "\u0120assumed", "9545": "\u0120demonstrate", "9546": "\u0120difficulty", "9547": "fr", "9548": "83", "9549": "\u0120ages", "9550": "\u0120pron", "9551": "\u0120dying", "9552": "\u0120distingu", "9553": "asury", "9554": "ethe", "9555": "\u0120stepped", "9556": "asting", "9557": "\u0120borders", "9558": "\u0120chest", "9559": "\u0120Wolf", "9560": "\u0120Lt", "9561": "\u0120adventure", "9562": "\u0120pointing", "9563": "ova", "9564": "\u0120waves", "9565": "\u0120Deb", "9566": "\u0120kilomet", "9567": "essee", "9568": "ierce", "9569": "\u0120Netflix", "9570": "atern", "9571": "\u0120autonom", "9572": "\u0120precisely", "9573": "\u0120architecture", "9574": "\u0120greatly", "9575": "bury", "9576": "\u0120promising", "9577": "\u0120consent", "9578": "eals", "9579": "\u0120consideration", "9580": "\u0120drives", "9581": "\u0120dialogue", "9582": "\u0120Main", "9583": "\u0120tremend", "9584": "\u0120Ten", "9585": "\u0120Bud", "9586": "\u0120newsletter", "9587": "\u0120rookie", "9588": "asant", "9589": "\u0120awarded", "9590": "\u0120Meanwhile", "9591": "after", "9592": "\u0120repeat", "9593": "\u0120Story", "9594": "\u0120contribution", "9595": "\u0120Tele", "9596": "\u0120burning", "9597": "party",
[...]
