{"0": "\u0100", "1": "\u0101", "2": "\u0102", "3": "\u0103", "4": "\u0104", "5": "\u0105", "6": "\u0106", "7": "\u0107", "8": "\u0108", "9": "\u0109", "10": "\u010a", "11": "\u010b", "12": "\u010c", "13": "\u010d", "14": "\u010e", "15": "\u010f", "16": "\u0110", "17": "\u0111", "18": "\u0112", "19": "\u0113", "20": "\u0114", "21": "\u0115", "22": "\u0116", "23": "\u0117", "24": "\u0118", "25": "\u0119", "26": "\u011a", "27": "\u011b", "28": "\u011c", "29": "\u011d", "30": "\u011e", "31": "\u011f", "32": "\u0120", "33": "!", "34": "\"", "35": "#", "36": "$", "37": "%", "38": "&", "39": "'", "40": "(", "41": ")", "42": "*", "43": "+", "44": ",", "45": "-", "46": ".", "47": "/", "48": "0", "49": "1", "50": "2", "51": "3", "52": "4", "53": "5", "54": "6", "55": "7", "56": "8", "57": "9", "58": ":", "59": ";", "60": "<", "61": "=", "62": ">", "63": "?", "64": "@", "65": "A", "66": "B", "67": "C", "68": "D", "69": "E", "70": "F", "71": "G", "72": "H", "73": "I", "74": "J", "75": "K", "76": "L", "77": "M", "78": "N", "79": "O", "80": "P", "81": "Q", "82": "R", "83": "S", "84": "T", "85": "U", "86": "V", "87": "W", "88": "X", "89": "Y", "90": "Z", "91": "[", "92": "\\", "93": "]", "94": "^", "95": "_", "96": "`", "97": "a", "98": "b", "99": "c", "100": "d", "101": "e", "102": "f", "103": "g", "104": "h", "105": "i", "106": "j", "107": "k", "108": "l", "109": "m", "110": "n", "111": "o", "112": "p", "113": "q", "114": "r", "115": "s", "116": "t", "117": "u", "118": "v", "119": "w", "120": "x", "121": "y", "122": "z", "123": "{", "124": "|", "125": "}", "126": "~", "127": "\u0121", "128": "\u0122", "129": "\u0123", "130": "\u0124", "131": "\u0125", "132": "\u0126", "133": "\u0127", "134": "\u0128", "135": "\u0129", "136": "\u012a", "137": "\u012b", "138": "\u012c", "139": "\u012d", "140": "\u012e", "141": "\u012f", "142": "\u0130", "143": "\u0131", "144": "\u0132", "145": "\u0133", "146": "\u0134", "147": "\u0135", "148": "\u0136", "149": "\u0137", "150": "\u0138", "151": "\u0139", "152": "\u013a", "153": "\u013b", "154": "\u013c", "155": "\u013d", "156": "\u013e", "157": "\u013f", "158": "\u0140", "159": "\u0141", "160": "\u0142", "161": "\u00a1", "162": "\u00a2", "163": "\u00a3", "164": "\u00a4", "165": "\u00a5", "166": "\u00a6", "167": "\u00a7", "168": "\u00a8", "169": "\u00a9", "170": "\u00aa", "171": "\u00ab", "172": "\u00ac", "173": "\u0143", "174": "\u00ae", "175": "\u00af", "176": "\u00b0", "177": "\u00b1", "178": "\u00b2", "179": "\u00b3", "180": "\u00b4", "181": "\u00b5", "182": "\u00b6", "183": "\u00b7", "184": "\u00b8", "185": "\u00b9", "186": "\u00ba", "187": "\u00bb", "188": "\u00bc", "189": "\u00bd", "190": "\u00be", "191": "\u00bf", "192": "\u00c0", "193": "\u00c1", "194": "\u00c2", "195": "\u00c3", "196": "\u00c4", "197": "\u00c5", "198": "\u00c6", "199": "\u00c7", "200": "\u00c8", "201": "\u00c9", "202": "\u00ca", "203": "\u00cb", "204": "\u00cc", "205": "\u00cd", "206": "\u00ce", "207": "\u00cf", "208": "\u00d0", "209": "\u00d1", "210": "\u00d2", "211": "\u00d3", "212": "\u00d4", "213": "\u00d5", "214": "\u00d6", "215": "\u00d7", "216": "\u00d8", "217": "\u00d9", "218": "\u00da", "219": "\u00db", "220": "\u00dc", "221": "\u00dd", "222": "\u00de", "223": "\u00df", "224": "\u00e0", "225": "\u00e1", "226": "\u00e2", "227": "\u00e3", "228": "\u00e4", "229": "\u00e5", "230": "\u00e6", "231": "\u00e7", "232": "\u00e8", "233": "\u00e9", "234": "\u00ea", "235": "\u00eb", "236": "\u00ec", "237": "\u00ed", "238": "\u00ee", "239": "\u00ef", "240": "\u00f0", "241": "\u00f1", "242": "\u00f2", "243": "\u00f3", "244": "\u00f4", "245": "\u00f5", "246": "\u00f6", "247": "\u00f7", "248": "\u00f8", "249": "\u00f9", "250": "\u00fa", "251": "\u00fb", "252": "\u00fc", "253": "\u00fd", "254": "\u00fe", "255": "\u00ff", "256": "\u0120t", "257": "he", "258": "\u0120a", "259": "\u0120s", "260": "nd", "261": "\u0120w", "262": "\u0120the", "263": "ed", "264": "\u0120b", "265": "\u0120to", "266": "\u0120and", "267": "\u0120h", "268": "\u0120f", "269": "in", "270": "\u0120T", "271": "\u0120wa", "272": "re", "273": "it", "274": "ou", "275": "\u0120l", "276": "\u0120d", "277": "\u0120c", "278": "\u0120p", "279": "ay", "280": "\u0120m", "281": "er", "282": "\u0120was", "283": "om", "284": "\u0120The", "285": "\u0120he", "286": "is", "287": "ar", "288": "\u0120n", "289": "im", "290": "on", "291": "\u0120sa", "292": "id", "293": "ll", "294": "\u0120ha", "295": "\u0120g", "296": "at", "297": "\u0120S", "298": "ing", "299": "ot", "300": "en", "301": "an", "302": "le", "303": "or", "304": "end", "305": "ir", "306": "of", "307": "am", "308": "et", "309": "\u0120H", "310": "\u0120it", "311": "\u0120th", "312": "ig", "313": "\u0120They", "314": "\u0120in", "315": "il", "316": "\u0120pl", "317": "\u0120He", "318": "\u0120\"", "319": "ow", "320": "ver", "321": "ri", "322": "ut", "323": "\u0120be", "324": "\u0120u", "325": "\u0120said", "326": "\u0120play", "327": "ith", "328": "\u0120day", "329": "\u0120with", "330": "pp", "331": "On", "332": "\u0120y", "333": "oo", "334": "ked", "335": "\u0120r", "336": "\u0120her", "337": "ex", "338": "ce", "339": "\u0120I", "340": "\u0120She", "341": "ld", "342": "\u0120Tim", "343": "\u0120his", "344": "\u0120st", "345": "ke", "346": "\u0120big", "347": "nt", "348": "ck", "349": "\u0120you", "350": "very", "351": "st", "352": "ve", "353": "\u0120on", "354": "un", "355": "\u0120happ", "356": "riend", "357": "\u0120friend", "358": "all", "359": "ily", "360": "ext", "361": "\u0120L", "362": "\u0120they", "363": "oft", "364": "\u0120we", "365": "\u0120had", "366": "\u0120not", "367": "\u0120li", "368": "\u0120up", "369": "her", "370": "\u0120want", "371": "\u0120of", "372": "ad", "373": "itt", "374": "|>", "375": "<|", "376": "oftext", "377": "endoftext", "378": "se", "379": "\u0120B", "380": "\u0120do", "381": "\u0120e", "382": "\u0120happy", "383": "ent", "384": "\u0120very", "385": "\u0120M", "386": "es", "387": "\u0120that", "388": "\u0120saw", "389": "One", "390": "'s", "391": "ould", "392": "\u0120mom", "393": "\u0120for", "394": "\u0120sh", "395": "ittle", "396": "\u0120little", "397": "\u0120she", "398": "ch", "399": "ime", "400": "\u0120nam", "401": ".\"", "402": "\u0120time", "403": "\u0120k", "404": "ound", "405": "\u0120so", "406": "\u0120there", "407": "\u0120named", "408": "\u0120sm", "409": "\u0120bo", "410": "\u0120were", "411": "\u0120Lily", "412": "\u0120ne", "413": "\u0120wanted", "414": "\u0120but", "415": "out", "416": "The", "417": "\u0120friends", "418": "ved", "419": "!\"", "420": "ht", "421": "\u0120Tom", "422": "ird", "423": "el", "424": "\u0120bird", "425": "al", "426": "\u0120an", "427": "ake", "428": "\u0120too", "429": "ome", "430": "\u0120It", "431": "ug", "432": "ide", "433": "\u0120went", "434": "\u0120wh", "435": "\u0120hel", "436": "Once", "437": "\u0120is", "438": "\u0120all", "439": "\u0120help", "440": "ue", "441": "\u0120loo", "442": "\u0120lo", "443": "ter", "444": "\u0120A", "445": "\u0120upon", "446": "ry", "447": "ore", "448": "ind", "449": "\u0120fun", "450": "get", "451": "\u0120toy", "452": "ill", "453": "ame", "454": "\u0120as", "455": "\u0120at", "456": "ra", "457": "\u0120j", "458": "\u0120did", "459": "gether", "460": "\u0120re", "461": "ur", "462": "\u0120o", "463": "\u0120se", "464": "\u0120together", "465": "ack", "466": "\u0120cat", "467": "ly", "468": "\u0120tre", "469": "ood", "470": "ic", "471": "ted", "472": "\u0120dog", "473": "\u0120could", "474": "\u0120can", "475": "\u0120their", "476": "ard", "477": "ec", "478": "ark", "479": "\u0120gir", "480": "\u0120played", "481": "\u0120him", "482": "\u0120ball", "483": "?\"", "484": "\u0120girl", "485": "\u0120ro", "486": "way", "487": "\u0120go", "488": "hed", "489": "my", "490": "\u0120are", "491": "\u0120out", "492": "\u0120le", "493": "\u0120fr", "494": "ain", "495": "\u0120kn", "496": "hen", "497": "\u0120them", "498": "um", "499": "'t", "500": "ax", "501": "\u0120sad", "502": "ul", "503": "\u0120boy", "504": "\u0120tree", "505": "other", "506": "\u0120have", "507": "\u0120man", "508": "\u0120cl", "509": "\u0120loved", "510": "\u0120looked", "511": "oug", "512": "\u0120found", "513": "\u0120sp", "514": "\u0120star", "515": "\u0120Sue", "516": "one", "517": "hing", "518": "\u0120sc", "519": "\u0120back", "520": "own", "521": "\u0120Max", "522": "are", "523": "\u0120like", "524": "ful", "525": "side", "526": "\u0120me", "527": "\u0120bec", "528": "\u0120park", "529": "ight", "530": "ong", "531": "\u0120car", "532": "op", "533": "elt", "534": "\u0120One", "535": "\u0120liked", "536": "\u0120would", "537": "\u0120make", "538": "round", "539": "\u0120la", "540": "\u0120fa", "541": "\u0120felt", "542": "You", "543": "\u0120W", "544": "ell", "545": "\u0120see", "546": "\u0120But", "547": "omet", "548": "\u0120asked", "549": "ag", "550": "\u0120new", "551": "\u0120no", "552": "ice", "553": "\u0120Sam", "554": "ouse", "555": "\u0120started", "556": "ared", "557": "\u0120came", "558": "\u0120Ben", "559": "\u0120al", "560": "\u0120other", "561": "ought", "562": "iled", "563": "\u0120somet", "564": "\u0120ag", "565": "\u0120good", "566": "\u0120small", "567": "ss", "568": "\u0120br", "569": "\u0120smiled", "570": "\u0120say", "571": "ried", "572": "ade", "573": "ings", "574": "ob", "575": "pot", "576": "\u0120wor", "577": "\u0120find", "578": "ia", "579": "\u0120away", "580": "ty", "581": "\u0120put", "582": "\u0120ex", "583": "\u0120what", "584": "\u0120something", "585": "\u0120from", "586": "\u0120made", "587": "\u0120thought", "588": "ened", "589": "\u0120home", "590": "\u0120playing", "591": "\u0120co", "592": "ook", "593": "\u0120every", "594": "\u0120wal", "595": "\u0120mu", "596": "uc", "597": "ach", "598": "arn", "599": "\u0120Spot", "600": "\u0120ran", "601": "ile", "602": "\u0120F", "603": "ie", "604": "\u0120J", "605": "ave", "606": "\u0120again", "607": "\u0120some", "608": "\u0120laug", "609": "dd", "610": "\u0120house", "611": "\u0120down", "612": "\u0120fl", "613": "king", "614": "\u0120took", "615": "\u0120scared", "616": "\u0120pr", "617": "ny", "618": "ure", "619": "\u0120toys", "620": "\u0120learn", "621": "\u0120You", "622": "if", "623": "\u0120will", "624": "\u0120box", "625": "ick", "626": "ret", "627": "ab", "628": "ep", "629": "\u0120my", "630": "\u0120around", "631": "\u0120things", "632": "\u0120your", "633": "oud", "634": "\u0120bl", "635": "uck", "636": "\u0120when", "637": "ish", "638": "\u0120lived", "639": "\u0120fe", "640": "\u0120then", "641": "\u0120sun", "642": "as", "643": "\u0120sw", "644": ",\"", "645": "\u0120ch", "646": "us", "647": "pped", "648": "\u0120ab", "649": "\u0120Mia", "650": "ank", "651": "\u0120get", "652": "ucy", "653": "Tim", "654": "ump", "655": "Th", "656": "\u0120lot", "657": "ist", "658": "oth", "659": "\u0120tried", "660": "ap", "661": "\u0120know", "662": "\u0120says", "663": "\u0120got", "664": "ited", "665": "\u0120who", "666": "\u0120kne", "667": "ust", "668": "\u0120many", "669": "nder", "670": "\u0120int", "671": "\u0120about", "672": "Lily", "673": "\u0120pret", "674": "\u0120dec", "675": "\u0120any", "676": "\u0120red", "677": "\u0120D", "678": "ive", "679": "\u0120knew", "680": "ace", "681": "ous", "682": "\u0120more", "683": "ise", "684": "\u0120v", "685": "\u0120care", "686": "ally", "687": "\u0120pic", "688": "au", "689": "qu", "690": "\u0120hug", "691": "\u0120Lucy", "692": "\u0120learned", "693": "\u0120po", "694": "\u0120water", "695": "fter", "696": "\u0120became", "697": "\u0120best", "698": "ause", "699": "\u0120op", "700": "\u0120gre", "701": "\u0120exc", "702": "urp", "703": "ways", "704": "\u00e2\u0122", "705": "\u0120outside", "706": "\u0120laughed", "707": "\u0120look", "708": "\u0120always", "709": "\u0120decid", "710": "\u0120show", "711": "\u0120un", "712": "ant", "713": "\u0120Bob", "714": "\u0120room", "715": "fe", "716": "\u0120decided", "717": "\u0120ho", "718": "\u0120because", "719": "\u0120into", "720": "\u0120So", "721": "\u0120eat", "722": "ite", "723": "\u0120jump", "724": "\u0120And", "725": "\u0120pe", "726": "\u0120both", "727": "ers", "728": "\u0120Mom", "729": "\u0120dad", "730": "They", "731": "udd", "732": "\u0120ke", "733": "\u0120one", "734": "nn", "735": "\u0120this", "736": "\u0120excited", "737": "\u0120fast", "738": "\u0120nice", "739": "\u0120E", "740": "\u0120feel", "741": "Tom", "742": "Yes", "743": "\u0120run", "744": "\u0120long", "745": "\u0120told", "746": "\u0120sk", "747": "\u0120am", "748": "urpr", "749": "our", "750": "\u0120inside", "751": "ull", "752": "\u0120tr", "753": "\u0120surpr", "754": "\u0120mo", "755": "ink", "756": "\u0120pretty", "757": "iny", "758": "\u0120sor", "759": "Wh", "760": "\u0120take", "761": "og", "762": "\u0120sl", "763": "\u0120each", "764": "\u0120gave", "765": "\u0120much", "766": "\u0120gra", "767": "lew", "768": "nna", "769": "\u0120rock", "770": "\u0120how", "771": "\u0120str", "772": "ara", "773": "imal", "774": "\u0120animal", "775": "ged", "776": "\u0120need", "777": "\u0120than", "778": "But", "779": "ven", "780": "etter", "781": "\u0120tow", "782": "\u0120or", "783": "\u0120C", "784": "\u0120under", "785": "ess", "786": "\u0120old", "787": "\u0120sorry", "788": "ge", "789": "ised", "790": "ro", "791": "urt", "792": "\u0120cle", "793": "\u0120fish", "794": "\u0120walked", "795": "\u0120clo", "796": "and", "797": "\u0120bear", "798": "ase", "799": "ast", "800": "\u0120hand", "801": "urn", "802": "\u0120We", "803": "\u0120kind", "804": "\u0120His", "805": "here", "806": "\u0120happened", "807": "\u0120just", "808": "\u0120flow", "809": "\u0120food", "810": "\u0120list", "811": "\u0120didn", "812": "\u0120te", "813": "\u0120animals", "814": "\u0120hig", "815": "pl", "816": "\u0120near", "817": "\u0120wat", "818": "\u0120ide", "819": "\u0120try", "820": "ched", "821": "\u0120sky", "822": "ine", "823": "\u0120sn", "824": "ving", "825": "\u0120fi", "826": "rom", "827": "\u0120us", "828": "\u0120idea", "829": "\u0120better", "830": "\u0120Amy", "831": "\u0120bug", "832": "\u0120heard", "833": "gry", "834": "\u0120its", "835": "\u0120tw", "836": "\u0120let", "837": "pec", "838": "ate", "839": "able", "840": "ff", "841": "\u0120en", "842": "\u0120careful", "843": "\u0120share", "844": "\u0120if", "845": "Thank", "846": "Mom", "847": "\u0120fly", "848": "\u0120stor", "849": "ial", "850": "\u0120flew", "851": "more", "852": "\u0120anymore", "853": "\u0120Th", "854": "\u0120spec", "855": "\u0120special", "856": "ion", "857": "\u0120com", "858": "\u0120lots", "859": "\u0120never", "860": "\u0120by", "861": "lf", "862": "ream", "863": "\u0120dan", "864": "\u0120bu", "865": "\u0120fo", "866": "\u0120wind", "867": "\u0120don", "868": "\u0120tal", "869": "\u0120clean", "870": "ort", "871": "\u0120gr", "872": "\u0120love", "873": "rm", "874": "ber", "875": "\u0120end", "876": "\u0120Then", "877": "ople", "878": "\u0120even", "879": "\u010a\u010a", "880": "\u0120mag", "881": "\u0120hard", "882": "\u0120shiny", "883": "udden", "884": "\u0120fore", "885": "\u0120over", "886": "\u0120cake", "887": "ak", "888": "\u0120book", "889": "\u0120col", "890": "\u0120turn", "891": "\u0120fam", "892": "\u0120bad", "893": "\u0120safe", "894": "\u0120after", "895": "ady", "896": "\u0120Anna", "897": "uddenly", "898": "\u0120people", "899": "\u0120proud", "900": "\u0120Every", "901": "\u0120surprised", "902": "pected", "903": "Let", "904": "\u0120high", "905": "\u0120cu", "906": "\u0120hurt", "907": "\u0120come", "908": "imb", "909": "arden", "910": "\u0120door", "911": "\u0120garden", "912": "bb", "913": "\u0120ground", "914": "\u0120opened", "915": "\u0120picked", "916": "\u0120loud", "917": "\u0120climb", "918": "expected", "919": "\u0120unexpected", "920": "\u0120gl", "921": "\u0120che", "922": "ild", "923": "\u0120im", "924": "As", "925": "\u0120give", "926": "\u0120way", "927": "ail", "928": "'m", "929": "\u0120thanked", "930": "\u0120color", "931": "\u0120blue", "932": "\u0120still", "933": "\u0120ever", "934": "\u0120hugged", "935": "\u0120From", "936": "\u0120call", "937": "\u0120far", "938": "ip", "939": "\u0120Her", "940": "\u0120Sara", "941": "\u0120When", "942": "No", "943": "\u0120off", "944": "\u0120magic", "945": "iz", "946": "ough", "947": "age", "948": "ummy", "949": "\u0120K", "950": "\u0120jumped", "951": "\u0120should", "952": "\u0120family", "953": "\u0120par", "954": "ool", "955": "\u0120kid", "956": "\u0120smile", "957": "hes", "958": "uff", "959": "\u0120place", "960": "kay", "961": "\u0120walk", "962": "\u0120now", "963": "ct", "964": "\u0120In", "965": "\u0120great", "966": "em", "967": "\u0120qu", "968": "les", "969": "\u0120strong", "970": "\u0120stay", "971": "\u0120unt", "972": "\u0120sto", "973": "aut", "974": "\u0120forest", "975": "ture", "976": "ane", "977": "\u0120bra", "978": "itty", "979": "\u0120P", "980": "\u0120frog", "981": "\u0120bro", "982": "\u0120until", "983": "oon", "984": "\u0120beaut", "985": "dy", "986": "\u0120squ", "987": "\u0120stick", "988": "\u0120next", "989": "\u0120boat", "990": "lease", "991": "ning", "992": "\u0120happily", "993": "\u0120listen", "994": "aking", "995": "\u0120kids", "996": "\u0120tra", "997": "ies", "998": "iful", "999": "\u0120beautiful", "1000": "\u0120app", "1001": "th", "1002": "\u0120helped", "1003": "\u0120dra", "1004": "\u0120showed", "1005": "\u0120clos", "1006": "be", "1007": "\u0120imp", "1008": "\u0120story", "1009": "unny", "1010": "oy", "1011": "\u0120while", "1012": "\u0120town", "1013": "rel", "1014": "pt", "1015": "\u0120rain", "1016": "ress", "1017": "\u0120picture", "1018": "\u0120being", "1019": "\u0120rem", "1020": "\u0120everyone", "1021": "It", "1022": "ary", "1023": "ree", "1024": "\u0120mor", "1025": "\u0120hat", "1026": "\u0120called", "1027": "\u0120met", "1028": "\u0120stopped", "1029": "\u0120ad", "1030": "\u0120game", "1031": "Now", "1032": "He", "1033": "\u0120wo", "1034": "Can", "1035": "\u0120angry", "1036": "ger", "1037": "uffy", "1038": "\u0120soft", "1039": "\u0120open", "1040": "\u0120truck", "1041": "\u0120keep", "1042": "When", "1043": "\u0120cry", "1044": "\u0120yummy", "1045": "\u0120lost", "1046": "\u0120bed", "1047": "\u0120Let", "1048": "\u0120Sally", "1049": "\u0120warm", "1050": "by", "1051": "vent", "1052": "\u0120brave", "1053": "\u0120mouse", "1054": "\u0120Wh", "1055": "\u0120ate", "1056": "\u0120Kitty", "1057": "ished", "1058": "\u0120de", "1059": "fore", "1060": "\u0120doll", "1061": "so", "1062": "\u0120couldn", "1063": "\u0120watch", "1064": "\u0120leave", "1065": "\u0120also", "1066": "dded", "1067": "\u0120fell", "1068": "\u0120green", "1069": "\u0120face", "1070": "\u0120two", "1071": "gan", "1072": "iss", "1073": "\u0120flowers", "1074": "bit", "1075": "What", "1076": "\u0120R", "1077": "ble", "1078": "\u0120noise", "1079": "abbit", "1080": "irst", "1081": "owl", "1082": "\u0120where", "1083": "az", "1084": "ock", "1085": "\u0120soon", "1086": "self", "1087": "\u0120slide", "1088": "\u0120rabbit", "1089": "\u0120hole", "1090": "luffy", "1091": "\u0120before", "1092": "irrel", "1093": "\u0120pus", "1094": "ired", "1095": "\u0120sat", "1096": "illy", "1097": "\u0120hear", "1098": "\u0120use", "1099": "\u00e2\u0122\u013f", "1100": "Hi", "1101": "\u0120pa", "1102": "\u0120kept", "1103": "\u00e2\u0122\u013e", "1104": "That", "1105": "\u0120squirrel", "1106": "ear", "1107": "Then", "1108": "ma", "1109": "\u0120nodded", "1110": "\u0120expl", "1111": "\u0120store", "1112": "\u0120cook", "1113": "\u0120hands", "1114": "Look", "1115": "\u0120birds", "1116": "\u0120pain", "1117": "\u0120going", "1118": "\u0120funny", "1119": "\u0120having", "1120": "day", "1121": "\u0120sing", "1122": "aybe", "1123": "uch", "1124": "\u0120ey", "1125": "aug", "1126": "\u0120catch", "1127": "aught", "1128": "\u0120Can", "1129": "\u0120Fluffy", "1130": "uit", "1131": "\u0120yell", "1132": "\u0120think", "1133": "leep", "1134": "\u0120cra", "1135": "\u0120fin", "1136": "Ben", "1137": "\u0120bre", "1138": "\u0120fix", "1139": "\u0120tired", "1140": "\u0120bunny", "1141": "\u0120used", "1142": "\u0120looking", "1143": "\u0120bus", "1144": "ange", "1145": "air", "1146": "\u0120work", "1147": "\u0120wr", "1148": "ting", "1149": "\u0120our", "1150": "\u0120pull", "1151": "We", "1152": "\u0120thr", "1153": "thing", "1154": "\u0120Now", "1155": "\u0120wait", "1156": "\u0120kit", "1157": "\u0120sound", "1158": "\u0120jo", "1159": "\u0120has", "1160": "\u0120G", "1161": "\u0120mean", "1162": "\u0120pond", "1163": "ember", "1164": "\u0120beh", "1165": "\u0120dr", "1166": "\u0120sunny", "1167": "led", "1168": "\u0120others", "1169": "\u0120ask", "1170": "ng", "1171": "chen", "1172": "\u0120kitchen", "1173": "\u0120talk", "1174": "\u0120flo", "1175": "\u0120dif", "1176": "rew", "1177": "\u0120pie", "1178": "\u0120Jo", "1179": "\u0120head", "1180": "\u0120real", "1181": "\u0120first", "1182": "\u0120tri", "1183": "\u0120mommy", "1184": "\u0120eyes", "1185": "ello", "1186": "\u0120import", "1187": "Hello", "1188": "\u0120fav", "1189": "ath", "1190": "joy", "1191": "\u0120z", "1192": "\u0120remember", "1193": "\u0120right", "1194": "\u0120flower", "1195": "\u0120con", "1196": "\u0120mess", "1197": "\u0120party", "1198": "\u0120cold", "1199": "\u0120Do", "1200": "\u0120vo", "1201": "\u0120swe", "1202": "ious", "1203": "ft", "1204": "\u0120sand", "1205": "\u0120\u00e2\u0122\u013e", "1206": "ac", "1207": "orn", "1208": "\u0120race", "1209": "\u0120curi", "1210": "imes", "1211": "\u0120important", "1212": "\u0120duck", "1213": "\u0120moral", "1214": "\u0120shared", "1215": "zy", "1216": "ount", "1217": "\u0120Jack", "1218": "\u0120ice", "1219": "\u0120okay", "1220": "\u0120advent", "1221": "\u0120worked", "1222": "llow", "1223": "At", "1224": "\u0120enjoy", "1225": "\u0120dress", "1226": "\u0120bright", "1227": "\u0120making", "1228": "\u0120curious", "1229": "\u0120own", "1230": "\u0120tall", "1231": "\u0120dir", "1232": "\u0120hop", "1233": "reed", "1234": "\u0120hid", "1235": "\u0120favor", "1236": "\u0120ri", "1237": "hn", "1238": "\u0120sleep", "1239": "\u0120dis", "1240": "Wow", "1241": "\u0120favorite", "1242": "\u0120thing", "1243": "\u0120began", "1244": "\u0120mon", "1245": "\u0120bag", "1246": "\u0120hill", "1247": "Don", "1248": "\u0120cla", "1249": "\u0120draw", "1250": "\u0120rest", "1251": "\u0120here", "1252": "\u0120yard", "1253": "\u0120tell", "1254": "\u0120Fin", "1255": "ster", "1256": "\u0120watched", "1257": "que", "1258": "\u0120follow", "1259": "\u0120move", "1260": "\u0120bel", "1261": "ect", "1262": "\u0120cut", "1263": "\u0120night", "1264": "\u0120agreed", "1265": "\u0120pick", "1266": "co", "1267": "\u0120block", "1268": "\u0120hun", "1269": "aper", "1270": "lly", "1271": "\u0120stop", "1272": "\u0120behind", "1273": "\u0120This", "1274": "\u0120surprise", "1275": "ied", "1276": "\u0120sho", "1277": "\u0120hot", "1278": "After", "1279": "\u0120table", "1280": "\u0120grass", "1281": "\u0120worry", "1282": "\u0120dark", "1283": "\u0120trees", "1284": "\u0120voice", "1285": "\u0120walking", "1286": "fere", "1287": "\u0120floor", "1288": "\u0120farm", "1289": "\u0120lion", "1290": "\u0120top", "1291": "\u0120differe", "1292": "\u0120please", "1293": "\u0120ru", "1294": "\u0120song", "1295": "\u0120butter", "1296": "\u0120tail", "1297": "\u0120sweet", "1298": "Max", "1299": "\u0120shout", "1300": "\u0120colors", "1301": "\u0120read", "1302": "\u0120Dad", "1303": "\u0120lady", "1304": "\u0120forg", "1305": "isy", "1306": "\u0120leaves", "1307": "\u0120closer", "1308": "ign", "1309": "\u0120cars", "1310": "\u0120turned", "1311": "\u0120needed", "1312": "\u0120tast", "1313": "Why", "1314": "aring", "1315": "\u0120wood", "1316": "\u0120cried", "1317": "\u0120different", "1318": "\u0120laugh", "1319": "\u0120del", "1320": "\u0120piece", "1321": "\u00e2\u0122\u013b", "1322": "ered", "1323": "\u0120Mr", "1324": "\u0120roll", "1325": "\u0120adventure", "1326": "\u0120fire", "1327": "\u0120does", "1328": "ike", "1329": "\u0120cr", "1330": "\u0120hungry", "1331": "\u0120hair", "1332": "\u0120Suddenly", "1333": "\u0120paper", "1334": "\u0120feeling", "1335": "\u0120yellow", "1336": "\u0120full", "1337": "bo", "1338": "\u0120prin", "1339": "Sue", "1340": "\u0120touch", "1341": "\u0120As", "1342": "Anna", "1343": "Sam", "1344": "\u0120wet", "1345": "\u0120friendly", "1346": "\u0120per", "1347": "oom", "1348": "ken", "1349": "cked", "1350": "ached", "1351": "\u0120swing", "1352": "\u0120fruit", "1353": "ient", "1354": "\u0120broken", "1355": "\u0120ready", "1356": "bye", "1357": "ppy", "1358": "\u0120prom", "1359": "\u0120That", "1360": "\u0120another", "1361": "\u0120light", "1362": "\u0120pretend", "1363": "\u0120dance", "1364": "ater", "1365": "\u0120climbed", "1366": "where", "1367": "\u0120listened", "1368": "\u0120Bobo", "1369": "\u0120danc", "1370": "\u0120running", "1371": "\u0120only", "1372": "\u0120plan", "1373": "\u0120gone", "1374": "\u0120swim", "1375": "bbed", "1376": "Suddenly", "1377": "sh", "1378": "\u0120train", "1379": "ila", "1380": "ndma", "1381": "Sara", "1382": "\u0120Jane", "1383": "\u0120close", "1384": "av", "1385": "She", "1386": "\u0120smell", "1387": "aby", "1388": "\u0120amaz", "1389": "So", "1390": "\u0120hold", "1391": "\u0120blocks", "1392": "\u0120wonder", "1393": "\u0120Timmy", "1394": "\u0120repl", "1395": "\u0120All", "1396": "\u0120butterf", "1397": "\u0120sees", "1398": "\u0120reached", "1399": "\u0120wall", "1400": "\u0120pu", "1401": "oney", "1402": "red", "1403": "\u0120slow", "1404": "\u0120helping", "1405": "\u0120dri", "1406": "\u0120cream", "1407": "\u0120cool", "1408": "\u0120glad", "1409": "af", "1410": "\u0120ant", "1411": "\u0120less", "1412": "\u0120been", "1413": "\u0120goodbye", "1414": "\u0120ac", "1415": "\u0120fight", "1416": "ather", "1417": "Mia", "1418": "\u0120pushed", "1419": "iced", "1420": "\u0120fair", "1421": "\u0120must", "1422": "\u0120hide", "1423": "\u0120moment", "1424": "\u0120window", "1425": "\u0120O", "1426": "\u0120sit", "1427": "\u0120balloon", "1428": "\u0120snow", "1429": "\u0120child", "1430": "\u0120explore", "1431": "\u0120Everyone", "1432": "\u0120ar", "1433": "\u0120wished", "1434": "\u0120baby", "1435": "\u0120done", "1436": "\u0120wag", "1437": "\u0120ste", "1438": "\u0120buy", "1439": "\u0120stuck", "1440": "\u0120perf", "1441": "\u0120thank", "1442": "\u0120might", "1443": "icy", "1444": "\u0120name", "1445": "ized", "1446": "\u0120trying", "1447": "\u0120bit", "1448": "\u0120coming", "1449": "\u0120bar", "1450": "\u0120quick", "1451": "\u0120fall", "1452": "\u0120apple", "1453": "ash", "1454": "\u0120scary", "1455": "\u0120looks", "1456": "\u0120build", "1457": "\u0120doing", "1458": "\u0120win", "1459": "\u0120underst", "1460": "aisy", "1461": "\u0120din", "1462": "\u0120dream", "1463": "\u0120dirty", "1464": "\u0120held", "1465": "ames", "1466": "\u0120books", "1467": "\u0120mar", "1468": "In", "1469": "\u0120butterfly", "1470": "\u0120left", "1471": "\u0120shouted", "1472": "\u0120count", "1473": "\u0120replied", "1474": "avy", "1475": "\u0120reach", "1476": "\u0120tiny", "1477": "\u0120through", "1478": "ott", "1479": "\u0120dro", "1480": "\u0120why", "1481": "\u0120air", "1482": "\u0120bran", "1483": "\u0120land", "1484": "key", "1485": "\u0120three", "1486": "\u0120pulled", "1487": "\u0120spl", "1488": "\u0120grow", "1489": "\u0120treat", "1490": "\u0120brother", "1491": "\u0120wise", "1492": "\u0120woods", "1493": "\u0120sure", "1494": "'re", "1495": "\u0120chair", "1496": "ix", "1497": "\u0120mat", "1498": "ins", "1499": "\u0120seen", "1500": "\u0120pink", "1501": "\u0120clapped", "1502": "\u0120plant", "1503": "ely", "1504": "\u0120owl", "1505": "\u0120cup", "1506": "ield", "1507": "\u0120sometimes", "1508": "andy", "1509": "\u0120fill", "1510": "\u0120cloud", "1511": "ask", "1512": "\u0120swam", "1513": "outh", "1514": "\u0120job", "1515": "\u0120colorful", "1516": "\u0120remembered", "1517": "\u0120bigger", "1518": "\u0120nest", "1519": "\u0120mouth", "1520": "pe", "1521": "Okay", "1522": "\u0120lesson", "1523": "\u0120join", "1524": "\u0120cre", "1525": "ph", "1526": "\u0120There", "1527": "oup", "1528": "room", "1529": "art", "1530": "\u0120waved", "1531": "uddy", "1532": "\u0120grabbed", "1533": "\u0120stayed", "1534": "Oh", "1535": "\u0120paint", "1536": "This", "1537": "\u0120clot", "1538": "\u0120cont", "1539": "\u0120clothes", "1540": "ower", "1541": "\u0120After", "1542": "\u0120waited", "1543": "\u0120quickly", "1544": "cle", "1545": "\u0120word", "1546": "\u0120broke", "1547": "ucky", "1548": "\u0120games", "1549": "\u0120cast", "1550": "\u0120blew", "1551": "\u0120gent", "1552": "\u0120Mommy", "1553": "\u0120enjoyed", "1554": "\u0120noticed", "1555": "Jo", "1556": "ries", "1557": "ation", "1558": "\u0120set", "1559": "\u0120likes", "1560": "\u0120pictures", "1561": "ton", "1562": "de", "1563": "\u0120sea", "1564": "\u0120heavy", "1565": "\u0120mus", "1566": "\u0120alone", "1567": "\u0120gif", "1568": "asure", "1569": "\u0120anything", "1570": "\u0120spot", "1571": "\u0120miss", "1572": "\u0120hopped", "1573": "\u0120world", "1574": "\u0120turns", "1575": "orm", "1576": "\u0120year", "1577": "der", "1578": "\u0120bott", "1579": "\u0120pat", "1580": "\u0120pot", "1581": "\u0120pen", "1582": "lc", "1583": "Her", "1584": "\u0120mix", "1585": "\u0120arm", "1586": "\u0120bike", "1587": "\u0120tight", "1588": "\u0120everywhere", "1589": "\u0120won", "1590": "Lucy", "1591": "\u0120tower", "1592": "\u0120threw", "1593": "\u0120himself", "1594": "\u0120followed", "1595": "\u0120Buddy", "1596": "\u0120ride", "1597": "man", "1598": "less", "1599": "\u0120ju", "1600": "\u0120je", "1601": "amp", "1602": "Bob", "1603": "ape", "1604": "\u0120comp", "1605": "\u0120key", "1606": "row", "1607": "\".", "1608": "\u0120white", "1609": "ctor", "1610": "\u0120wrong", "1611": "\u0120Daisy", "1612": "\u0120makes", "1613": "\u0120What", "1614": "\u0120break", "1615": "\u0120black", "1616": "arent", "1617": "ee", "1618": "ner", "1619": "Spot", "1620": "Do", "1621": "\u0120deep", "1622": "thy", "1623": "\u0120music", "1624": "\u0120pol", "1625": "\u0120delic", "1626": "cess", "1627": "ued", "1628": "\u0120forgot", "1629": "\u0120bee", "1630": "\u0120parent", "1631": "\u0120castle", "1632": "ves", "1633": "olly", "1634": "\u0120em", "1635": "iet", "1636": "\u0120wear", "1637": "\u0120hit", "1638": "\u0120ve", "1639": "ister", "1640": "oun", "1641": "\u0120quiet", "1642": "\u0120round", "1643": "ance", "1644": "\u0120stu", "1645": "\u0120danced", "1646": "\u0120vis", "1647": "ully", "1648": "\u0120wants", "1649": "\u0120leaf", "1650": "\u0120monster", "1651": "\u0120nap", "1652": "\u0120John", "1653": "\u0120understand", "1654": "ang", "1655": "\u0120bowl", "1656": "os", "1657": "rot", "1658": "ren", "1659": "\u0120bor", "1660": "\u0120talked", "1661": "itten", "1662": "\u0120dry", "1663": "\u0120faster", "1664": "\u0120cookies", "1665": "\u0120brought", "1666": "fully", "1667": "\u0120leg", "1668": "ross", "1669": "\u0120mum", "1670": "zz", "1671": "\u0120side", "1672": "ts", "1673": "From", "1674": "\u0120sign", "1675": "\u0120Inside", "1676": "\u0120smart", "1677": "cy", "1678": "\u0120rocks", "1679": "\u0120someone", "1680": "His", "1681": "\u0120poin", "1682": "\u0120sec", "1683": "\u0120sharing", "1684": "\u0120fox", "1685": "\u0120well", "1686": "\u0120res", "1687": "\u0120rel", "1688": "\u0120happen", "1689": "\u0120button", "1690": "\u0120branch", "1691": "\u0120Lila", "1692": "\u0120really", "1693": "\u0120finished", "1694": "ence", "1695": "ards", "1696": "\u0120dinner", "1697": "\u0120sister", "1698": "\u0120flying", "1699": "eddy", "1700": "\u0120contin", "1701": "\u0120worried", "1702": "\u0120ele", "1703": "\u0120To", "1704": "\u0120visit", "1705": "\u0120Maybe", "1706": "\u0120beach", "1707": "\u0120que", "1708": "\u0120secret", "1709": "\u0120el", "1710": "\u0120Sarah", "1711": "\u0120king", "1712": "John", "1713": "gy", "1714": "\u0120today", "1715": "\u0120perfect", "1716": "\u0120river", "1717": "\u0120everything", "1718": "\u0120silly", "1719": "\u0120shin", "1720": "\u0120Joe", "1721": "\u0120danger", "1722": "ipp", "1723": "\u0120children", "1724": "\u0120gu", "1725": "\u0120Soon", "1726": "\u0120field", "1727": "\u0120filled", "1728": "\u0120fur", "1729": "\u0120else", "1730": "\u0120smiles", "1731": "\u0120welc", "1732": "\u0120At", "1733": "\u0120wish", "1734": "\u0120Em", "1735": "While", "1736": "\u0120sang", "1737": "\u0120gi", "1738": "ze", "1739": "\u0120pudd", "1740": "\u0120snack", "1741": "\u0120eating", "1742": "\u0120realized", "1743": "\u0120pieces", "1744": "\u0120promised", "1745": "ord", "1746": "\u0120spr", "1747": "\u0120pig", "1748": "\u0120free", "1749": "\u0120continued", "1750": "\u0120bite", "1751": "ead", "1752": "\u0120parents", "1753": "\u0120carefully", "1754": "ated", "1755": "itting", "1756": "\u0120ear", "1757": "Just", "1758": "\u0120jar", "1759": "Maybe", "1760": "\u0120cow", "1761": "Amy", "1762": "\u0120blank", "1763": "\u0120drag", "1764": "stead", "1765": "\u0120orange", "1766": "\u0120mud", "1767": "\u0120crying", "1768": "\u0120blanket", "1769": "\u0120enough", "1770": "\u0120rolled", "1771": "cket", "1772": "\u0120soup", "1773": "\u0120sail", "1774": "\u0120purp", "1775": "imi", "1776": "\u0120yes", "1777": "ale", "1778": "\u0120drink", "1779": "\u0120snake", "1780": "ses", "1781": "\u0120boun", "1782": "\u0120pet", "1783": "\u0120crab", "1784": "\u0120throw", "1785": "\u0120laughing", "1786": "\u0120fairy", "1787": "\u0120words", "1788": "\u0120amazing", "1789": "\u0120bath", "1790": "ich", "1791": "\u0120purple", "1792": "\u0120Z", "1793": "\u0120without", "1794": "ire", "1795": "\u0120bottle", "1796": "\u0120Billy", "1797": "\u0120gift", "1798": "\u0120grandma", "1799": "Fin", "1800": "used", "1801": "ons", "1802": "\u0120past", "1803": "\u0120money", "1804": "iver", "1805": "fort", "1806": "\u0120mail", "1807": "\u0120Gra", "1808": "\u0120barked", "1809": "\u0120wagged", "1810": "\u0120att", "1811": "chool", "1812": "\u0120monkey", "1813": "\u0120doctor", "1814": "unch", "1815": "\u0120brown", "1816": "\u0120moved", "1817": "ises", "1818": "\u0120asks", "1819": "\u0120getting", "1820": "\u0120closed", "1821": "\u0120whe", "1822": "\u0120welcome", "1823": "\u0120su", "1824": "\u0120candy", "1825": "\u0120school", "1826": "\u0120morning", "1827": "\u0120owner", "1828": "gg", "1829": "\u0120lon", "1830": "\u0120mother", "1831": "\u0120higher", "1832": "\u0120sitting", "1833": "\u0120treasure", "1834": ".\u00e2\u0122\u013f", "1835": "\u0120smo", "1836": "!\u00e2\u0122\u013f", "1837": "\u0120dangerous", "1838": "\u0120lonely", "1839": "\u0120Ch", "1840": "\u0120living", "1841": "\u0120apples", "1842": "ush", "1843": "\u0120shop", "1844": "ased", "1845": "\u0120strange", "1846": "vel", "1847": "\u0120shining", "1848": "\u0120road", "1849": "ere", "1850": "\u0120Tommy", "1851": "\u0120creat", "1852": "una", "1853": "\u0120paw", "1854": "ey", "1855": "\u0120ra", "1856": "\u0120shoes", "1857": "\u0120pre", "1858": "ible", "1859": "\u0120-", "1860": "\u0120stre", "1861": "\u0120talking", "1862": "althy", "1863": "\u0120caught", "1864": "\u0120egg", "1865": "ol", "1866": "\u0120pass", "1867": "me", "1868": "\u0120lake", "1869": "\u0120runs", "1870": "\u0120buck", "1871": "\u0120letter", "1872": "\u0120wings", "1873": "\u0120chee", "1874": "fish", "1875": "\u0120mad", "1876": "\u0120fan", "1877": "asket", "1878": "\u0120basket", "1879": "ass", "1880": "\u0120dragon", "1881": "app", "1882": "Mommy", "1883": "set", "1884": "cks", "1885": "\u0120stone", "1886": "\u0120thinks", "1887": "\u0120stand", "1888": "\u0120delicious", "1889": "\u0120nose", "1890": "\u0120puddle", "1891": "\u0120tom", "1892": "\u0120Bl", "1893": "\u0120Mimi", "1894": "\u0120belie", "1895": "\u0120farmer", "1896": "\u0120same", "1897": "\u0120years", "1898": "board", "1899": "\u0120teddy", "1900": "\u0120bat", "1901": "isk", "1902": "itch", "1903": "\u0120mine", "1904": "\u0120sear", "1905": "\u0120coat", "1906": "ches", "1907": "igh", "1908": "\u0120days", "1909": "\u0120bring", "1910": "\u0120gentle", "1911": "\u0120fit", "1912": "\u0120start", "1913": "\u0120finally", "1914": "\u0120whist", "1915": "\u0120cray", "1916": "igg", "1917": "\u0120scream", "1918": "\u0120kite", "1919": "\u0120pill", "1920": "phant", "1921": "arm", "1922": "\u0120vill", "1923": "\u0120cho", "1924": "\u0120singing", "1925": "ella", "1926": "sw", "1927": "ined", "1928": "\u0120tasty", "1929": "\u0120ph", "1930": "\u0120ben", "1931": "\u0120trou", "1932": "\u0120shell", "1933": "\u0120herself", "1934": "\u0120hoped", "1935": "\u0120answ", "1936": "\u0120wore", "1937": "\u0120swings", "1938": "sy", "1939": "\u0120hor", "1940": "\u0120belong", "1941": "Please", "1942": "\u0120push", "1943": "\u0120bush", "1944": "iskers", "1945": "\u0120carrot", "1946": "\u0120arri", "1947": "aughty", "1948": "\u0120teach", "1949": "bow", "1950": "ract", "1951": "\u0120naughty", "1952": "\u0120elephant", "1953": "\u0120dropped", "1954": "\u0120shap", "1955": "ier", "1956": "\u0120coll", "1957": "sc", "1958": "\u0120teac", "1959": "emy", "1960": "\u0120woke", "1961": "ball", "1962": "\u0120pile", "1963": "\u0120hiding", "1964": "\u0120cour", "1965": "isa", "1966": "erry", "1967": "\u0120touc", "1968": "\u0120min", "1969": "\u0120puppy", "1970": "'ll", "1971": "\u0120seem", "1972": "llie", "1973": "\u0120twins", "1974": "ama", "1975": "\u0120lunch", "1976": "\u0120bow", "1977": "\u0120sack", "1978": "\u0120pers", "1979": "\u0120course", "1980": "\u0120cheered", "1981": "\u0120shapes", "1982": "\u0120Jen", "1983": "\u0120grew", "1984": "fused", "1985": "\u0120rope", "1986": "\u0120village", "1987": "irth", "1988": "irthday", "1989": "\u0120juice", "1990": "ipped", "1991": "\u0120rainbow", "1992": "\u0120spin", "1993": "OK", "1994": "\u0120shook", "1995": "Jack", "1996": "\u0120spoon", "1997": "\u0120bench", "1998": "\u0120street", "1999": "\u0120fence", "2000": "\u0120cute", "2001": "\u0120Fred", "2002": "\u0120rob", "2003": "\u0120nut", "2004": "\u0120cheese", "2005": "\u0120prob", "2006": "\u0120touched", "2007": "idge", "2008": "col", "2009": "\u0120joy", "2010": "\u0120Whiskers", "2011": "\u0120arrived", "2012": "\u0120seed", "2013": "\u0120war", "2014": "\u0120teacher", "2015": "\u0120corn", "2016": "Good", "2017": "\u0120forever", "2018": "\u0120able", "2019": "\u0120bell", "2020": "\u0120few", "2021": "\u0120carry", "2022": "\u0120most", "2023": "\u0120plane", "2024": "\u0120Blue", "2025": "lem", "2026": "\u0120eas", "2027": "\u0120sounds", "2028": "lla", "2029": "\u0120des", "2030": "\u0120spo", "2031": "\u0120problem", "2032": "\u0120birthday", "2033": "\u0120power", "2034": "\u0120inc", "2035": "umb", "2036": "br", "2037": "\u010a\u0120", "2038": "\u0120bugs", "2039": "ilk", "2040": "\u0120wonderful", "2041": "\u0120dolls", "2042": "\u0120busy", "2043": "ato", "2044": "irp", "2045": "eb", "2046": "\u0120wra", "2047": "\u0120promise", "2048": "\u0120Thank", "2049": "\u0120feels", "2050": "ian", "2051": "\u0120Emma", "2052": "eter", "2053": "\u0120bread", "2054": "\u0120neck", "2055": "Finally", "2056": "\u0120milk", "2057": "\u0120robot", "2058": "\u0120rec", "2059": "\u0120shy", "2060": "ountain", "2061": "\u0120kiss", "2062": "irt", "2063": "\u0120heart", "2064": "\u0120band", "2065": "\u0120cave", "2066": "\u0120pocket", "2067": "ub", "2068": "\u0120helpful", "2069": "gly", "2070": "\u0120slowly", "2071": "\u0120believe", "2072": "\u0120shake", "2073": "umpy", "2074": "eared", "2075": "\u0120patient", "2076": "\u0120pop", "2077": "\u0120ob", "2078": "arp", "2079": "\u0120live", "2080": "\u0120storm", "2081": "\u0120holding", "2082": "\u0120ugly", "2083": "\u0120towards", "2084": "\u0120upset", "2085": "\u0120turt", "2086": "\u0120shr", "2087": "adow", "2088": "\u0120cover", "2089": "\u0120kitten", "2090": "ost", "2091": "\u0120Remy", "2092": "\u0120sharp", "2093": "\u0120disapp", "2094": "\u0120stories", "2095": "\u0120suc", "2096": "\u0120honey", "2097": "ove", "2098": "\u0120Bella", "2099": "read", "2100": "\u0120noises", "2101": "\u0120Le", "2102": "\u0120cir", "2103": "\u0120balls", "2104": "\u0120spark", "2105": "\u0120gray", "2106": "\u0120dist", "2107": "\u0120dirt", "2108": "oggy", "2109": "\u0120late", "2110": "\u0120driver", "2111": "\u0120seat", "2112": "\u0120bucket", "2113": "\u0120meet", "2114": "\u0120young", "2115": "\u0120amazed", "2116": "\u0120turtle", "2117": "alm", "2118": "\u0120spid", "2119": "\u0120treats", "2120": "\u0120magical", "2121": "unt", "2122": "ator", "2123": "\u0120glow", "2124": "\u0120seek", "2125": "\u0120zoom", "2126": "\u0120lem", "2127": "\u0120sandw", "2128": "fortable", "2129": "umber", "2130": "\u0120trip", "2131": "\u0120mist", "2132": "ourn", "2133": "\u0120splas", "2134": "\u0120mark", "2135": "\u0120journ", "2136": "\u0120fold", "2137": "\u0120mach", "2138": "\u0120puzz", "2139": "\u0120part", "2140": "ling", "2141": "\u0120horse", "2142": "\u0120organ", "2143": "\u0120wild", "2144": "\u0120princess", "2145": "pping", "2146": "oose", "2147": "\u0120cookie", "2148": "Sure", "2149": "ens", "2150": "\u0120hugs", "2151": "\u0120Mark", "2152": "\u0120taking", "2153": "ung", "2154": "\u0120wheel", "2155": "epend", "2156": "\u0120cloth", "2157": "\u0120Lisa", "2158": "\u0120sug", "2159": "\u0120instead", "2160": "\u0120bubb", "2161": "\u0120string", "2162": "\u0120net", "2163": "\u0120drove", "2164": "iling", "2165": "\u0120rude", "2166": "\u0120huge", "2167": "\u0120Jim", "2168": "\u0120coin", "2169": "\u0120stars", "2170": "\u0120fighting", "2171": "Be", "2172": "\u0120spicy", "2173": "\u0120lucky", "2174": "Of", "2175": "\u0120craw", "2176": "Hey", "2177": "\u0120bone", "2178": "\u0120inv", "2179": "\u0120Grandma", "2180": "ors", "2181": "not", "2182": "\u0120ca", "2183": "pper", "2184": "\u0120forget", "2185": "up", "2186": "\u0120di", "2187": "aur", "2188": "\u0120sal", "2189": "\u0120Finally", "2190": "\u0120cannot", "2191": "\u0120whistle", "2192": "\u0120card", "2193": "\u0120sick", "2194": "\u0120path", "2195": "\u0120cou", "2196": "\u0120spider", "2197": "\u0120wide", "2198": "Lila", "2199": "\u0120foot", "2200": "\u0120snowman", "2201": "\u0120songs", "2202": "\u0120life", "2203": "\u0120pillow", "2204": "ize", "2205": "ular", "2206": "\u0120Just", "2207": "Later", "2208": "est", "2209": "\u0120Ann", "2210": "ert", "2211": "\u0120fixed", "2212": "\u0120giant", "2213": "oph", "2214": "rill", "2215": "\u0120nod", "2216": "\u0120boss", "2217": "\u0120last", "2218": "\u0120comes", "2219": "\u0120joke", "2220": "\u0120moon", "2221": "\u0120taste", "2222": "den", "2223": "\u0120machine", "2224": "\u0120grumpy", "2225": "\u0120wave", "2226": "\u0120thin", "2227": "\u0120drive", "2228": "\u0120cart", "2229": "\u0120ash", "2230": "\u0120ser", "2231": "\u0120grab", "2232": "\u0120peace", "2233": "lower", "2234": "\u0120daddy", "2235": "\u0120On", "2236": "\u0120Leo", "2237": "ery", "2238": "\u0120sel", "2239": "\u0120shelf", "2240": "\u0120hidden", "2241": "erest", "2242": "\u0120suddenly", "2243": "\u0120wasn", "2244": "\u0120write", "2245": "\u0120landed", "2246": "\u0120confused", "2247": "\u0120ring", "2248": "\u0120change", "2249": "\u0120worm", "2250": "oop", "2251": "\u0120interest", "2252": "\u0120chased", "2253": "\u0120fruits", "2254": "\u0120sour", "2255": "ity", "2256": "\u0120myster", "2257": "\u0120bark", "2258": "\u0120rad", "2259": "\u0120smooth", "2260": "\u0120Come", "2261": "\u0120adventures", "2262": "\u0120val", "2263": "\u0120stepped", "2264": "\u0120fle", "2265": "ope", "2266": "\u0120oven", "2267": "\u0120takes", "2268": "\u0120missed", "2269": "\u0120selfish", "2270": "kin", "2271": "\u0120sheep", "2272": "\u0120messy", "2273": "\u0120across", "2274": "To", "2275": "\u0120ent", "2276": "\u0120exp", "2277": "to", "2278": "\u0120ce", "2279": "\u0120later", "2280": "elly", "2281": "\u0120N", "2282": "ife", "2283": "\u0120sticks", "2284": "\u0120tie", "2285": "St", "2286": "ever", "2287": "\u0120Luna", "2288": "\u0120step", "2289": "\u0120bought", "2290": "\u0120drew", "2291": "\u0120tea", "2292": "pect", "2293": "\u0120ban", "2294": "irpy", "2295": "box", "2296": "?\u00e2\u0122\u013f", "2297": "\u0120wash", "2298": "\u0120lay", "2299": "\u0120pour", "2300": "\u0120beak", "2301": "ose", "2302": "\u0120jog", "2303": "\u0120grate", "2304": "\u0120ducks", "2305": "\u0120spe", "2306": "\u0120legs", "2307": "ugg", "2308": "\u0120fil", "2309": "\u0120Bu", "2310": "\u0120emp", "2311": "mer", "2312": "\u0120hope", "2313": "\u0120empty", "2314": "\u0120slid", "2315": "\u0120feather", "2316": "\u0120sleepy", "2317": "\u0120drum", "2318": "amed", "2319": "ars", "2320": "eth", "2321": "\u0120zoo", "2322": "\u0120pan", "2323": "\u0120phone", "2324": "\u0120grateful", "2325": "\u0120fing", "2326": "ions", "2327": "\u0120lemon", "2328": "let", "2329": "\u0120Cat", "2330": "\u0120clever", "2331": "\u0120Molly", "2332": "\u0120smelly", "2333": "\u0120imag", "2334": "\u0120splash", "2335": "\u0120interesting", "2336": "\u0120Jill", "2337": "\u0120save", "2338": "\u0120chick", "2339": "\u0120calm", "2340": "\u0120med", "2341": "\u0120watching", "2342": "Soon", "2343": "izzy", "2344": "izz", "2345": "\u0120plate", "2346": "\u0120ign", "2347": "yard", "2348": "\u0120clouds", "2349": "\u0120banan", "2350": "\u0120line", "2351": "\u0120faces", "2352": "\u0120ba", "2353": "\u0120act", "2354": "\u0120though", "2355": "\u0120wolf", "2356": "\u0120backyard", "2357": "wel", "2358": "\u0120seemed", "2359": "\u0120dogs", "2360": "\u0120spray", "2361": "Come", "2362": "\u0120prot", "2363": "\u0120whole", "2364": "\u0120mot", "2365": "\u0120fancy", "2366": "\u0120Daddy", "2367": "\u0120quest", "2368": "\u0120arms", "2369": "\u0120puzzle", "2370": "\u0120healthy", "2371": "\u0120supp", "2372": "ward", "2373": "\u0120finish", "2374": "erly", "2375": "\u0120along", "2376": "llo", "2377": "\u0120rocket", "2378": "\u0120explain", "2379": "dge", "2380": "\u0120easy", "2381": "\u0120jewel", "2382": "ont", "2383": "\u0120pract", "2384": "\u0120jelly", "2385": "\u0120Chirpy", "2386": "\u0120tid", "2387": "\u0120fake", "2388": "\u0120crayons", "2389": "\u0120wondered", "2390": "\u0120maybe", "2391": "\u0120scar", "2392": "\u0120ship", "2393": "\u0120nothing", "2394": "onest", "2395": "\u0120emb", "2396": "iger", "2397": "\u0120pool", "2398": "\u0120longer", "2399": "\u0120anyone", "2400": "\u0120Be", "2401": "\u0120Jerry", "2402": "ually", "2403": "\u0120front", "2404": "\u0120working", "2405": "\u0120gives", "2406": "irr", "2407": "\u0120pack", "2408": "\u0120such", "2409": "\u0120Bunny", "2410": "ocked", "2411": "ment", "2412": "\u0120bossy", "2413": "\u0120Doggy", "2414": "\u0120trouble", "2415": "\u0120smelled", "2416": "\u0120saved", "2417": "\u0120pin", "2418": "rass", "2419": "\u0120neigh", "2420": "arrass", "2421": "iting", "2422": "\u0120honest", "2423": "\u0120av", "2424": "arge", "2425": "\u0120embarrass", "2426": "\u0120lift", "2427": "\u0120van", "2428": "\u0120forgive", "2429": "\u0120tidy", "2430": "\u0120weak", "2431": "urse", "2432": "\u0120puts", "2433": "unk", "2434": "\u0120kick", "2435": "\u0120shirt", "2436": "\u0120With", "2437": "\u0120mind", "2438": "\u0120Ollie", "2439": "\u0120neighb", "2440": "\u0120plants", "2441": "\u0120sol", "2442": "\u0120Momo", "2443": "\u0120gently", "2444": "\u0120cozy", "2445": "orrow", "2446": "ming", "2447": "\u0120explor", "2448": "sp", "2449": "\u0120mistake", "2450": "\u0120yog", "2451": "oc", "2452": "oomy", "2453": "\u0120pointed", "2454": "\u0120lad", "2455": "\u0120af", "2456": "\u0120stood", "2457": "ork", "2458": "\u0120onto", "2459": "\u0120waiting", "2460": "\u0120jumping", "2461": "\u0120prince", "2462": "\u0120cross", "2463": "\u0120lock", "2464": "\u0120cheer", "2465": "\u0120queen", "2466": "\u0120Why", "2467": "\u0120Mary", "2468": "\u0120wing", "2469": "ones", "2470": "we", "2471": "\u0120large", "2472": "\u0120lovely", "2473": "ult", "2474": "\u0120sur", "2475": "\u0120ret", "2476": "And", "2477": "\u0120deer", "2478": "\u0120chew", "2479": "\u0120couch", "2480": "\u0120bal", "2481": "aughter", "2482": "\u0120stret", "2483": "era", "2484": "\u0120Their", "2485": "\u0120places", "2486": "\u0120My", "2487": "\u0120ladder", "2488": "\u0120return", "2489": "raid", "2490": "\u0120ants", "2491": "\u0120dish", "2492": "\u0120afraid", "2493": "\u0120cleaned", "2494": "\u0120tomorrow", "2495": "\u0120building", "2496": "\u0120sandwich", "2497": "\u0120person", "2498": "Sally", "2499": "ek", "2500": "ned", "2501": "\u0120pretended", "2502": "\u0120bounce", "2503": "\u0120wip", "2504": "gest", "2505": "\u0120match", "2506": "\u0120rich", "2507": "uce", "2508": "\u0120pizz", "2509": "\u0120gather", "2510": "\u0120search", "2511": "\u0120boring", "2512": "oman", "2513": "\u0120Somet", "2514": "\u0120teeth", "2515": "\u0120hum", "2516": "Kitty", "2517": "My", "2518": "aced", "2519": "\u0120daughter", "2520": "\u0120woman", "2521": "\u0120scarf", "2522": "\u0120goes", "2523": "\u0120Together", "2524": "\u0120law", "2525": "\u0120stra", "2526": "\u0120swimming", "2527": "\u0120furry", "2528": "\u0120splashed", "2529": "\u0120pri", "2530": "\u0120loves", "2531": "\u0120true", "2532": "\u0120screamed", "2533": "\u0120lazy", "2534": "\u0120gen", "2535": "\u0120answer", "2536": "\u0120number", "2537": "\u0120eag", "2538": "\u0120ashamed", "2539": "\u0120pizza", "2540": "aw", "2541": "\u0120appeared", "2542": "\u0120fear", "2543": "\u0120nearby", "2544": "\u0120powerful", "2545": "\u0120flag", "2546": "\u0120St", "2547": "\u0120hang", "2548": "vous", "2549": "\u0120clown", "2550": "\u0120chase", "2551": "\u0120motor", "2552": "\u0120wand", "2553": "\u0120TV", "2554": "\u0120rub", "2555": "\u0120success", "2556": "\u0120chocol", "2557": "\u0120If", "2558": "\u0120creative", "2559": "\u0120trust", "2560": "\u0120wearing", "2561": "\u0120noisy", "2562": "\u0120matter", "2563": "pa", "2564": "\u0120dig", "2565": "\u0120hello", "2566": "\u0120ner", "2567": "\u0120tool", "2568": "\u0120saf", "2569": "\u0120Bird", "2570": "ado", "2571": "\u0120nervous", "2572": "elp", "2573": "\u0120test", "2574": "\u0120smiling", "2575": "\u0120sold", "2576": "icked", "2577": "oppy", "2578": "osaur", "2579": "\u0120circle", "2580": "mb", "2581": "\u0120map", "2582": "\u0120drank", "2583": "\u0120class", "2584": "\u0120tries", "2585": "\u0120chocolate", "2586": "\u0120Please", "2587": "\u0120impress", "2588": "\u0120knee", "2589": "\u0120gener", "2590": "\u0120dinosaur", "2591": "\u0120polite", "2592": "\u0120mirr", "2593": "\u0120Bobby", "2594": "\u0120Tiny", "2595": "\u0120balloons", "2596": "\u0120gold", "2597": "\u0120rare", "2598": "\u0120protect", "2599": "\u0120cand", "2600": "Stop", "2601": "\u0120Go", "2602": "\u0120carried", "2603": "ensive", "2604": "\u0120ap", "2605": "\u0120shadow", "2606": "\u0120mirror", "2607": "\u0120Don", "2608": "\u0120bald", "2609": "\u0120gun", "2610": "ina", "2611": "\u0120expensive", "2612": "\u0120reg", "2613": "iff", "2614": "\u0120mysterious", "2615": "\u0120Sp", "2616": "\u0120pump", "2617": "\u0120note", "2618": "\u0120hero", "2619": "\u0120march", "2620": "\u0120har", "2621": "arl", "2622": "\u0120icy", "2623": "\u0120respect", "2624": "\u0120weird", "2625": "\u0120snee", "2626": "\u0120cri", "2627": "\u0120gate", "2628": "\u0120soap", "2629": "rag", "2630": "ute", "2631": "issors", "2632": "\u0120these", "2633": "\u0120poor", "2634": "\u0120towel", "2635": "\u0120whale", "2636": "\u0120feet", "2637": "\u0120tape", "2638": "\u0120dizzy", "2639": "itter", "2640": "\u0120generous", "2641": "ndpa", "2642": "\u0120pres", "2643": "\u0120Benny", "2644": "nic", "2645": "\u0120disco", "2646": "Help", "2647": "ventually", "2648": "\u0120picnic", "2649": "\u0120mic", "2650": "\u0120lead", "2651": "\u0120sque", "2652": "\u0120embarrassed", "2653": "\u0120journey", "2654": "\u0120sugar", "2655": "isp", "2656": "scape", "2657": "\u0120boot", "2658": "\u0120tent", "2659": "\u0120peaceful", "2660": "\u0120fat", "2661": "\u0120Bear", "2662": "\u0120scissors", "2663": "\u0120tasted", "2664": "\u0120yelled", "2665": "Tommy", "2666": "\u0120tick", "2667": "\u0120mel", "2668": "\u0120brush", "2669": "\u0120dancing", "2670": "ness", "2671": "\u0120glue", "2672": "\u0120hur", "2673": "\u0120rough", "2674": "\u0120clap", "2675": "\u0120bridge", "2676": "ote", "2677": "\u0120decor", "2678": "\u0120closet", "2679": "\u0120crown", "2680": "\u0120stir", "2681": "ual", "2682": "imp", "2683": "\u0120print", "2684": "\u0120Sometimes", "2685": "owed", "2686": "airs", "2687": "\u0120How", "2688": "ume", "2689": "\u0120cap", "2690": "\u0120lamp", "2691": "\u0120vase", "2692": "\u0120scare", "2693": "lebr", "2694": "\u0120relie", "2695": "lves", "2696": "any", "2697": "\u0120eld", "2698": "\u0120tele", "2699": "\u0120celebr", "2700": "\u0120gigg", "2701": "\u0120whisp", "2702": "\u0120log", "2703": "\u0120blow", "2704": "\u0120painted", "2705": "\u0120sco", "2706": "\u0120Ducky", "2707": "\u0120pay", "2708": "erries", "2709": "\u0120wis", "2710": "\u0120berries", "2711": "\u0120mixed", "2712": "\u0120spread", "2713": "\u0120wouldn", "2714": "\u0120cage", "2715": "\u0120bake", "2716": "rob", "2717": "getable", "2718": "\u0120mountain", "2719": "\u0120adm", "2720": "\u0120drawing", "2721": "\u0120become", "2722": "\u0120famous", "2723": "\u0120knocked", "2724": "\u0120bean", "2725": "\u0120norm", "2726": "\u0120vegetable", "2727": "asp", "2728": "\u0120kicked", "2729": "ustr", "2730": "\u0120shark", "2731": "ser", "2732": "\u0120incred", "2733": "\u0120lose", "2734": "\u0120normal", "2735": "\u0120wrap", "2736": "ced", "2737": "\u0120group", "2738": "\u0120thick", "2739": "\u01203", "2740": "\u0120fine", "2741": "\u0120glass", "2742": "\u0120ignor", "2743": "\u0120clock", "2744": "\u0120team", "2745": "\u0120elderly", "2746": "\u0120clear", "2747": "\u0120corner", "2748": "\u0120frustr", "2749": "\u0120mighty", "2750": "robe", "2751": "\u0120cone", "2752": "\u0120incredible", "2753": "\u0120Br", "2754": "ighed", "2755": "Dad", "2756": "\u0120moms", "2757": "\u0120balance", "2758": "\u0120sock", "2759": "\u0120space", "2760": "\u0120jam", "2761": "ragile", "2762": "\u0120fright", "2763": "\u0120organized", "2764": "\u0120branches", "2765": "\u0120roar", "2766": "port", "2767": "\u0120sword", "2768": "alous", "2769": "\u0120Mama", "2770": "\u0120guess", "2771": "\u0120fool", "2772": "\u0120sell", "2773": "\u0120feed", "2774": "\u0120Some", "2775": "\u0120which", "2776": "\u0120horn", "2777": "\u0120present", "2778": "\u0120jealous", "2779": "\u0120yarn", "2780": "ony", "2781": "\u0120fragile", "2782": "\u0120burn", "2783": "\u0120understood", "2784": "\u0120mis", "2785": "\u0120stubb", "2786": "\u0120ter", "2787": "\u0120frustrated", "2788": "Where", "2789": "ray", "2790": "\u0120hose", "2791": "cient", "2792": "\u0120spent", "2793": "\u0120shoe", "2794": "\u0120taught", "2795": "\u0120stubborn", "2796": "\u0120twist", "2797": "\u0120creature", "2798": "\u0120chest", "2799": "\u0120spoiled", "2800": "\u0120relieved", "2801": "\u0120ancient", "2802": "ique", "2803": "\u0120wake", "2804": "\u0120fier", "2805": "\u0120pray", "2806": "\u0120fierce", "2807": "\u0120eggs", "2808": "\u0120cab", "2809": "\u0120terri", "2810": "\u0120barn", "2811": "\u0120pumpkin", "2812": "\u0120comfortable", "2813": "\u0120ord", "2814": "ym", "2815": "\u0120frightened", "2816": "orry", "2817": "\u0120toug", "2818": "\u0120unique", "2819": "\u0120measure", "2820": "\u0120goat", "2821": "\u0120wagon", "2822": "\u0120unus", "2823": "\u0120breath", "2824": "\u0120foolish", "2825": "\u0120useful", "2826": "\u0120exploring", "2827": "dle", "2828": "\u0120straw", "2829": "\u0120unusual", "2830": "\u0120dug", "2831": "\u0120clay", "2832": "\u0120discover", "2833": "\u0120tomato", "2834": "\u0120Pe", "2835": "\u0120dead", "2836": "\u0120finding", "2837": "\u0120police", "2838": "\u0120wrote", "2839": "\u0120clum", "2840": "\u0120exam", "2841": "lace", "2842": "\u0120waves", "2843": "\u0120square", "2844": "\u0120hears", "2845": "\u0120cabin", "2846": "\u0120tells", "2847": "\u0120necklace", "2848": "\u0120dull", "2849": "\u0120clumsy", "2850": "\u0120tough", "2851": "\u0120bubbles", "2852": "\u0120nosy", "2853": "kn", "2854": "\u0120searched", "2855": "Together", "2856": "\u0120washed", "2857": "\u0120bathroom", "2858": "\u0120paws", "2859": "bby", "2860": "ond", "2861": "unn", "2862": "anged", "2863": "\u0120board", "2864": "known", "2865": "fic", "2866": "\u0120asking", "2867": "\u0120crazy", "2868": "\u0120thankful", "2869": "\u0120sunf", "2870": "\u0120bitter", "2871": "yal", "2872": "\u0120pir", "2873": "berry", "2874": "alk", "2875": "\u0120ind", "2876": "\u0120diffic", "2877": "\u0120rose", "2878": "cil", "2879": "\u0120swan", "2880": "\u0120bloom", "2881": "\u0120unknown", "2882": "\u0120Ella", "2883": "\u0120covered", "2884": "\u0120difficult", "2885": "\u0120add", "2886": "\u0120pencil", "2887": "\u0120finger", "2888": "\u0120ham", "2889": "\u0120hoop", "2890": "\u0120jet", "2891": "\u0120witch", "2892": "\u0120drop", "2893": "Me", "2894": "\u0120'", "2895": "\u0120chicken", "2896": "\u0120gloomy", "2897": "apped", "2898": "\u0120loyal", "2899": "als", "2900": "Here", "2901": "\u0120wealthy", "2902": "com", "2903": "light", "2904": "\u0120unl", "2905": "\u0120cats", "2906": "\u0120ending", "2907": "\u0120guit", "2908": "bled", "2909": "shine", "2910": "\u0120dove", "2911": "\u0120joined", "2912": "\u0120cher", "2913": "anut", "2914": "\u0120mov", "2915": "\u0120terrible", "2916": "\u0120yours", "2917": "iant", "2918": "\u0120U", "2919": "\u0120Rex", "2920": "\u0120salad", "2921": "\u0120Andy", "2922": "\u0120nuts", "2923": "\u0120rat", "2924": "\u0120lif", "2925": "ground", "2926": "\u0120tiger", "2927": "\u0120potato", "2928": "\u0120mask", "2929": "xible", "2930": "selves", "2931": "\u0120value", "2932": "\u0120changed", "2933": "\u0120moving", "2934": "\u0120exciting", "2935": "ormous", "2936": "\u0120Many", "2937": "\u0120body", "2938": "\u0120Tr", "2939": "\u0120toast", "2940": "\u0120record", "2941": "erp", "2942": "\u0120zip", "2943": "\u0120disg", "2944": "\u0120cheap", "2945": "\u0120guitar", "2946": "irsty", "2947": "\u0120knowing", "2948": "\u0120adventur", "2949": "\u0120yourself", "2950": "\u0120enormous", "2951": "\u0120hairy", "2952": "Every", "2953": "\u0120shoot", "2954": "\u0120Brown", "2955": "\u0120bored", "2956": "\u0120pepper", "2957": "\u0120remind", "2958": "ory", "2959": "land", "2960": "\u0120acorn", "2961": "\u0120adventurous", "2962": "\u0120sunshine", "2963": "\u0120smaller", "2964": "\u0120stuff", "2965": "\u0120hats", "2966": "\u0120solve", "2967": "\u0120Jimmy", "2968": "\u0120flexible", "2969": "\u0120cost", "2970": "rilliant", "2971": "\u0120knife", "2972": "\u0120perform", "2973": "\u0120snacks", "2974": "\u0120nods", "2975": "\u0120shore", "2976": "\u0120brilliant", "2977": "\u0120thirsty", "2978": "\u0120delicate", "2979": "\u0120frown", "2980": "\u0120disgust", "2981": "\u0120collect", "2982": "\u0120stri", "2983": "\u0120seeds", "2984": "\u0120counted", "2985": "\u0120asleep", "2986": "\u0120banana", "2987": "reen", "2988": "\u0120mailbox", "2989": "iness", "2990": "\u0120dough", "2991": "\u0120trick", "2992": "\u0120neighbor", "2993": "ungle", "2994": "\u0120heal", "2995": "Who", "2996": "live", "2997": "\u0120stage", "2998": "ident", "2999": "\u0120market", "3000": "\u0120cube", "3001": "\u0120stat", "3002": "\u0120jungle", "3003": "\u0120squee", "3004": "mbre", "3005": "\u0120explained", "3006": "ates", "3007": "\u0120umbre", "3008": "\u0120disgusting", "3009": "Jim", "3010": "\u0120lab", "3011": "\u0120jolly", "3012": "\u0120flash", "3013": "und", "3014": "\u0120fridge", "3015": "inal", "3016": "pid", "3017": "ilt", "3018": "\u0120crane", "3019": "corn", "3020": "\u0120suit", "3021": "\u0120rh", "3022": "iddle", "3023": "\u0120sunflower", "3024": "\u0120times", "3025": "\u0120Al", "3026": "erpill", "3027": "\u0120caterpill", "3028": "\u0120relax", "3029": "\u0120shiver", "3030": "\u0120four", "3031": "\u0120island", "3032": "iginal", "3033": "\u0120harm", "3034": "ict", "3035": "\u0120While", "3036": "ying", "3037": "\u0120stupid", "3038": "\u0120medic", "3039": "\u0120Instead", "3040": "\u0120comb", "3041": "\u0120goose", "3042": "\u0120cro", "3043": "edient", "3044": "\u0120Will", "3045": "\u0120stove", "3046": "If", "3047": "Are", "3048": "\u0120independ", "3049": "Mum", "3050": "most", "3051": "\u0120spring", "3052": "\u0120gem", "3053": "\u0120batter", "3054": "\u0120sighed", "3055": "\u0120vegetables", "3056": "\u0120stones", "3057": "pes", "3058": "\u0120shine", "3059": "How", "3060": "\u0120medicine", "3061": "\u0120depend", "3062": "\u0120rug", "3063": "\u0120Your", "3064": "\u0120careless", "3065": "\u0120original", "3066": "\u0120stamp", "3067": "\u0120gar", "3068": "\u0120cries", "3069": "Inside", "3070": "gu", "3071": "\u0120carrots", "3072": "\u0120scr", "3073": "\u0120successful", "3074": "\u0120sauce", "3075": "\u0120jeep", "3076": "\u0120popcorn", "3077": "\u0120meal", "3078": "\u0120obedient", "3079": "\u0120almost", "3080": "\u0120middle", "3081": "\u0120magn", "3082": "\u0120study", "3083": "\u0120independent", "3084": "\u0120fearful", "3085": "\u0120jack", "3086": "met", "3087": "inky", "3088": "Sorry", "3089": "\u0120Sammy", "3090": "\u0120escape", "3091": "\u0120caterpillar", "3092": "\u0120serious", "3093": "\u0120peanut", "3094": "\u0120bedroom", "3095": "\u0120eager", "3096": "aken", "3097": "\u0120gets", "3098": "\u0120parrot", "3099": "\u0120statue", "3100": "\u0120helmet", "3101": "\u0120pebb", "3102": "\u0120No", "3103": "\u0120fountain", "3104": "\u0120raven", "3105": "\u0120ang", "3106": "\u0120pasta", "3107": "\u0120umbrella", "3108": "\u0120compet", "3109": "There", "3110": "\u0120jacket", "3111": "\u0120belonged", "3112": "\u0120dest", "3113": "\u0120filthy", "3114": "\u0120design", "3115": "\u0120borrow", "3116": "\u0120cam", "3117": "erable", "3118": "\u0120houses", "3119": "\u0120prize", "3120": "\u0120hay", "3121": "\u0120brace", "3122": "\u0120standing", "3123": "\u0120miserable", "3124": "\u0120raced", "3125": "\u0120taken", "3126": "ages", "3127": "\u0120fork", "3128": "\u0120crayon", "3129": "\u0120painting", "3130": "io", "3131": "\u0120triang", "3132": "\u0120impressive", "3133": "\u0120choose", "3134": "\u0120fig", "3135": "\u0120tied", "3136": "iable", "3137": "\u0120spotted", "3138": "\u0120lifted", "3139": "\u0120slipped", "3140": "ours", "3141": "\u0120tank", "3142": "\u0120thoughtful", "3143": "\u0120dependable", "3144": "\u0120steal", "3145": "\u0120garage", "3146": "enny", "3147": "\u0120built", "3148": "\u0120mush", "3149": "\u0120er", "3150": "ipe", "3151": "\u0120mole", "3152": "\u0120crawled", "3153": "\u0120scale", "3154": "\u0120boats", "3155": "\u0120pian", "3156": "\u0120pant", "3157": "\u0120hammer", "3158": "\u0120bottom", "3159": "lph", "3160": "\u0120cheerful", "3161": "\u0120using", "3162": "\u0120smoke", "3163": "\u0120picks", "3164": "\u0120moder", "3165": "berries", "3166": "\u0120shows", "3167": "rn", "3168": "\u0120piano", "3169": "\u0120magnet", "3170": "dile", "3171": "codile", "3172": "\u0120hurts", "3173": "inary", "3174": "\u0120ref", "3175": "\u0120crack", "3176": "\u0120eng", "3177": "\u0120aunt", "3178": "\u0120melon", "3179": "\u0120waff", "3180": "\u0120modern", "3181": "\u0120dolph", "3182": "unnel", "3183": "cream", "3184": "pack", "3185": "\u0120tunnel", "3186": "oin", "3187": "\u0120arrow", "3188": "\u0120reliable", "3189": "\u0120hopping", "3190": "\u0120mushroom", "3191": "\u0120jug", "3192": "Timmy", "3193": "\u0120squash", "3194": "\u0120gum", "3195": "\u0120sink", "3196": "\u0120movie", "3197": "\u0120tax", "3198": "\u0120flute", "3199": "\u0120beet", "3200": "\u0120lean", "3201": "Their", "3202": "iv", "3203": "\u0120popular", "3204": "opter", "3205": "icopter", "3206": "\u0120cryst", "3207": "\u0120ones", "3208": "\u0120sil", "3209": "\u0120competit", "3210": "\u0120helicopter", "3211": "aser", "3212": "\u0120needs", "3213": "ipop", "3214": "llipop", "3215": "\u0120crocodile", "3216": "\u0120liz", "3217": "Molly", "3218": "\u0120press", "3219": "\u0120troubled", "3220": "\u0120pige", "3221": "\u0120locked", "3222": "\u0120tricks", "3223": "\u0120lollipop", "3224": "\u0120playful", "3225": "\u0120humble", "3226": "\u0120taxi", "3227": "\u0120kissed", "3228": "\u0120low", "3229": "appy", "3230": "comfortable", "3231": "amond", "3232": "\u0120uncomfortable", "3233": "\u0120rid", "3234": "host", "3235": "\u0120wander", "3236": "atch", "3237": "\u0120angel", "3238": "edy", "3239": "cles", "3240": "\u0120torn", "3241": "\u0120grace", "3242": "\u0120anx", "3243": "\u0120wrapped", "3244": "\u0120muff", "3245": "\u0120twig", "3246": "\u0120pants", "3247": "\u0120disappoin", "3248": "\u0120Sn", "3249": "\u0120helps", "3250": "\u0120diamond", "3251": "\u0120camera", "3252": "atter", "3253": "oto", "3254": "\u0120anxious", "3255": "\u0120ghost", "3256": "\u0120tears", "3257": "\u0120ruined", "3258": "cident", "3259": "\u0120Jenny", "3260": "ilty", "3261": "\u0120quar", "3262": "aff", "3263": "\u0120Even", "3264": "\u0120fis", "3265": "opl", "3266": "\u0120belt", "3267": "eropl", "3268": "\u0120env", "3269": "\u0120guilty", "3270": "\u0120bull", "3271": "\u0120aeropl", "3272": "\u0120helpless", "3273": "\u0120happiness", "3274": "\u0120lizard", "3275": "\u0120boys", "3276": "cut", "3277": "\u0120cere", "3278": "\u0120walks", "3279": "cean", "3280": "\u0120passed", "3281": "\u0120meant", "3282": "\u0120ocean", "3283": "\u0120fluffy", "3284": "\u0120wire", "3285": "\u0120nail", "3286": "\u0120bracelet", "3287": "\u0120deaf", "3288": "zed", "3289": "\u0120stretch", "3290": "\u0120candle", "3291": "\u0120cact", "3292": "tt", "3293": "\u0120beetle", "3294": "\u0120mop", "3295": "\u0120harmless", "3296": "umpet", "3297": "\u0120ordinary", "3298": "\u0120answered", "3299": "\u0120collar", "3300": "\u0120cop", "3301": "\u0120bees", "3302": "\u0120tire", "3303": "\u0120shape", "3304": "\u0120quarrel", "3305": "\u0120radio", "3306": "\u0120flashlight", "3307": "\u0120crystal", "3308": "\u0120harder", "3309": "\u0120poured", "3310": "\u0120trumpet", "3311": "\u0120engine", "3312": "Mama", "3313": "\u0120persist", "3314": "\u0120hunt", "3315": "\u0120tooth", "3316": "\u0120cereal", "3317": "\u0120invited", "3318": "\u0120comput", "3319": "\u0120tag", "3320": "\u0120office", "3321": "\u0120melt", "3322": "\u0120spill", "3323": "\u0120charm", "3324": "coa", "3325": "\u0120lit", "3326": "\u0120scoot", "3327": "\u0120comet", "3328": "\u0120triangle", "3329": "ief", "3330": "\u0120mug", "3331": "\u0120rep", "3332": "ube", "3333": "\u0120yogurt", "3334": "\u0120spend", "3335": "\u0120compass", "3336": "\u0120accident", "3337": "\u0120shade", "3338": "hett", "3339": "aghett", "3340": "aghetti", "3341": "\u0120disappointed", "3342": "\u0120licked", "3343": "\u0120cactus", "3344": "\u0120pale", "3345": "\u0120cush", "3346": "\u0120figure", "3347": "\u0120regular", "3348": "\u0120giving", "3349": "\u0120avoc", "3350": "\u0120sheet", "3351": "\u0120whispered", "3352": "aze", "3353": "uth", "3354": "ellig", "3355": "\u0120create", "3356": "\u0120barber", "3357": "\u0120intellig", "3358": "\u0120pipe", "3359": "\u0120rode", "3360": "\u0120roof", "3361": "Jane", "3362": "\u0120thread", "3363": "ither", "3364": "\u0120vi", "3365": "\u0120load", "3366": "\u0120libr", "3367": "\u0120gifted", "3368": "ccol", "3369": "\u0120practiced", "3370": "\u0120delight", "3371": "ccoli", "3372": "\u0120harsh", "3373": "asses", "3374": "\u0120pow", "3375": "\u0120dust", "3376": "\u0120True", "3377": "\u0120bicy", "3378": "azz", "3379": "\u0120spaghetti", "3380": "\u0120compassion", "3381": "\u0120sailed", "3382": "urkey", "3383": "ubby", "3384": "\u0120forward", "3385": "\u0120persistent", "3386": "\u0120speed", "3387": "\u0120mitten", "3388": "\u0120pro", "3389": "\u0120cocoa", "3390": "\u0120envel", "3391": "\u0120questions", "3392": "\u0120computer", "3393": "\u0120coo", "3394": "\u0120feathers", "3395": "hip", "3396": "\u0120glove", "3397": "ging", "3398": "Bobo", "3399": "\u0120rice", "3400": "\u0120shrimp", "3401": "\u0120desk", "3402": "\u0120stream", "3403": "\u0120inse", "3404": "\u0120pigeon", "3405": "\u0120charming", "3406": "\u0120ears", "3407": "\u0120carp", "3408": "lcan", "3409": "\u0120envious", "3410": "\u0120knot", "3411": "\u0120turkey", "3412": "\u0120stronger", "3413": "omes", "3414": "\u0120coins", "3415": "\u0120tap", "3416": "\u0120raft", "3417": "lcano", "3418": "weet", "3419": "\u0120trap", "3420": "umbers", "3421": "\u0120aeroplane", "3422": "\u0120trunk", "3423": "\u0120wheat", "3424": "\u0120boxes", "3425": "\u0120chubby", "3426": "\u0120carpet", "3427": "\u0120restless", "3428": "\u0120intelligent", "3429": "\u0120tube", "3430": "\u0120spun", "3431": "\u0120dreams", "3432": "\u0120half", "3433": "\u0120friendship", "3434": "ulif", "3435": "olin", "3436": "\u0120loop", "3437": "\u0120crawl", "3438": "\u0120broccoli", "3439": "\u0120onion", "3440": "\u0120week", "3441": "\u0120deliver", "3442": "anger", "3443": "\u0120acce", "3444": "\u0120vide", "3445": "\u0120volcano", "3446": "\u0120Jake", "3447": "\u0120sle", "3448": "\u0120track", "3449": "\u0120bri", "3450": "\u0120caulif", "3451": "\u0120vine", "3452": "ye", "3453": "\u0120ticket", "3454": "\u0120thief", "3455": "essie", "3456": "cycle", "3457": "\u0120louder", "3458": "\u0120insect", "3459": "\u0120numbers", "3460": "asing", "3461": "\u0120yaw", "3462": "\u0120haircut", "3463": "ital", "3464": "\u0120sleeping", "3465": "\u0120mill", "3466": "\u0120eventually", "3467": "\u0120alert", "3468": "\u0120excite", "3469": "\u0120pebble", "3470": "\u0120hosp", "3471": "\u0120attract", "3472": "\u0120planet", "3473": "\u0120Today", "3474": "\u0120univer", "3475": "isted", "3476": "ulu", "3477": "\u0120hospital", "3478": "\u0120eraser", "3479": "\u0120returned", "3480": "\u0120destro", "3481": "\u0120graceful", "3482": "\u0120happening", "3483": "ache", "3484": "\u0120OK", "3485": "\u0120Emily", "3486": "\u0120decide", "3487": "\u0120learning", "3488": "\u0120screen", "3489": "rework", "3490": "\u0120nicely", "3491": "\u0120leop", "3492": "\u0120cauliflower", "3493": "\u0120competitive", "3494": "\u0120poem", "3495": "\u0120celebrate", "3496": "\u0120curt", "3497": "\u0120peach", "3498": "\u0120soldier", "3499": "\u0120saus", "3500": "\u0120parade", "3501": "atient", "3502": "\u0120attractive", "3503": "\u0120curtain", "3504": "\u0120dolphin", "3505": "\u0120base", "3506": "\u0120violin", "3507": "\u0120ways", "3508": "Go", "3509": "ats", "3510": "\u0120travel", "3511": "\u0120rod", "3512": "\u0120ignorant", "3513": "ulb", "3514": "\u0120wheels", "3515": "\u0120yach", "3516": "\u0120scatter", "3517": "\u0120deter", "3518": "\u0120compassionate", "3519": "\u0120barrel", "3520": "\u0120envelope", "3521": "\u0120bubble", "3522": "\u0120lying", "3523": "\u0120firework", "3524": "\u0120sort", "3525": "\u0120question", "3526": "zzy", "3527": "\u0120Pipp", "3528": "\u0120scooter", "3529": "\u0120determ", "3530": "\u0120rag", "3531": "\u0120thu", "3532": "\u0120bicycle", "3533": "elery", "3534": "\u0120needle", "3535": "\u0120Fr", "3536": "\u0120judge", "3537": "\u0120bulb", "3538": "\u0120leopard", "3539": "\u0120tem", "3540": "\u0120yacht", "3541": "\u0120pony", "3542": "\u0120cricket", "3543": "\u0120order", "3544": "\u0120homes", "3545": "\u0120ador", "3546": "tern", "3547": "\u0120truth", "3548": "\u0120hook", "3549": "dom", "3550": "\u0120rubbed", "3551": "ete", "3552": "igator", "3553": "\u0120bushes", "3554": "Sarah", "3555": "\u0120uncle", "3556": "\u0120cushion", "3557": "\u0120spell", "3558": "\u0120grown", "3559": "\u0120cooked", "3560": "\u0120adorable", "3561": "\u0120chalk", "3562": "\u0120soar", "3563": "\u0120purse", "3564": "\u0120skin", "3565": "\u0120themselves", "3566": "\u0120impatient", "3567": "\u0120celery", "3568": "\u0120tray", "3569": "\u0120shells", "3570": "\u0120pengu", "3571": "\u0120sniff", "3572": "\u0120prun", "3573": "\u0120walls", "3574": "\u0120seal", "3575": "\u0120lively", "3576": "\u0120case", "3577": "\u0120alligator", "3578": "\u0120distant", "3579": "\u0120radish", "3580": "\u0120saying", "3581": "\u0120speak", "3582": "\u0120motorcycle", "3583": "\u0120meat", "3584": "\u0120send", "3585": "illa", "3586": "\u0120spinning", "3587": "\u0120forth", "3588": "\u0120counting", "3589": "\u0120enth", "3590": "\u0120bounced", "3591": "\u0120chain", "3592": "\u0120ed", "3593": "\u0120cleaning", "3594": "ebra", "3595": "\u0120film", "3596": "\u0120slept", "3597": "\u0120pit", "3598": "\u0120surf", "3599": "\u0120marry", "3600": "usia", "3601": "\u0120wallet", "3602": "\u0120enthusia", "3603": "\u0120metal", "3604": "urb", "3605": "ebook", "3606": "\u0120bin", "3607": "\u0120notebook", "3608": "\u0120wiped", "3609": "\u0120skip", "3610": "ision", "3611": "chair", "3612": "\u0120biggest", "3613": "\u0120impro", "3614": "\u0120avocado", "3615": "\u0120behave", "3616": "\u0120destroy", "3617": "vator", "3618": "\u0120bandage", "3619": "\u0120laughs", "3620": "\u0120steak", "3621": "\u0120pattern", "3622": "\u0120Sh", "3623": "\u0120post", "3624": "\u0120elevator", "3625": "\u0120Buzz", "3626": "usie", "3627": "\u0120dive", "3628": "\u0120shut", "3629": "\u0120skipped", "3630": "\u0120unlock", "3631": "\u0120diary", "3632": "dest", "3633": "ject", "3634": "\u0120zebra", "3635": "\u0120bags", "3636": "ating", "3637": "\u0120armchair", "3638": "rage", "3639": "aged", "3640": "\u0120disturb", "3641": "\u0120oy", "3642": "\u0120pole", "3643": "\u0120showing", "3644": "\u0120gathered", "3645": "\u0120club", "3646": "\u0120nurse", "3647": "bul", "3648": "\u0120earth", "3649": "\u0120enc", "3650": "\u0120stranger", "3651": "\u0120sweater", "3652": "\u0120jellyfish", "3653": "\u0120screw", "3654": "\u0120temp", "3655": "\u0120Poppy", "3656": "\u0120compl", "3657": "\u0120mixer", "3658": "Give", "3659": "\u0120skull", "3660": "\u0120lime", "3661": "\u0120bump", "3662": "bulance", "3663": "\u0120ambulance", "3664": "nam", "3665": "\u0120father", "3666": "\u0120journal", "3667": "Gra", "3668": "\u0120loudly", "3669": "ito", "3670": "\u0120folder", "3671": "\u0120shield", "3672": "\u0120Bet", "3673": "\u0120Lulu", "3674": "\u0120library", "3675": "\u0120Peter", "3676": "\u0120buttons", "3677": "\u0120playground", "3678": "\u0120trucks", "3679": "\u0120ink", "3680": "\u0120lights", "3681": "\u0120tummy", "3682": "\u0120pointing", "3683": "\u0120city", "3684": "\u0120decorate", "3685": "\u0120station", "3686": "irit", "3687": "\u0120prep", "3688": "\u0120falls", "3689": "quito", "3690": "\u0120Polly", "3691": "Billy", "3692": "\u0120fu", "3693": "\u0120Fo", "3694": "ention", "3695": "nger", "3696": "\u0120Birdy", "3697": "lies", "3698": "\u0120herb", "3699": "nament", "3700": "\u0120ornament", "3701": "\u0120modest", "3702": "\u0120guard", "3703": "\u0120mos", "3704": "\u0120knows", "3705": "\u0120cord", "3706": "\u0120polish", "3707": "\u0120marble", "3708": "oby", "3709": "\u0120mosquito", "3710": "umbled", "3711": "\u0120salt", "3712": "\u0120attic", "3713": "\u0120whenever", "3714": "\u0120vest", "3715": "ctop", "3716": "\u0120resc", "3717": "\u0120yet", "3718": "\u0120ple", "3719": "\u0120disappeared", "3720": "ceed", "3721": "\u0120strawberry", "3722": "\u0120once", "3723": "\u0120Mum", "3724": "\u0120kay", "3725": "\u0120brothers", "3726": "\u0120itch", "3727": "\u0120pirate", "3728": "\u0120football", "3729": "\u0120split", "3730": "kele", "3731": "keleton", "3732": "\u0120hipp", "3733": "\u0120aut", "3734": "\u0120led", "3735": "uring", "3736": "ctopus", "3737": "\u0120driving", "3738": "\u0120cable", "3739": "\u0120support", "3740": "\u0120calling", "3741": "\u0120cupboard", "3742": "aky", "3743": "ushed", "3744": "\u0120wishes", "3745": "\u0120complet", "3746": "\u0120tripped", "3747": "\u0120root", "3748": "\u0120kayak", "3749": "\u0120octopus", "3750": "obile", "3751": "\u0120added", "3752": "\u0120edge", "3753": "\u0120mild", "3754": "stic", "3755": "\u0120determined", "3756": "\u0120succeed", "3757": "?\".", "3758": "\u0120reading", "3759": "omobile", "3760": "\u0120coal", "3761": "Well", "3762": "gl", "3763": "utes", "3764": "par", "3765": "\u0120suggest", "3766": "\u0120stack", "3767": "\u0120thunder", "3768": "\u0120kindness", "3769": "\u0120automobile", "3770": "\u0120complain", "3771": "\u0120enthusiastic", "3772": "\u0120sneeze", "3773": "\u0120cartoon", "3774": "\u0120yoga", "3775": "\u0120Little", "3776": "\u0120growl", "3777": "htub", "3778": "\u0120flea", "3779": "la", "3780": "\u0120meadow", "3781": "\u0120drawer", "3782": "\u0120bathtub", "3783": "\u0120ribb", "3784": "ophone", "3785": "\u0120means", "3786": "\u0120hall", "3787": "\u0120golf", "3788": "\u0120skeleton", "3789": "\u0120math", "3790": "\u0120veil", "3791": "\u0120hunter", "3792": "\u0120gor", "3793": "\u0120flame", "3794": "\u0120poke", "3795": "\u0120video", "3796": "\u0120chess", "3797": "\u0120troph", "3798": "\u0120cups", "3799": "\u0120glowing", "3800": "\u0120matt", "3801": "\u0120oyster", "3802": "work", "3803": "\u0120penny", "3804": "\u0120spear", "3805": "\u0120itself", "3806": "\u0120drawings", "3807": "\u0120hippo", "3808": "\u0120repair", "3809": "\u0120switch", "3810": "glasses", "3811": "\u0120sunglasses", "3812": "\u0120teleph", "3813": "\u0120costume", "3814": "\u0120dess", "3815": "\u0120zipp", "3816": ",\u00e2\u0122\u013f", "3817": "\u0120repe", "3818": "\u0120muffin", "3819": "\u0120arg", "3820": "\u0120pastry", "3821": "\u0120pun", "3822": "\u0120rolling", "3823": "\u0120minutes", "3824": "\u0120packed", "3825": "\u0120makeup", "3826": "iron", "3827": "ric", "3828": "\u0120People", "3829": "\u0120waffle", "3830": "case", "3831": "\u0120handle", "3832": "\u0120pear", "3833": "\u0120maze", "3834": "\u0120telephone", "3835": "\u0120pine", "3836": "ait", "3837": "\u0120gear", "3838": "\u0120hedge", "3839": "\u0120mattress", "3840": "\u0120package", "3841": "aving", "3842": "\u0120Miss", "3843": "\u0120shocked", "3844": "ines", "3845": "\u0120trophy", "3846": "\u0120powder", "3847": "\u0120knight", "3848": "\u0120cob", "3849": "\u0120missile", "3850": "\u0120managed", "3851": "\u0120frame", "3852": "\u0120encou", "3853": "\u0120wife", "3854": "\u0120ok", "3855": "\u0120separ", "3856": "web", "3857": "\u0120stairs", "3858": "\u0120rot", "3859": "\u0120camp", "3860": "time", "3861": "urch", "3862": "rophone", "3863": "\u0120magaz", "3864": "\u0120strugg", "3865": "\u0120colour", "3866": "\u0120grapes", "3867": "\u0120file", "3868": "head", "3869": "\u0120Tina", "3870": "\u0120basketball", "3871": "Bye", "3872": "old", "3873": "per", "3874": "\u0120cobweb", "3875": "Re", "3876": "Jimmy", "3877": "\u0120Tweet", "3878": "See", "3879": "\u0120perm", "3880": "\u0120wool", "3881": "\u0120Dan", "3882": "\u0120microphone", "3883": "esday", "3884": "\u0120eye", "3885": "\u0120leash", "3886": "\u0120gasp", "3887": "iew", "3888": "keep", "3889": "\u0120weep", "3890": "\u0120barking", "3891": "ature", "3892": "\u0120safely", "3893": "\u0120tear", "3894": "\u0120view", "3895": "\u0120slides", "3896": "offe", "3897": "\u0120steps", "3898": "istol", "3899": "offee", "3900": "\u0120bananas", "3901": "\u0120staff", "3902": "\u0120spirit", "3903": "\u0120task", "3904": "\u0120giggled", "3905": "\u0120hoc", "3906": "\u0120hockey", "3907": "\u0120vend", "3908": "\u0120those", "3909": "\u0120gorilla", "3910": "Jill", "3911": "\u0120cooler", "3912": "\u0120Rose", "3913": "was", "3914": "cing", "3915": "\u0120early", "3916": "\u0120marched", "3917": "rosc", "3918": "\u0120mint", "3919": "\u0120Look", "3920": "washer", "3921": "\u0120flour", "3922": "\u0120hotel", "3923": "hic", "3924": "\u0120sailor", "3925": "\u0120dessert", "3926": "\u0120photo", "3927": "roscope", "3928": "\u0120vehic", "3929": "ilot", "3930": "\u0120oft", "3931": "\u0120often", "3932": "\u0120church", "3933": "\u0120Pete", "3934": "\u0120cooking", "3935": "\u0120remain", "3936": "\u0120five", "3937": "\u0120sausage", "3938": "otter", "3939": "\u0120ten", "3940": "\u0120tools", "3941": "\u0120medal", "3942": "\u0120either", "3943": "\u0120fireman", "3944": "chor", "3945": "\u0120grandpa", "3946": "\u0120otter", "3947": "\u0120baseball", "3948": "\u0120pretending", "3949": "\u0120pistol", "3950": "\u0120dishwasher", "3951": "\u0120rever", "3952": "\u0120organize", "3953": "\u0120pee", "3954": "\u0120vendor", "3955": "\u0120knock", "3956": "\u0120sight", "3957": "\u0120grill", "3958": "\u0120temple", "3959": "\u0120battery", "3960": "\u0120thinking", "3961": "\u0120opens", "3962": "\u0120ow", "3963": "\u0120realised", "3964": "\u0120iron", "3965": "\u0120laser", "3966": "\u0120sne", "3967": "\u0120sandbox", "3968": "\u0120oil", "3969": "\u0120patch", "3970": "\u0120hours", "3971": "\u0120rise", "3972": "\u0120whip", "3973": "'d", "3974": "ctory", "3975": "\u0120Give", "3976": "\u0120anchor", "3977": "\u0120trash", "3978": "ense", "3979": "\u0120short", "3980": "ney", "3981": "\u0120Betty", "3982": "\u0120rhin", "3983": "\u0120factory", "3984": "seum", "3985": "\u0120may", "3986": "\u0120ward", "3987": "ately", "3988": "\u0120cardboard", "3989": "ugged", "3990": "\u0120lotion", "3991": "Al", "3992": "\u0120message", "3993": "\u0120valu", "3994": "\u0120wardrobe", "3995": "\u0120cell", "3996": "\u0120museum", "3997": "apers", "3998": "\u0120ur", "3999": "ination", "4000": "\u0120hanging", "4001": "ucet", "4002": "ailable", "4003": "\u0120Sunny", "4004": "\u0120Zoom", "4005": "\u0120hive", "4006": "eer", "4007": "\u0120towers", "4008": "keeper", "4009": "\u0120blackboard", "4010": "\u0120mem", "4011": "\u0120excitement", "4012": "\u0120coffee", "4013": "\u0120pilot", "4014": "ready", "4015": "Fluffy", "4016": "\u0120napkin", "4017": "\u0120penguin", "4018": "ron", "4019": "\u0120check", "4020": "\u0120reward", "4021": "loo", "4022": "\u0120quit", "4023": "\u0120Pippin", "4024": "\u0120cane", "4025": "\u0120picking", "4026": "place", "4027": "\u0120Snow", "4028": "azor", "4029": "\u0120faucet", "4030": "\u0120ig", "4031": "\u0120passport", "4032": "\u0120Rob", "4033": "\u0120stumbled", "4034": "\u0120dreamed", "4035": "\u0120igloo", "4036": "\u0120Bessie", "4037": "aroo", "4038": "angaroo", "4039": "\u0120freez", "4040": "\u0120juicy", "4041": "\u0120allowed", "4042": "play", "4043": "\u0120holds", "4044": "\u0120already", "4045": "\u0120available", "4046": "\u0120sett", "4047": "\u0120bathe", "4048": "\u0120tornado", "4049": "imney", "4050": "\u0120fingers", "4051": "htray", "4052": "\u0120hanger", "4053": "\u0120newsp", "4054": "\u0120size", "4055": "\u0120laund", "4056": "\u0120lend", "4057": "\u0120chimney", "4058": "\u0120laundry", "4059": "\u0120oak", "4060": "\u0120fisher", "4061": "\u0120kangaroo", "4062": "\u0120men", "4063": "\u0120Everywhere", "4064": "\u0120telling", "4065": "Em", "4066": "\u0120novel", "4067": "body", "4068": "\u0120mummy", "4069": "\u0120pal", "4070": "\u0120mule", "4071": "\u0120cherries", "4072": "\u0120notice", "4073": "\u0120practice", "4074": "\u0120spilled", "4075": "\u0120reind", "4076": "\u0120complete", "4077": "\u0120enjoying", "4078": "\u0120microscope", "4079": "arian", "4080": "ampoo", "4081": "\u0120gain", "4082": "\u0120sub", "4083": "\u0120fireplace", "4084": "\u0120imagine", "4085": "anda", "4086": "\u0120display", "4087": "ocer", "4088": "\u0120Zip", "4089": "\u0120fastest", "4090": "\u0120magazine", "4091": "\u0120hurry", "4092": "\u0120cabinet", "4093": "\u0120shrink", "4094": "\u0120ashtray", "4095": "Wait", "4096": "\u0120cows", "4097": "\u0120Spike", "4098": "Joe", "4099": "gen", "4100": "\u0120palace", "4101": "\u0120improve", "4102": "aches", "4103": "\u0120rake", "4104": "\u0120reindeer", "4105": "\u0120falling", "4106": "oceros", "4107": "\u0120skirt", "4108": "ured", "4109": "\u0120discovered", "4110": "\u0120stared", "4111": "\u0120roared", "4112": "aid", "4113": "\u0120silver", "4114": "\u0120tub", "4115": "\u0120trail", "4116": "Is", "4117": "\u0120miner", "4118": "come", "4119": "\u0120bill", "4120": "iction", "4121": "\u0120fog", "4122": "\u0120ax", "4123": "stairs", "4124": "ilet", "4125": "\u0120hut", "4126": "\u0120happier", "4127": "\u0120taller", "4128": "ictionary", "4129": "\u0120oats", "4130": "\u0120fisherman", "4131": "\u0120object", "4132": "\u0120por", "4133": "vision", "4134": "\u0120valuable", "4135": "\u0120shampoo", "4136": "\u0120holes", "4137": "\u0120offered", "4138": "\u0120boots", "4139": "\u0120rhinoceros", "4140": "\u0120names", "4141": "\u0120toilet", "4142": "\u0120climbing", "4143": "\u0120blin", "4144": "vice", "4145": "Ow", "4146": "\u0120stretched", "4147": "iest", "4148": "\u0120zipper", "4149": "\u0120listening", "4150": "\u0120sym", "4151": "\u0120bathrobe", "4152": "alend", "4153": "\u0120jewelry", "4154": "\u0120Here", "4155": "\u0120jokes", "4156": "\u0120television", "4157": "\u0120prov", "4158": "\u0120calend", "4159": "\u0120stops", "4160": "\u0120axe", "4161": "\u0120jumps", "4162": "\u0120fuel", "4163": "cu", "4164": "\u0120sparkly", "4165": "\u0120perfume", "4166": "\u0120Susie", "4167": "\u0120bury", "4168": "bol", "4169": "Mummy", "4170": "lu", "4171": "\u0120pressed", "4172": "\u0120Kim", "4173": "reek", "4174": "\u0120rece", "4175": "\u0120Toby", "4176": "\u0120neat", "4177": "\u0120creek", "4178": "\u0120popped", "4179": "\u0120opera", "4180": "\u0120calendar", "4181": "\u0120snap", "4182": "\u0120gasped", "4183": "\u0120attach", "4184": "\u0120symbol", "4185": "\u0120tuna", "4186": "\u0120Mar", "4187": "\u0120papers", "4188": "Mr", "4189": "\u0120unpack", "4190": "\u0120resist", "4191": "\u0120dictionary", "4192": "\u0120subway", "4193": "\u0120letters", "4194": "\u0120freezer", "4195": "\u0120chose", "4196": "\u0120pinch", "4197": "zag", "4198": "\u0120spoke", "4199": "\u0120anyway", "4200": "\u0120super", "4201": "\u0120porch", "4202": "\u0120helper", "4203": "affe", "4204": "\u0120bikes", "4205": "\u0120lie", "4206": "arry", "4207": "iches", "4208": "\u0120tightly", "4209": "\u0120comfort", "4210": "\u0120shaking", "4211": "\u0120bookcase", "4212": "\u0120son", "4213": "\u0120razor", "4214": "aurant", "4215": "\u0120sandwiches", "4216": "\u0120Are", "4217": "\u0120ext", "4218": "igzag", "4219": "\u0120weigh", "4220": "\u0120against", "4221": "\u0120stickers", "4222": "\u0120restaurant", "4223": "\u0120newspaper", "4224": "\u0120blouse", "4225": "te", "4226": "\u0120vehicle", "4227": "\u0120swinging", "4228": "\u0120ped", "4229": "\u0120disag", "4230": "\u0120nature", "4231": "\u0120squirrels", "4232": "ival", "4233": "\u0120belongs", "4234": "\u0120swamp", "4235": "\u0120butterflies", "4236": "\u0120gym", "4237": "del", "4238": "\u0120inclu", "4239": "\u0120growing", "4240": "\u0120buckle", "4241": "omed", "4242": "\u0120stirred", "4243": "\u0120mustache", "4244": "\u0120billboard", "4245": "xy", "4246": "\u0120beep", "4247": "\u0120alarm", "4248": "\u0120lightning", "4249": "\u0120lip", "4250": "\u0120fest", "4251": "\u0120hung", "4252": "utor", "4253": "\u0120distance", "4254": "ogn", "4255": "\u0120cards", "4256": "\u0120obser", "4257": "\u0120agree", "4258": "Little", "4259": "\u0120tease", "4260": "\u0120recogn", "4261": "\u0120rubber", "4262": "ik", "4263": "\u0120hate", "4264": "\u0120sof", "4265": "fast", "4266": "ef", "4267": "Ouch", "4268": "\u0120doesn", "4269": "\u0120musician", "4270": "\u0120advice", "4271": "\u0120beef", "4272": "\u0120serve", "4273": "aspoon", "4274": "\u0120sweetie", "4275": "\u0120model", "4276": "lter", "4277": "\u0120crib", "4278": "\u0120blueberries", "4279": "\u0120sofa", "4280": "\u0120circles", "4281": "\u0120breakfast", "4282": "\u0120tutor", "4283": "asis", "4284": "\u0120bookshe", "4285": "\u0120giraffe", "4286": "stri", "4287": "\u0120festival", "4288": "\u0120separate", "4289": "\u0120shelter", "4290": "\u0120gas", "4291": "\u0120airport", "4292": "\u0120olive", "4293": "\u0120rail", "4294": "\u0120bookshelf", "4295": "\u0120frogs", "4296": "\u0120teaspoon", "4297": "\u0120reverse", "4298": "\u0120junk", "4299": "\u0120riding", "4300": "\u0120pleased", "4301": "\u0120drain", "4302": "\u0120Mrs", "4303": "\u0120wipe", "4304": "\u0120oasis", "4305": "\u0120soil", "4306": "\u0120ahead", "4307": "\u0120rescue", "4308": "\u0120leaving", "4309": "ummer", "4310": "\u0120painter", "4311": "\u0120squeeze", "4312": "\u0120chance", "4313": "\u0120poked", "4314": "\u0120knob", "4315": "\u0120Teddy", "4316": "\u0120peeked", "4317": "\u0120lumber", "4318": "\u0120trains", "4319": "\u0120extra", "4320": "\u0120slipp", "4321": "\u0120quiz", "4322": "\u0120refused", "4323": "res", "4324": "rmomet", "4325": "\u0120page", "4326": "\u0120rules", "4327": "\u0120happens", "4328": "\u0120sounded", "4329": "\u0120ins", "4330": "\u0120point", "4331": "\u0120winter", "4332": "\u0120dancer", "4333": "\u0120Grandpa", "4334": "\u0120birdc", "4335": "\u0120disappear", "4336": "rmometer", "4337": "\u0120Dolly", "4338": "\u0120weather", "4339": "\u0120waste", "4340": "\u0120lic", "4341": "\u0120birdcage", "4342": "\u0120theater", "4343": "\u0120reef", "4344": "\u0120carrying", "4345": "Daisy", "4346": "\u0120invite", "4347": "iform", "4348": "\u0120goal", "4349": "\u0120ostri", "4350": "\u0120uniform", "4351": "\u0120swung", "4352": "\u0120trade", "4353": "\u0120cliff", "4354": "ience", "4355": "\u0120lawn", "4356": "ola", "4357": "\u0120leaned", "4358": "\u0120Pandy", "4359": "angu", "4360": "\u0120accept", "4361": "\u0120admire", "4362": "\u0120fort", "4363": "\u0120accidentally", "4364": "\u0120pastel", "4365": "bbles", "4366": "\u0120stom", "4367": "\u0120langu", "4368": "\u0120twir", "4369": "\u0120suff", "4370": "\u0120panda", "4371": "riger", "4372": "\u0120bet", "4373": "rigerator", "4374": "\u0120peek", "4375": "render", "4376": "\u0120blinked", "4377": "\u0120starts", "4378": "na", "4379": "\u0120refrigerator", "4380": "\u0120anywhere", "4381": "!\".", "4382": "\u0120imagined", "4383": "\u0120dreaming", "4384": "\u0120remove", "4385": "night", "4386": "\u0120shower", "4387": "\u0120Lee", "4388": "\u0120classroom", "4389": "\u0120ceiling", "4390": "\u0120caring", "4391": "ium", "4392": "\u0120grand", "4393": "\u0120missing", "4394": "aked", "4395": "\u0120license", "4396": "\u0120stable", "4397": "\u0120thermometer", "4398": "\u0120monkeys", "4399": "astic", "4400": "\u0120warned", "4401": "\u0120summer", "4402": "\u0120Where", "4403": "\u0120above", "4404": "\u0120brick", "4405": "ected", "4406": "\u0120cudd", "4407": "\u0120problems", "4408": "amber", "4409": "\u0120chasing", "4410": "\u0120label", "4411": "\u0120apron", "4412": "\u0120sent", "4413": "urnit", "4414": "urniture", "4415": "\u0120lawy", "4416": "\u0120lid", "4417": "uggage", "4418": "med", "4419": "\u0120respectful", "4420": "\u0120furniture", "4421": "\u0120frowned", "4422": "\u0120zoomed", "4423": "\u0120pages", "4424": "\u0120prevent", "4425": "\u0120bent", "4426": "\u0120luggage", "4427": "\u0120mistakes", "4428": "\u0120sunset", "4429": "\u0120ostrich", "4430": "ison", "4431": "\u0120suggested", "4432": "\u0120windows", "4433": "ations", "4434": "\u0120jail", "4435": "low", "4436": "\u0120wine", "4437": "\u0120ribbon", "4438": "\u0120older", "4439": "\u0120shouts", "4440": "\u0120grape", "4441": "\u0120Cl", "4442": "\u0120wigg", "4443": "\u0120Co", "4444": "ucture", "4445": "\u0120structure", "4446": "\u0120spoil", "4447": "eor", "4448": "\u0120fixing", "4449": "\u0120chamber", "4450": "\u0120lions", "4451": "\u0120delay", "4452": "\u0120finds", "4453": "\u0120handed", "4454": "\u0120searching", "4455": "\u0120unite", "4456": "Did", "4457": "\u0120fought", "4458": "\u0120lawyer", "4459": "\u0120brightly", "4460": "\u0120pair", "4461": "\u0120meeting", "4462": "\u0120choice", "4463": "\u0120surprises", "4464": "\u0120Ellie", "4465": "\u0120art", "4466": "\u0120Un", "4467": "Ch", "4468": "\u0120favour", "4469": "eterin", "4470": "eterinarian", "4471": "adium", "4472": "\u0120stadium", "4473": "\u0120proudly", "4474": "iki", "4475": "\u0120veterinarian", "4476": "vet", "4477": "rod", "4478": "\u0120chairs", "4479": "\u0120slip", "4480": "\u0120Spe", "4481": "\u0120sadly", "4482": "\u0120Bow", "4483": "\u0120incre", "4484": "\u0120Carl", "4485": "\u0120puddles", "4486": "\u0120berry", "4487": "\u0120introd", "4488": "\u0120ranch", "4489": "veal", "4490": "\u0120Boun", "4491": "\u0120argue", "4492": "\u0120V", "4493": "\u0120admired", "4494": "\u0120cur", "4495": "\u0120favourite", "4496": "Your", "4497": "\u0120inf", "4498": "\u0120excitedly", "4499": "\u0120rac", "4500": "\u0120grabs", "4501": "mend", "4502": "\u0120steam", "4503": "thank", "4504": "\u0120human", "4505": "eorge", "4506": "sity", "4507": "\u0120Hel", "4508": "\u0120pushing", "4509": "\u0120saving", "4510": "\u0120Red", "4511": "\u0120reveal", "4512": "ommend", "4513": "alley", "4514": "\u0120yield", "4515": "olog", "4516": "\u0120mall", "4517": "\u0120reminded", "4518": "\u0120recommend", "4519": "\u0120leak", "4520": "\u0120surrender", "4521": "\u0120harb", "4522": "\u0120appl", "4523": "cuss", "4524": "aul", "4525": "\u0120weap", "4526": "\u0120regret", "4527": "\u0120putting", "4528": "\u0120valley", "4529": "\u0120mineral", "4530": "\u0120evening", "4531": "elcome", "4532": "\u0120matches", "4533": "\u0120forgave", "4534": "\u0120sneezed", "4535": "\u0120pup", "4536": "\u0120aw", "4537": "\u0120rushed", "4538": "ecause", "4539": "\u0120spade", "4540": "\u0120apolog", "4541": "\u0120plates", "4542": "\u0120discuss", "4543": "\u0120prepare", "4544": "\u0120harbor", "4545": "\u0120ignore", "4546": "\u0120Big", "4547": "\u0120country", "4548": "\u0120language", "4549": "\u0120Buzzy", "4550": "\u0120pulls", "4551": "\u0120plastic", "4552": "\u0120supply", "4553": "\u0120float", "4554": "\u0120sniffed", "4555": "\u0120Jazz", "4556": "\u0120replace", "4557": "\u0120meas", "4558": "\u0120shovel", "4559": "\u0120Bill", "4560": "\u0120raise", "4561": "\u0120Next", "4562": "\u0120fre", "4563": "\u0120cared", "4564": "\u0120socks", "4565": "\u0120strip", "4566": "\u0120doors", "4567": "\u0120mystery", "4568": "\u0120lives", "4569": "\u0120restore", "4570": "\u0120sticker", "4571": "\u0120sudden", "4572": "ari", "4573": "\u0120kinds", "4574": "\u0120slippery", "4575": "ero", "4576": "\u0120Ow", "4577": "\u0120player", "4578": "\u0120panic", "4579": "ricane", "4580": "\u0120hoping", "4581": "iday", "4582": "\u0120shone", "4583": "lex", "4584": "hero", "4585": "\u0120beg", "4586": "\u0120Mike", "4587": "\u0120Binky", "4588": "\u0120superhero", "4589": "\u0120delighted", "4590": "\u0120gro", "4591": "Yay", "4592": "aud", "4593": "chan", "4594": "\u0120chickens", "4595": "\u0120shoulder", "4596": "\u0120rained", "4597": "\u0120colourful", "4598": "\u0120breat", "4599": "\u0120Alice", "4600": "\u0120claw", "4601": "\u0120Bubbles", "4602": "Yuck", "4603": "\u0120softly", "4604": "rise", "4605": "\u0120port", "4606": "Grandma", "4607": "\u0120hol", "4608": "icer", "4609": "\u0120holiday", "4610": "oof", "4611": "\u0120\u00e2\u0122", "4612": "\u0120barks", "4613": "ason", "4614": "\u0120throwing", "4615": "\u0120planes", "4616": "Mary", "4617": "\u0120bend", "4618": "\u0120Freddy", "4619": "\u0120shakes", "4620": "\u0120infant", "4621": "\u0120ended", "4622": "\u0120shivering", "4623": "\u0120kneel", "4624": "\u0120sunrise", "4625": "\u0120pushes", "4626": "\u0120Olive", "4627": "\u0120thanks", "4628": "\u0120fresh", "4629": "\u0120suffer", "4630": "\u0120points", "4631": "imed", "4632": "wards", "4633": "\u0120Pat", "4634": "\u0120tip", "4635": "\u0120Speedy", "4636": "\u0120freeze", "4637": "\u0120keeping", "4638": "\u0120Would", "4639": "\u0120giggle", "4640": "\u0120copper", "4641": "\u0120smells", "4642": "\u0120dear", "4643": "\u0120enter", "4644": "\u0120provide", "4645": "cast", "4646": "chanic", "4647": "\u0120dishes", "4648": "\u0120End", "4649": "cond", "4650": "\u0120unh", "4651": "Next", "4652": "\u0120applaud", "4653": "\u0120heads", "4654": "\u0120hurricane", "4655": "\u0120cherry", "4656": "\u0120thumb", "4657": "\u0120menu", "4658": "\u0120meowed", "4659": "\u0120mass", "4660": "\u0120second", "4661": "\u0120brighter", "4662": "ince", "4663": "\u0120sandcast", "4664": "\u0120mechanic", "4665": "\u0120wre", "4666": "\u0120sprayed", "4667": "\u0120letting", "4668": "\u0120event", "4669": "\u0120weapon", "4670": "\u0120laught", "4671": "\u0120x", "4672": "\u0120laughter", "4673": "\u0120clapping", "4674": "\u0120feelings", "4675": "Will", "4676": "icky", "4677": "\u0120splashing", "4678": "ement", "4679": "\u0120Or", "4680": "acked", "4681": "\u0120castles", "4682": "\u0120Fl", "4683": "cer", "4684": "\u0120score", "4685": "apping", "4686": "\u0120universe", "4687": "\u0120navy", "4688": "\u0120dem", "4689": "\u0120sticky", "4690": "ophie", "4691": "\u0120rooms", "4692": "\u0120row", "4693": "\u0120flies", "4694": "igi", "4695": "\u0120Dave", "4696": "\u0120unhappy", "4697": "\u0120greedy", "4698": "\u0120dare", "4699": "\u0120alive", "4700": "\u0120breaks", "4701": "\u0120ener", "4702": "\u0120courage", "4703": "\u0120invit", "4704": "Ready", "4705": "\u0120repeat", "4706": "\u0120demand", "4707": "\u0120trusted", "4708": "Lisa", "4709": "\u0120somewhere", "4710": "arlie", "4711": "\u0120prune", "4712": "bles", "4713": "\u0120wreck", "4714": "\u0120Y", "4715": "\u0120skill", "4716": "\u0120examine", "4717": "\u0120parts", "4718": "year", "4719": "\u0120eaten", "4720": "oe", "4721": "All", "4722": "erc", "4723": "enry", "4724": "\u0120mention", "4725": "\u0120raining", "4726": "\u0120Help", "4727": "Buddy", "4728": "\u0120throws", "4729": "\u0120jogged", "4730": "quest", "4731": "\u0120starting", "4732": "\u0120rush", "4733": "\u0120poison", "4734": "\u0120pirates", "4735": "heart", "4736": "\u0120vac", "4737": "\u0120content", "4738": "Emma", "4739": "\u0120Kiki", "4740": "\u0120sigh", "4741": "\u0120flapped", "4742": "\u0120drops", "4743": "\u0120chirp", "4744": "\u0120sport", "4745": "Qu", "4746": "\u0120sparkled", "4747": "\u0120Zoomy", "4748": "\u0120given", "4749": "\u0120streng", "4750": "\u0120steel", "4751": "Ann", "4752": "\u0120bumped", "4753": "\u0120yawned", "4754": "\u0120stud", "4755": "\u0120request", "4756": "\u0120scold", "4757": "\u0120myself", "4758": "\u0120strength", "4759": "\u0120shrugged", "4760": "Mark", "4761": "\u0120coats", "4762": "\u0120punish", "4763": "\u0120equ", "4764": "\u0120snugg", "4765": "\u0120university", "4766": "\u0120paid", "4767": "\u0120Johnny", "4768": "\u0120pigs", "4769": "\u0120scratch", "4770": "\u0120toe", "4771": "\u0120exerc", "4772": "\u0120tracks", "4773": "\u0120upstairs", "4774": "\u0120prayed", "4775": "\u0120crossed", "4776": "\u0120squeezed", "4777": "\u0120impressed", "4778": "\u0120flood", "4779": "\u0120bouncing", "4780": "\u0120Ru", "4781": "Alice", "4782": "\u0120rabbits", "4783": "ges", "4784": "\u0120badly", "4785": "..", "4786": "\u0120warn", "4787": "\u0120leather", "4788": "\u0120expect", "4789": "\u0120news", "4790": "\u0120tide", "4791": "\u0120Ted", "4792": "\u0120minute", "4793": "\u0120bears", "4794": "\u0120claws", "4795": "\u0120buzz", "4796": "\u0120sweetheart", "4797": "\u0120Sm", "4798": "yth", "4799": "\u0120nation", "4800": "Sh", "4801": "ythm", "4802": "\u0120vacation", "4803": "\u0120hist", "4804": "\u0120heat", "4805": "\u0120strawberries", "4806": "\u0120observe", "4807": "\u0120explored", "4808": "\u0120settle", "4809": "\u0120sandcastle", "4810": "\u0120yawn", "4811": "\u0120history", "4812": "\u0120Lilly", "4813": "\u0120Lola", "4814": "mare", "4815": "\u0120Mummy", "4816": "\u0120Sque", "4817": "ially", "4818": "inking", "4819": "\u0120believed", "4820": "\u0120horses", "4821": "Daddy", "4822": "\u0120Hoppy", "4823": "\u0120checked", "4824": "\u0120Mandy", "4825": "\u0120tour", "4826": "\u0120network", "4827": "\u0120cheek", "4828": "\u0120Under", "4829": "\u0120offer", "4830": "\u0120easily", "4831": "\u0120placed", "4832": "spec", "4833": "\u0120spots", "4834": "\u0120snowball", "4835": "ween", "4836": "men", "4837": "\u0120energy", "4838": "\u0120Bee", "4839": "\u0120imagination", "4840": "\u0120blueberry", "4841": "otten", "4842": "\u0120between", "4843": "specially", "4844": "\u0120Gigi", "4845": "izes", "4846": "\u0120daisy", "4847": "\u0120waving", "4848": "reeze", "4849": "reat", "4850": "\u0120vroom", "4851": "\u0120soak", "4852": "\u0120safari", "4853": "\u0120rhythm", "4854": "\u0120massage", "4855": "\u0120stomach", "4856": "\u0120baking", "4857": "quake", "4858": "\u0120nightmare", "4859": "\u0120insisted", "4860": "\u0120blowing", "4861": "\u0120entered", "4862": "Before", "4863": "\u0120stair", "4864": "\u0120palm", "4865": "\u0120beauty", "4866": "\u0120twisted", "4867": "\u0120bother", "4868": "\u0120writing", "4869": "\u0120scoop", "4870": "\u0120prunes", "4871": "\u0120brain", "4872": "\u0120ing", "4873": "ipment", "4874": "\u0120poppy", "4875": "\u0120hills", "4876": "noon", "4877": "\u0120afternoon", "4878": "\u0120equipment", "4879": "\u0120especially", "4880": "hest", "4881": "\u0120sir", "4882": "\u0120pad", "4883": "\u0120See", "4884": "\u0120ingred", "4885": "\u0120Fox", "4886": "\u0120calls", "4887": "\u0120ingredient", "4888": "\u0120earthquake", "4889": "\u0120ignored", "4890": "\u0120Snowy", "4891": "\u0120burned", "4892": "\u0120nobody", "4893": "mble", "4894": "\u0120sty", "4895": "apa", "4896": "\u0120sew", "4897": "\u0120tug", "4898": "isty", "4899": "xygen", "4900": "\u0120hearts", "4901": "\u0120lear", "4902": "\u0120learnt", "4903": "\u0120lemonade", "4904": "\u0120increase", "4905": "illie", "4906": "Jenny", "4907": "\u0120gaz", "4908": "\u0120backpack", "4909": "\u0120mailman", "4910": "\u0120whistled", "4911": "\u0120pedal", "4912": "\u0120Sk", "4913": "Fred", "4914": "\u0120shopkeeper", "4915": "ffic", "4916": "\u0120permit", "4917": "\u0120tremble", "4918": "\u0120yucky", "4919": "anges", "4920": "\u0120moves", "4921": "\u0120introduce", "4922": "\u0120lemons", "4923": "\u0120crash", "4924": "\u0120beans", "4925": "\u0120floated", "4926": "edn", "4927": "ednesday", "4928": "ittens", "4929": "Welcome", "4930": "\u0120planned", "4931": "\u0120strike", "4932": "\u0120traffic", "4933": "\u0120include", "4934": "\u0120slap", "4935": "\u0120racing", "4936": "\u0120Lucky", "4937": "resses", "4938": "\u0120wisdom", "4939": "\u0120pur", "4940": "\u0120wags", "4941": "\u0120Finny", "4942": "laimed", "4943": "\u0120George", "4944": "\u0120luck", "4945": "\u0120following", "4946": "\u0120price", "4947": "ecting", "4948": "\u0120mama", "4949": "\u0120pitch", "4950": "\u0120below", "4951": "\u0120Elly", "4952": "\u0120Have", "4953": "Le", "4954": "\u0120weight", "4955": "\u0120exclaimed", "4956": "house", "4957": "\u0120buried", "4958": "\u0120follows", "4959": "\u0120comf", "4960": "\u0120recognize", "4961": "\u0120ingredients", "4962": "\u0120furt", "4963": "tain", "4964": "\u0120candles", "4965": "Mimi", "4966": "\u0120marbles", "4967": "riage", "4968": "unday", "4969": "emember", "4970": "eration", "4971": "\u0120Alex", "4972": "\u0120apart", "4973": "\u0120Wednesday", "4974": "\u0120growled", "4975": "uct", "4976": "\u0120Su", "4977": "ores", "4978": "\u0120conf", "4979": "\u0120teaching", "4980": "\u0120hopes", "4981": "\u0120folded", "4982": "\u0120closely", "4983": "\u0120Finn", "4984": "\u0120Who", "4985": "\u0120heel", "4986": "\u0120Sunday", "4987": "\u0120encourage", "4988": "\u0120Paul", "4989": "\u0120Owl", "4990": "\u0120zigzag", "4991": "\u0120pulling", "4992": "\u0120digg", "4993": "\u0120bouncy", "4994": "\u0120further", "4995": "\u0120chewed", "4996": "\u0120digging", "4997": "\u0120winning", "4998": "Woof", "4999": "With", "5000": "\u0120dresses", "5001": "\u0120image", "5002": "rec", "5003": "cery", "5004": "\u0120shouting", "5005": "\u0120grocery", "5006": "\u0120twisty", "5007": "\u0120peanuts", "5008": "\u0120puzzles", "5009": "bbing", "5010": "\u0120Dog", "5011": "look", "5012": "\u0120scrat", "5013": "\u0120chores", "5014": "\u0120whisper", "5015": "\u0120Is", "5016": "\u0120spike", "5017": "\u0120Froggy", "5018": "\u0120cape", "5019": "\u0120snail", "5020": "\u0120acorns", "5021": "\u0120worms", "5022": "hood", "5023": "\u0120deeper", "5024": "\u0120urge", "5025": "ifi", "5026": "\u0120exper", "5027": "\u0120Whenever", "5028": "\u0120Tilly", "5029": "\u0120Squeaky", "5030": "\u0120Grace", "5031": "\u0120planted", "5032": "\u0120attention", "5033": "ecture", "5034": "\u0120exercise", "5035": "\u0120Danny", "5036": "\u0120cub", "5037": "\u0120operation", "5038": "\u0120underground", "5039": "\u0120hon", "5040": "\u0120agre", "5041": "\u0120quite", "5042": "\u0120creatures", "5043": "\u0120simp", "5044": "Everyone", "5045": "\u0120struggle", "5046": "oral", "5047": "\u0120Mittens", "5048": "ddy", "5049": "\u0120blood", "5050": "\u0120lecture", "5051": "\u0120washing", "5052": "\u0120hurting", "5053": "\u0120vanished", "5054": "\u0120gifts", "5055": "\u0120dressed", "5056": "\u0120invitation", "5057": "\u0120solved", "5058": "\u0120licks", "5059": "\u0120snuggled", "5060": "\u0120Sharing", "5061": "ippy", "5062": "\u0120ble", "5063": "\u0120marriage", "5064": "\u0120quietly", "5065": "gie", "5066": "\u0120warning", "5067": "\u0120jazz", "5068": "\u0120breathe", "5069": "reci", "5070": "\u0120elephants", "5071": "\u0120sizes", "5072": "\u0120dried", "5073": "\u0120fallen", "5074": "\u0120landscape", "5075": "ories", "5076": "\u0120sprink", "5077": "\u0120neighbour", "5078": "\u0120mice", "5079": "uesday", "5080": "\u0120appreci", "5081": "\u0120Sophie", "5082": "\u0120Joey", "5083": "\u0120\u00e2\u0122\u0135", "5084": "\u0120eagerly", "5085": "\u0120sailing", "5086": "\u0120Coco", "5087": "\u0120paused", "5088": "ips", "5089": "\u0120counter", "5090": "\u0120Good", "5091": "\u0120Bounce", "5092": "\u0120Penny", "5093": "\u0120worth", "5094": "looking", "5095": "\u0120Rock", "5096": "\u0120oxygen", "5097": "Because", "5098": "\u0120release", "5099": "\u0120shined", "5100": "Not", "5101": "pted", "5102": "\u0120reaches", "5103": "\u0120balan", "5104": "\u0120Zara", "5105": "isses", "5106": "\u0120oh", "5107": "\u0120kisses", "5108": "\u0120style", "5109": "\u0120bricks", "5110": "\u0120plays", "5111": "\u0120glo", "5112": "\u0120Tuesday", "5113": "\u0120ideas", "5114": "sed", "5115": "\u0120inst", "5116": "\u0120wob", "5117": "\u0120fireworks", "5118": "Bella", "5119": "iggly", "5120": "ucked", "5121": "\u0120seeing", "5122": "\u0120flap", "5123": "\u0120accepted", "5124": "right", "5125": "\u0120Pip", "5126": "Today", "5127": "\u0120blink", "5128": "mm", "5129": "\u0120Ros", "5130": "\u0120tremb", "5131": "These", "5132": "\u0120muddy", "5133": "\u0120memory", "5134": "\u0120married", "5135": "\u0120tomatoes", "5136": "\u0120exit", "5137": "\u0120Annie", "5138": "ops", "5139": "\u0120wagging", "5140": "\u0120fash", "5141": "Remy", "5142": "\u0120Charlie", "5143": "\u0120wandered", "5144": "unately", "5145": "ipping", "5146": "\u0120gloves", "5147": "\u0120captain", "5148": "\u0120pillows", "5149": "\u0120receive", "5150": "\u0120resp", "5151": "\u0120Pinky", "5152": "raged", "5153": "\u0120during", "5154": "\u0120Everything", "5155": "etch", "5156": "\u0120web", "5157": "\u0120petals", "5158": "\u0120watered", "5159": "\u0120Eventually", "5160": "ived", "5161": "\u0120manage", "5162": "\u0120pinched", "5163": "\u0120brings", "5164": "\u0120vanish", "5165": "\u0120cakes", "5166": "\u0120fashion", "5167": "\u0120Bluey", "5168": "\u0120printer", "5169": "\u0120destroyed", "5170": "\u0120treasures", "5171": "nce", "5172": "\u0120allow", "5173": "ups", "5174": "\u0120hadn", "5175": "\u0120worse", "5176": "\u0120Fifi", "5177": "Surpr", "5178": "\u0120vel", "5179": "\u0120hits", "5180": "\u0120bur", "5181": "xu", "5182": "\u0120velvet", "5183": "\u0120appear", "5184": "\u0120disagree", "5185": "do", "5186": "\u0120catching", "5187": "\u0120scattered", "5188": "\u0120Ro", "5189": "\u0120memories", "5190": "\u0120sorts", "5191": "\u0120Papa", "5192": "\u0120hers", "5193": "\u0120scolded", "5194": "\u0120signs", "5195": "\u0120pears", "5196": "\u0120oranges", "5197": "\u0120bones", "5198": "\u0120rang", "5199": "\u0120snapped", "5200": "\u0120sits", "5201": "\u0120seats", "5202": "uxu", "5203": "\u0120gazed", "5204": "\u0120raised", "5205": "Bl", "5206": "\u0120si", "5207": "\u0120Maria", "5208": "\u0120zipped", "5209": "\u0120pies", "5210": "\u0120prints", "5211": "\u0120shot", "5212": "\u0120sliding", "5213": "\u0120God", "5214": "\u0120fro", "5215": "\u0120easier", "5216": "ssible", "5217": "\u0120skills", "5218": "\u0120climbs", "5219": "\u0120twirled", "5220": "ccer", "5221": "\u0120blankets", "5222": "\u0120forgotten", "5223": "\u0120baked", "5224": "ester", "5225": "Yum", "5226": "esterday", "5227": "\u0120difference", "5228": "orted", "5229": "\u0120luxu", "5230": "\u0120golden", "5231": "ising", "5232": "\u0120kitty", "5233": "\u0120Tw", "5234": "\u0120cutting", "5235": "\u0120season", "5236": "aggie", "5237": "\u0120nowhere", "5238": "\u0120crow", "5239": "ah", "5240": "\u0120soccer", "5241": "\u0120dared", "5242": "\u0120bites", "5243": "\u0120Henry", "5244": "\u0120Harry", "5245": "anny", "5246": "\u0120lung", "5247": "\u0120celebrated", "5248": "choo", "5249": "chie", "5250": "\u0120straight", "5251": "\u0120unlocked", "5252": "sters", "5253": "\u0120sorting", "5254": "\u0120collected", "5255": "\u0120bleed", "5256": "aped", "5257": "ding", "5258": "\u0120welcomed", "5259": "\u0120visited", "5260": "\u0120spoons", "5261": "\u0120ours", "5262": "\u0120stitch", "5263": "\u0120jogging", "5264": "Surprise", "5265": "medi", "5266": "\u0120emer", "5267": "\u0120Spark", "5268": "mediately", "5269": "\u0120isn", "5270": "\u0120tong", "5271": "\u0120trave", "5272": "\u0120winner", "5273": "umble", "5274": "\u0120since", "5275": "\u0120ruin", "5276": "\u0120prett", "5277": "Ok", "5278": "Moral", "5279": "\u0120Tony", "5280": "\u0120attached", "5281": "\u0120weeping", "5282": "\u0120marching", "5283": "\u0120luxury", "5284": "\u0120simple", "5285": "\u0120Each", "5286": "\u0120shouldn", "5287": "\u0120guessed", "5288": "\u0120zero", "5289": "\u0120created", "5290": "\u0120stuffed", "5291": "\u0120pets", "5292": "ction", "5293": "\u0120waist", "5294": "\u0120famil", "5295": "\u0120urged", "5296": "\u0120bowed", "5297": "\u0120selling", "5298": "\u0120floating", "5299": "rr", "5300": "\u0120Smith", "5301": "\u0120bye", "5302": "\u0120King", "5303": "\u0120vict", "5304": "\u0120kingdom", "5305": "\u0120olives", "5306": "\u0120kicking", "5307": "\u0120Wiggly", "5308": "\u0120punished", "5309": "\u0120Liz", "5310": "\u0120Baby", "5311": "sit", "5312": "\u0120toes", "5313": "\u0120grant", "5314": "\u0120muscles", "5315": "\u0120jewels", "5316": "\u0120Rosie", "5317": "\u0120beds", "5318": "\u0120melted", "5319": "Goodbye", "5320": "\u0120slice", "5321": "\u0120grin", "5322": "\u0120understanding", "5323": "\u0120collection", "5324": "\u0120tore", "5325": "\u0120measured", "5326": "aker", "5327": "\u0120cras", "5328": "omeday", "5329": "iers", "5330": "\u0120trapped", "5331": "\u0120lined", "5332": "'ve", "5333": "\u0120acted", "5334": "fortunately", "5335": "\u0120encouraged", "5336": "va", "5337": "\u0120Sandy", "5338": "\u0120received", "5339": "\u0120waffles", "5340": "\u0120Before", "5341": "\u0120Wally", "5342": "\u0120west", "5343": "\u0120meow", "5344": "ents", "5345": "\u0120patterns", "5346": "rin", "5347": "ino", "5348": "\u0120brus", "5349": "eath", "5350": "\u0120mouths", "5351": "kins", "5352": "\u0120bang", "5353": "ring", "5354": "\u0120Kate", "5355": "Meow", "5356": "\u0120peaches", "5357": "\u0120breeze", "5358": "aded", "5359": "une", "5360": "\u0120printed", "5361": "\u0120soldiers", "5362": "\u0120someday", "5363": "\u0120potatoes", "5364": "\u0120pupil", "5365": "umes", "5366": "\u0120Millie", "5367": "\u0120drinks", "5368": "\u0120shed", "5369": "\u0120experience", "5370": "\u0120Tuna", "5371": "\u0120presents", "5372": "\u0120firef", "5373": "\u0120Ruby", "5374": "\u0120surround", "5375": "\u0120none", "5376": "osed", "5377": "\u0120voices", "5378": "eep", "5379": "\u0120drinking", "5380": "\u0120Uncle", "5381": "ishing", "5382": "\u0120relaxed", "5383": "\u0120victory", "5384": "cus", "5385": "\u0120paints", "5386": "\u0120breaking", "5387": "eve", "5388": "\u0120hurried", "5389": "ission", "5390": "\u0120twink", "5391": "\u0120tongue", "5392": "\u0120costumes", "5393": "\u0120flat", "5394": "\u0120mentioned", "5395": "\u0120begged", "5396": "\u0120teasing", "5397": "\u0120whistling", "5398": "\u0120fetch", "5399": "\u0120permission", "5400": "\u0120sip", "5401": "\u0120disagreed", "5402": "\u0120pearl", "5403": "\u0120six", "5404": "akes", "5405": "\u0120stro", "5406": "vest", "5407": "\u0120These", "5408": "\u0120esc", "5409": "\u0120appro", "5410": "\u0120skipping", "5411": "\u0120fishing", "5412": "\u0120May", "5413": "Leo", "5414": "\u0120highest", "5415": "\u0120pra", "5416": "\u0120watches", "5417": "\u0120sorted", "5418": "\u0120ringing", "5419": "ship", "5420": "\u0120tonight", "5421": "\u0120Bo", "5422": "\u0120opin", "5423": "\u0120lets", "5424": "icing", "5425": "\u0120Qu", "5426": "\u0120perfectly", "5427": "\u0120shadows", "5428": "\u0120immediately", "5429": "\u0120herbs", "5430": "\u0120warmth", "5431": "\u0120spit", "5432": "\u0120remained", "5433": "ther", "5434": "\u0120Its", "5435": "walk", "5436": "Bobby", "5437": "irring", "5438": "Jen", "5439": "\u0120sneak", "5440": "\u0120lips", "5441": "\u0120kneeled", "5442": "Blue", "5443": "\u0120contest", "5444": "\u0120Che", "5445": "utter", "5446": "\u0120cartoons", "5447": "\u0120sidewalk", "5448": "\u0120colours", "5449": "\u0120stamps", "5450": "\u0120ago", "5451": "Ha", "5452": "\u0120Toto", "5453": "\u0120Boo", "5454": "\u0120Follow", "5455": "\u0120east", "5456": "\u0120headed", "5457": "oved", "5458": "\",", "5459": "\u0120strang", "5460": "\u0120ladyb", "5461": "\u0120fed", "5462": "\u0120supposed", "5463": "\u0120roots", "5464": "\u0120lick", "5465": "\u0120crunch", "5466": "\u0120mixing", "5467": "\u0120works", "5468": "\u0120decorations", "5469": "\u0120melting", "5470": "\u0120known", "5471": "\u0120emergen", "5472": "Mandy", "5473": "\u0120rested", "5474": "\u0120Ab", "5475": "\u0120lines", "5476": "\u0120Suzy", "5477": "\u0120lily", "5478": "\u0120Jul", "5479": "\u0120instr", "5480": "\u0120laid", "5481": "\u0120Gr", "5482": "\u0120succeeded", "5483": "\u0120cones", "5484": "\u0120wiggle", "5485": "ety", "5486": "sing", "5487": "\u0120shock", "5488": "\u0120setting", "5489": "\u0120Slow", "5490": "\u0120studied", "5491": "\u0120strangers", "5492": "\u0120Rocky", "5493": "Really", "5494": "\u0120twigs", "5495": "\u0120brid", "5496": "\u0120theirs", "5497": "\u0120Dr", "5498": "\u0120girls", "5499": "boo", "5500": "!\",", "5501": "\u0120screams", "5502": "\u0120lands", "5503": "\u0120ordered", "5504": "\u0120stirring", "5505": "\u0120moments", "5506": "\u0120fields", "5507": "\u0120alright", "5508": "\u0120stealing", "5509": "ded", "5510": "Andy", "5511": "\u0120rul", "5512": "\u0120bravely", "5513": "avid", "5514": "\u0120Both", "5515": "\u0120mister", "5516": "!'", "5517": "\u0120invest", "5518": "\u0120scratched", "5519": "\u0120playtime", "5520": "\u0120ripped", "5521": "\u0120investig", "5522": "\u0120tucked", "5523": "\u0120resting", "5524": "\u0120burning", "5525": "ishes", "5526": "\u0120Clara", "5527": "\u0120Chicky", "5528": "\u0120bridges", "5529": "\u0120text", "5530": "\u0120officer", "5531": "please", "5532": "Sammy", "5533": "Bird", "5534": "abies", "5535": "\u0120settled", "5536": "\u0120matched", "5537": "\u0120achie", "5538": "\u0120texture", "5539": "Happy", "5540": "\u0120waits", "5541": "\u0120turning", "5542": "\u0120Sky", "5543": "Peter", "5544": "ored", "5545": "\u0120trembling", "5546": "isten", "5547": "\u0120nails", "5548": "atie", "5549": "\u0120muffins", "5550": "\u0120Someone", "5551": "ids", "5552": "\u0120escaped", "5553": "\u0120James", "5554": "\u0120piles", "5555": "\u0120investigate", "5556": "osity", "5557": "\u0120broom", "5558": "\u0120ladybug", "5559": "\u0120sore", "5560": "\u0120Pepper", "5561": "\u0120appreciate", "5562": "\u0120admir", "5563": "\u0120threat", "5564": "\u0120babies", "5565": "\u0120silence", "5566": "\u0120sisters", "5567": "\u0120emergency", "5568": "\u0120area", "5569": "ides", "5570": "\u0120dads", "5571": "\u0120answers", "5572": "\u0120pupp", "5573": "\u0120keys", "5574": "\u0120chewing", "5575": "\u0120slapped", "5576": "\u0120wiz", "5577": "\u0120importance", "5578": "Boo", "5579": "\u0120served", "5580": "\u0120Hop", "5581": "\u0120safety", "5582": "izing", "5583": "Bu", "5584": "Would", "5585": "\u0120sparkle", "5586": "\u0120touching", "5587": "\u0120Later", "5588": "\u0120soared", "5589": "igail", "5590": "\u0120sings", "5591": "\u0120hen", "5592": "allen", "5593": "Ella", "5594": "bers", "5595": "antly", "5596": "Momo", "5597": "\u0120Dino", "5598": "\u0120keeps", "5599": "\u0120amazement", "5600": "\u0120challen", "5601": "\u0120twin", "5602": "\u0120hesit", "5603": "\u0120revealed", "5604": "anna", "5605": "achel", "5606": "\u0120item", "5607": "\u0120dire", "5608": "\u0120soaked", "5609": "zing", "5610": "\u0120writ", "5611": "\u0120foods", "5612": "\u0120rides", "5613": "\u0120dinosaurs", "5614": "\u0120recorded", "5615": "\u0120tickle", "5616": "\u0120inch", "5617": "\u0120Zigzag", "5618": "\u0120Me", "5619": "\u0120wizard", "5620": "\u0120vet", "5621": "\u0120trips", "5622": "\u0120glowed", "5623": "\u0120An", "5624": "\u0120Frog", "5625": "Mmm", "5626": "\u0120hi", "5627": "\u0120beamed", "5628": "\u0120quack", "5629": "\u0120curled", "5630": "\u0120hated", "5631": "\u0120wink", "5632": "\u0120shopping", "5633": "\u0120eats", "5634": "Eventually", "5635": "\u0120Bug", "5636": "\u0120praised", "5637": "\u0120wooden", "5638": "\u0120bringing", "5639": "\u0120mittens", "5640": "\u0120studying", "5641": "\u0120guy", "5642": "\u0120brushes", "5643": "\u0120spaceship", "5644": "\u0120gust", "5645": "\u0120crawling", "5646": "\u0120Something", "5647": "Cat", "5648": "\u0120ruler", "5649": "\u0120flav", "5650": "\u0120downstairs", "5651": "\u0120shooting", "5652": "\u0120tastes", "5653": "\u0120napping", "5654": "\u0120sprinkles", "5655": "\u0120marks", "5656": "\u0120cuddled", "5657": "\u0120dot", "5658": "hello", "5659": "plash", "5660": "\u0120fut", "5661": "ales", "5662": "aved", "5663": "\u0120future", "5664": "\u0120monsters", "5665": "\u0120collecting", "5666": "\u0120measuring", "5667": "\u0120Happy", "5668": "'.", "5669": "\u0120families", "5670": "\u0120Out", "5671": "\u0120First", "5672": "\u0120Mo", "5673": "\u0120thrill", "5674": "\u0120oat", "5675": "irts", "5676": "\u0120result", "5677": "Jake", "5678": "\u0120approached", "5679": "\u0120Rabbit", "5680": "act", "5681": "\u0120crunchy", "5682": "Un", "5683": "\u0120remem", "5684": "\u0120bleeding", "5685": "\u0120remembers", "5686": "\u0120nicer", "5687": "\u0120beat", "5688": "\u0120sneaky", "5689": "\u0120disturbed", "5690": "\u0120leader", "5691": "\u0120scaring", "5692": "Or", "5693": "hind", "5694": "\u0120peel", "5695": "\u0120Hope", "5696": "\u0120firemen", "5697": "\u0120neighborhood", "5698": "\u0120Star", "5699": "\u0120grey", "5700": "\u0120Not", "5701": "\u0120motion", "5702": "\u0120noon", "5703": "\u0120possible", "5704": "Emily", "5705": "Somet", "5706": "\u0120apologized", "5707": "\u0120weighed", "5708": "ues", "5709": "\u0120Did", "5710": "\u0120tickets", "5711": "Cl", "5712": "\u0120naps", "5713": "\u0120loose", "5714": "\u0120pride", "5715": "\u0120youth", "5716": "\u0120swims", "5717": "ped", "5718": "\u0120strings", "5719": "\u0120recognized", "5720": "\u0120siren", "5721": "\u0120poking", "5722": "fied", "5723": "\u0120Ho", "5724": "cious", "5725": "ha", "5726": "elvet", "5727": "\u0120tricked", "5728": "\u0120wonders", "5729": "\u0120gained", "5730": "\u0120wanting", "5731": "\u0120crashed", "5732": "\u0120obe", "5733": "\u0120seesaw", "5734": "\u0120worker", "5735": "unnies", "5736": "ls", "5737": "oming", "5738": "\u0120draws", "5739": "\u0120scooped", "5740": ".'", "5741": "\u0120zooming", "5742": "\u0120opinion", "5743": "\u0120yelling", "5744": "\u0120prepared", "5745": "\u0120grinned", "5746": "\u0120Slowly", "5747": "\u0120awe", "5748": "\u0120poems", "5749": "\u0120doggy", "5750": "\u0120acting", "5751": "\u0120Beep", "5752": "\u0120happiest", "5753": "\u0120chef", "5754": "\u0120sneaked", "5755": "\u0120respons", "5756": "\u0120eff", "5757": "\u0120Always", "5758": "\u0120Lizzy", "5759": "\u0120owned", "5760": "\u0120bunnies", "5761": "\u0120anytime", "5762": "\u0120struck", "5763": "\u0120pedals", "5764": "oys", "5765": "\u0120knelt", "5766": "ena", "5767": "Ollie", "5768": "\u0120secrets", "5769": "\u0120pause", "5770": "\u0120decorated", "5771": "\u0120horns", "5772": "\u0120agreement", "5773": "\u0120Squ", "5774": "ided", "5775": "\u0120frost", "5776": "\u0120tallest", "5777": "\u0120obey", "5778": "Remember", "5779": "riends", "5780": "ogo", "5781": "\u0120Stop", "5782": "Have", "5783": "\u0120decides", "5784": "\u0120Once", "5785": "\u0120behaved", "5786": "\u0120tugged", "5787": "\u0120sides", "5788": "\u0120woof", "5789": "\u0120slim", "5790": "zen", "5791": "\u0120goodnight", "5792": "\u0120keeper", "5793": "\u0120sparkling", "5794": "\u0120chirped", "5795": "\u0120precious", "5796": "mother", "5797": "lier", "5798": "ien", "5799": "Tr", "5800": "\u0120repeated", "5801": "\u0120claps", "5802": "indy", "5803": "affes", "5804": "\u0120snowballs", "5805": "\u0120contain", "5806": "ud", "5807": "rs", "5808": "\u0120Ray", "5809": "\u0120ourselves", "5810": "allow", "5811": "\u0120giraffes", "5812": "\u0120balancing", "5813": "\u0120kindly", "5814": "\u0120spending", "5815": "\u0120writes", "5816": "ays", "5817": "ppers", "5818": "\u0120Like", "5819": "omas", "5820": "\u0120prop", "5821": "\u0120hissed", "5822": "First", "5823": "\u0120frozen", "5824": "\u0120frosting", "5825": "\u0120effort", "5826": "\u0120buzzing", "5827": "\u0120struggled", "5828": "\u0120Steve", "5829": "\u0120admiring", "5830": "\u0120rele", "5831": "iggy", "5832": "\u0120sweeties", "5833": "\u0120Velvet", "5834": "\u0120slimy", "5835": "\u0120brushed", "5836": "\u0120bloomed", "5837": "Susie", "5838": "\u0120Am", "5839": "\u0120polished", "5840": "\u0120Zoe", "5841": "arth", "5842": "anted", "5843": "\u0120comfy", "5844": "\u0120boo", "5845": "\u0120staying", "5846": "\u0120rubbing", "5847": "Ducky", "5848": "\u0120rocking", "5849": "\u0120pockets", "5850": "\u0120thrilled", "5851": "\u0120beside", "5852": "\u0120comple", "5853": "\u0120Aunt", "5854": "\u0120Maggie", "5855": "Ah", "5856": "\u0120eight", "5857": "urry", "5858": "isdom", "5859": "\u0120machines", "5860": "\u0120earlier", "5861": "\u0120yesterday", "5862": "\u0120seems", "5863": "\u0120rust", "5864": "\u0120Keep", "5865": "Sp", "5866": "\u0120traveled", "5867": "\u0120folding", "5868": "\u0120boom", "5869": "\u0120cracked", "5870": "ities", "5871": "\u0120hugging", "5872": "\u0120radishes", "5873": "\u0120Stitch", "5874": "\u0120opening", "5875": "\u0120loving", "5876": "\u0120circus", "5877": "\u0120surrounded", "5878": "\u0120curiosity", "5879": "\u0120Rachel", "5880": "\u0120spraying", "5881": "\u0120demanded", "5882": "oh", "5883": "\u0120paintings", "5884": "amie", "5885": "\u0120Green", "5886": "\u0120removed", "5887": "\u0120gaze", "5888": "\u0120honk", "5889": "\u0120pebbles", "5890": "\u0120zookeeper", "5891": "\u0120hardly", "5892": "\u0120catches", "5893": "edding", "5894": "\u0120sting", "5895": "\u0120stripes", "5896": "\u0120powers", "5897": "\u0120loaded", "5898": "\u0120Pippa", "5899": "Sometimes", "5900": "\u0120splashes", "5901": "\u0120pots", "5902": "\u0120petted", "5903": "\u0120matching", "5904": "\u0120David", "5905": "Thanks", "5906": "\u0120toss", "5907": "\u0120stare", "5908": "\u0120belly", "5909": "Yummy", "5910": "ibb", "5911": "\u0120whatever", "5912": "\u0120apologize", "5913": "\u0120rocked", "5914": "\u0120comforted", "5915": "\u0120Bree", "5916": "\u0120decision", "5917": "ern", "5918": "\u0120ribbons", "5919": "\u0120Joy", "5920": "\u0120Birdie", "5921": "\u0120struggling", "5922": "\u0120expected", "5923": "\u0120deser", "5924": "\u0120steep", "5925": "wh", "5926": "\u0120protected", "5927": "\u0120neighbors", "5928": "\u0120smiley", "5929": "\u0120chases", "5930": "During", "5931": "\u0120granted", "5932": "\u0120crumb", "5933": "\u0120Mat", "5934": "\u0120purred", "5935": "\u0120diving", "5936": "\u0120sadness", "5937": "Whiskers", "5938": "\u0120organizing", "5939": "lowers", "5940": "\u0120eagle", "5941": "\u0120heroes", "5942": "\u0120dipped", "5943": "\u0120sunlight", "5944": "\u0120lied", "5945": "\u0120pastels", "5946": "\u0120Frank", "5947": "Ex", "5948": "\u0120safer", "5949": "\u0120roads", "5950": "\u0120scru", "5951": "\u0120argued", "5952": "\u0120Milly", "5953": "\u0120goals", "5954": "\u0120Water", "5955": "\u0120discovery", "5956": "\u0120Abigail", "5957": "\u0120villag", "5958": "\u0120peered", "5959": "Ro", "5960": "\u0120Bouncy", "5961": "use", "5962": "ana", "5963": "loe", "5964": "\u0120tim", "5965": "\u0120dragons", "5966": "\u0120buildings", "5967": "\u0120buckets", "5968": "\u0120parties", "5969": "\u0120beard", "5970": "\u0120wedding", "5971": "Rex", "5972": "\u0120flutter", "5973": "\u0120planets", "5974": "\u0120ann", "5975": "\u0120Robby", "5976": "\u0120polishing", "5977": "\u0120fasc", "5978": "ira", "5979": "\u0120released", "5980": "\u0120Chr", "5981": "\u0120crabs", "5982": "\u0120Gogo", "5983": "\u0120tails", "5984": "\u0120Watch", "5985": "\u0120sausages", "5986": "\u0120Ju", "5987": "\u0120argu", "5988": "\u0120contro", "5989": "\u0120bottles", "5990": "\u0120wiggled", "5991": "\u0120teased", "5992": "uke", "5993": "\u0120arguing", "5994": "\u0120sled", "5995": "\u0120dragged", "5996": "\u0120padd", "5997": "\u0120Car", "5998": "\u0120roaring", "5999": "\u0120clearing", "6000": "\u0120shirts", "6001": "\u0120movies", "6002": "\u0120gathering", "6003": "\u0120airpl", "6004": "\u0120wid", "6005": "joyed", "6006": "\u0120teaches", "6007": "\u0120spiders", "6008": "\u0120limes", "6009": "\u0120Remember", "6010": "\u0120Dare", "6011": "\u0120overjoyed", "6012": "\u0120actually", "6013": "\u0120sighs", "6014": "\u0120continue", "6015": "\u0120cuddle", "6016": "\u0120soaring", "6017": "\u0120smallest", "6018": "\u0120Jess", "6019": "\u0120drives", "6020": "\u0120sparkles", "6021": "\u0120rip", "6022": "\u0120situ", "6023": "\u0120cubes", "6024": "\u0120refres", "6025": "\u0120talent", "6026": "\u0120challenge", "6027": "\u0120Olly", "6028": "\u0120grandmother", "6029": "\u0120Splash", "6030": "\u0120pouring", "6031": "umm", "6032": "\u0120pretends", "6033": "\u0120fascin", "6034": "\u0120cuts", "6035": "\u0120quarreling", "6036": "\u0120peppers", "6037": "\u0120bank", "6038": "ten", "6039": "\u0120shivered", "6040": "\u0120mane", "6041": "\u0120dusty", "6042": "ley", "6043": "\u0120wondering", "6044": "\u0120villagers", "6045": "\u0120stretching", "6046": "njoy", "6047": "ib", "6048": "\u0120weeks", "6049": "\u0120wherever", "6050": "\u0120darker", "6051": "jam", "6052": "Tiny", "6053": "sses", "6054": "\u0120X", "6055": "\u0120rings", "6056": "\u0120onwards", "6057": "\u0120Katie", "6058": "\u0120united", "6059": "Achoo", "6060": "\u0120bead", "6061": "\u0120Everyday", "6062": "\u0120Being", "6063": "\u0120prettiest", "6064": "Johnny", "6065": "\u0120caut", "6066": "\u0120realize", "6067": "\u0120company", "6068": "\u0120penguins", "6069": "annah", "6070": "Luna", "6071": "Fr", "6072": "\u0120Spring", "6073": "\u0120bedtime", "6074": "\u0120completed", "6075": "\u0120Wisdom", "6076": "\u0120Leave", "6077": "\u00e2\u0122\u013f.", "6078": "\u0120knights", "6079": "\u0120flags", "6080": "\u0120Je", "6081": "\u0120Because", "6082": "\u0120playroom", "6083": "\u0120Prin", "6084": "\u0120actions", "6085": "\u0120Zero", "6086": "\u0120learns", "6087": "\u0120gotten", "6088": "\u0120patience", "6089": "inda", "6090": "dam", "6091": "\u0120shrug", "6092": "\u0120kites", "6093": "\u0120responsible", "6094": "\u0120fears", "6095": "\u0120destination", "6096": "\u0120wires", "6097": "\u0120reply", "6098": "\u0120wrist", "6099": "\u0120dam", "6100": "aws", "6101": "\u0120packing", "6102": "\u0120mountains", "6103": "\u0120fault", "6104": "\u0120applauded", "6105": "\u0120scrubbed", "6106": "\u0120ma", "6107": "\u0120crept", "6108": "\u0120Ava", "6109": "Uh", "6110": "\u0120Earth", "6111": "\u0120satis", "6112": "\u0120third", "6113": "\u0120phot", "6114": "\u0120pencils", "6115": "\u0120wins", "6116": "\u0120sticking", "6117": "\u0120baker", "6118": "\u0120visiting", "6119": "\u0120wound", "6120": "\u0120uses", "6121": "\u0120peas", "6122": "\u0120reminder", "6123": "\u0120control", "6124": "ashed", "6125": "Grandpa", "6126": "\u0120joking", "6127": "\u0120awake", "6128": "\u0120instruct", "6129": "\u0120staring", "6130": "\u0120healed", "6131": "\u0120Put", "6132": "\u0120hitting", "6133": "\u0120Fish", "6134": "\u0120screaming", "6135": "\u0120begin", "6136": "Rob", "6137": "uckily", "6138": "\u0120Friends", "6139": "\u0120Moo", "6140": "icorn", "6141": "\u0120helmets", "6142": "enty", "6143": "\u0120unicorn", "6144": "ler", "6145": "seek", "6146": "\u0120towels", "6147": "Silly", "6148": "\u0120Lou", "6149": "\u0120chips", "6150": "ica", "6151": "\u0120creation", "6152": "\u0120wasted", "6153": "bie", "6154": "Mar", "6155": "\u0120Behind", "6156": "laire", "6157": "\u0120masks", "6158": "\u0120items", "6159": "\u0120forgi", "6160": "\u0120firefight", "6161": "\u0120outdo", "6162": "\u0120lollipops", "6163": "Watch", "6164": "\u0120heav", "6165": "\u0120guns", "6166": "\u0120died", "6167": "\u0120Hippy", "6168": "\u0120seas", "6169": "\u0120glitter", "6170": "uddles", "6171": "\u0120arrive", "6172": "\u0120weren", "6173": "\u0120stole", "6174": "\u0120scales", "6175": "\u0120perched", "6176": "\u0120accom", "6177": "\u0120logs", "6178": "\u0120achieve", "6179": "die", "6180": "\u0120practicing", "6181": "ining", "6182": "\u0120whose", "6183": "Stay", "6184": "\u0120pumpkins", "6185": "\u0120instructions", "6186": "\u0120swoop", "6187": "\u0120batteries", "6188": "\u0120candies", "6189": "\u0120agrees", "6190": "\u0120project", "6191": "\u0120snakes", "6192": "\u0120chirping", "6193": "Benny", "6194": "\u0120shelves", "6195": "\u0120protecting", "6196": "\u0120parked", "6197": "\u0120exact", "6198": "\u0120Cra", "6199": "\u0120patiently", "6200": "\u0120activ", "6201": "\u0120videos", "6202": "\u0120shoulders", "6203": "\u0120blows", "6204": "hee", "6205": "Fo", "6206": "\u0120promises", "6207": "go", "6208": "\u0120dent", "6209": "usan", "6210": "uest", "6211": "ners", "6212": "jamas", "6213": "\u0120examined", "6214": "\u0120airplane", "6215": "Doggy", "6216": "\u0120roses", "6217": "\u0120accompl", "6218": "\u0120tasks", "6219": "Dave", "6220": "\u0120Hoot", "6221": "Poppy", "6222": "\u0120Bop", "6223": "Bunny", "6224": "\u0120beads", "6225": "\u0120bowls", "6226": "\u0120crumbs", "6227": "zes", "6228": "\u0120listens", "6229": "\u0120Love", "6230": "\u0120Catty", "6231": "\u0120Brownie", "6232": "Pete", "6233": "\u0120Ol", "6234": "\u0120dolphins", "6235": "\u0120cough", "6236": "\u0120bunch", "6237": "\u0120guest", "6238": "cakes", "6239": "\u0120requested", "6240": "\u0120remote", "6241": "\u0120improved", "6242": "anta", "6243": "\u0120reaching", "6244": "\u0120brand", "6245": "\u0120Jan", "6246": "ayla", "6247": "\u0120alien", "6248": "\u0120Bye", "6249": "irm", "6250": "\u0120copy", "6251": "\u0120Sun", "6252": "\u0120cheering", "6253": "\u0120photos", "6254": "\u0120Julie", "6255": "\u0120Chew", "6256": "Bad", "6257": "\u0120Blink", "6258": "Time", "6259": "\u0120cans", "6260": "\u0120Cuddles", "6261": "\u0120timer", "6262": "\u0120By", "6263": "\u0120replaced", "6264": "athy", "6265": "\u0120workers", "6266": "\u0120stern", "6267": "\u0120Enjoy", "6268": "aster", "6269": "\u0120neither", "6270": "Mike", "6271": "\u0120passing", "6272": "\u0120misses", "6273": "\u0120curtains", "6274": "\u0120confl", "6275": "Chirpy", "6276": "\u0120rainbows", "6277": "\u0120rubs", "6278": "George", "6279": "uctantly", "6280": "\u0120rolls", "6281": "\u0120patted", "6282": "ilo", "6283": "\u0120pajamas", "6284": "\u0120outdoors", "6285": "esome", "6286": "dies", "6287": "\u0120complaining", "6288": "\u0120Squirrel", "6289": "\u0120\u0120", "6290": "Lola", "6291": "Run", "6292": "\u0120puppet", "6293": "\u0120Princess", "6294": "\u0120closes", "6295": "\u0120beneath", "6296": "\u0120lap", "6297": "\u0120drums", "6298": "\u0120tune", "6299": "\u0120Beth", "6300": "\u0120Mouse", "6301": "\u0120filling", "6302": "Miss", "6303": "angled", "6304": "\u0120refuse", "6305": "\u0120Sorry", "6306": "\u0120sweat", "6307": "\u0120faced", "6308": "...", "6309": "\u0120seven", "6310": "\u0120balanced", "6311": "\u0120rescued", "6312": "neath", "6313": "bl", "6314": "\u0120quacked", "6315": "\u0120Abby", "6316": "Paul", "6317": "istle", "6318": "\u0120awesome", "6319": "\u01201", "6320": "\u0120mission", "6321": "\u0120However", "6322": "\u0120guys", "6323": "\u0120conflict", "6324": "\u0120cautious", "6325": "\u0120vent", "6326": "\u0120observed", "6327": "\u0120cause", "6328": "\u0120introduc", "6329": "\u0120Thomas", "6330": "\u0120pastries", "6331": "nie", "6332": "\u0120Our", "6333": "\u0120exactly", "6334": "\u0120doctors", "6335": "\u0120rule", "6336": "\u0120becoming", "6337": "\u0120policeman", "6338": "\u0120mes", "6339": "uly", "6340": "\u0120rockets", "6341": "you", "6342": "\u0120Yes", "6343": "\u0120Dot", "6344": "\u0120fairies", "6345": "lay", "6346": "\u0120pout", "6347": "An", "6348": "\u0120insist", "6349": "\u0120blooming", "6350": "\u0120tractor", "6351": "\u0120farther", "6352": "\u0120Sad", "6353": "avi", "6354": "Oops", "6355": "Great", "6356": "\u0120remembering", "6357": "\u0120included", "6358": "\u0120curly", "6359": "Zoom", "6360": "Fine", "6361": "\u0120teamwork", "6362": "zie", "6363": "\u0120fascinated", "6364": "\u0120wobbled", "6365": "\u0120slam", "6366": "\u0120truly", "6367": "\u0120helpers", "6368": "\u0120sights", "6369": "\u0120paddle", "6370": "\u0120stumble", "6371": "\u0120firm", "6372": "Henry", "6373": "\u0120Jilly", "6374": "acob", "6375": "\u0120caused", "6376": "\u0120prayer", "6377": "\u0120spong", "6378": "\u0120recording", "6379": "kelly", "6380": "ais", "6381": "\u0120traded", "6382": "\u0120starfish", "6383": "\u0120supplies", "6384": "\u0120thro", "6385": "\u0120pointy", "6386": "\u0120situation", "6387": "\u0120inviting", "6388": "eah", "6389": "gers", "6390": "\u0120neighbourhood", "6391": "\u0120everyday", "6392": "\u0120ornaments", "6393": "\u0120Ally", "6394": "inkle", "6395": "\u0120valued", "6396": "\u0120adding", "6397": "Some", "6398": "\u0120reluctantly", "6399": "\u0120dots", "6400": "\u0120stays", "6401": "\u0120tables", "6402": "\u0120prettier", "6403": "\u0120bare", "6404": "\u0120desert", "6405": "\u0120snowmen", "6406": "\u0120steady", "6407": "\u0120minerals", "6408": "araway", "6409": "\u0120thorn", "6410": "ody", "6411": "\u0120ast", "6412": "\u0120glasses", "6413": "\u0120faraway", "6414": "\u0120Get", "6415": "\u0120Foxy", "6416": "\u0120swooped", "6417": "\u0120Welcome", "6418": "\u0120Two", "6419": "\u0120Sure", "6420": "\u0120unf", "6421": "\u0120forks", "6422": "\u0120usually", "6423": "\u0120usual", "6424": "Polly", "6425": "\u0120dar", "6426": "\u0120Jamie", "6427": "\u0120winked", "6428": "\u0120sneezing", "6429": "\u0120solut", "6430": "\u0120loading", "6431": "\u0120sponge", "6432": "\u0120Quick", "6433": "\u0120insects", "6434": "\u0120pans", "6435": "Dog", "6436": "\u0120sobbed", "6437": "\u0120Santa", "6438": "James", "6439": "\u0120growling", "6440": "sm", "6441": "arter", "6442": "\u0120throat", "6443": "\u0120Chloe", "6444": "\u0120noses", "6445": "\u0120Josh", "6446": "\u0120Dizzy", "6447": "\u0120scarves", "6448": "\u0120confident", "6449": "\u0120yourselves", "6450": "\u0120Want", "6451": "agull", "6452": "\u0120homework", "6453": "\u0120superheroes", "6454": "\u0120Stay", "6455": "Joey", "6456": "\u0120smarter", "6457": "\u0120windy", "6458": "\u0120librarian", "6459": "Tina", "6460": "\u0120Kids", "6461": "\u0120gems", "6462": "Days", "6463": "ora", "6464": "\u0120underneath", "6465": "\u0120kicks", "6466": "\u0120knowled", "6467": "\u0120itchy", "6468": "\u0120knowledge", "6469": "\u0120jackets", "6470": "\u0120Skelly", "6471": "\u0120For", "6472": "\u0120surface", "6473": "\u0120untie", "6474": "\u0120comm", "6475": "\u0120Duck", "6476": "\u0120princesses", "6477": "...\"", "6478": "Those", "6479": "ido", "6480": "eed", "6481": "Hold", "6482": "Yeah", "6483": "coon", "6484": "\u0120squares", "6485": "\u0120Henny", "6486": "\u0120warnings", "6487": "\u0120giggling", "6488": "iar", "6489": "\u0120reads", "6490": "vin", "6491": "Our", "6492": "\u0120choo", "6493": "\u0120younger", "6494": "\u0120clowns", "6495": "\u0120Mix", "6496": "Toby", "6497": "son", "6498": "\u0120ropes", "6499": "\u0120biting", "6500": "\u0120crowd", "6501": "\u0120Unfortunately", "6502": "pite", "6503": "Danny", "6504": "True", "6505": "\u0120seagull", "6506": "\u0120paddled", "6507": "\u0120wears", "6508": "\u0120delivered", "6509": "\u0120Mon", "6510": "\u0120twirl", "6511": "\u0120onions", "6512": "\u0120buzzed", "6513": "\u0120complained", "6514": "\u0120bumpy", "6515": "\u0120stem", "6516": "Ew", "6517": "\u0120piggy", "6518": "Mrs", "6519": "\u0120Anne", "6520": "\u0120direction", "6521": "ouch", "6522": "\u0120dived", "6523": "Roar", "6524": "\u0120tangled", "6525": "\u0120startled", "6526": "ults", "6527": "\u0120leaning", "6528": "bbie", "6529": "\u0120Ant", "6530": "\u0120Jones", "6531": "\u0120badge", "6532": "\u0120Po", "6533": "Grace", "6534": "\u0120unp", "6535": "\u0120deal", "6536": "though", "6537": "Annie", "6538": "\u0120vowed", "6539": "\u0120napkins", "6540": "anes", "6541": "\u0120tickled", "6542": "\u0120risk", "6543": "\u0120covers", "6544": "\u0120pec", "6545": "Shh", "6546": "\u0120yells", "6547": "\u0120satisfied", "6548": "int", "6549": "\u0120knocks", "6550": "\u0120refreshed", "6551": "tuce", "6552": "\u0120Sc", "6553": "cuse", "6554": "\u0120cous", "6555": "\u0120arrows", "6556": "Maggie", "6557": "\u0120Whistle", "6558": "Pe", "6559": "\u0120wipes", "6560": "\u0120speaking", "6561": "\u0120lettuce", "6562": "\u0120guessing", "6563": "Unfortunately", "6564": "\u0120Quack", "6565": "\u0120ripe", "6566": "\u0120Susan", "6567": "\u0120hides", "6568": "\u0120choices", "6569": "\u0120Dodo", "6570": "\u0120Rover", "6571": "Buzz", "6572": "\u0120signed", "6573": "\u0120slower", "6574": "\u0120seeker", "6575": "\u0120introduced", "6576": "\u0120singer", "6577": "\u0120creating", "6578": "\u0120Matt", "6579": "\u0120froze", "6580": "\u0120cent", "6581": "uggles", "6582": "\u0120joked", "6583": "\u0120squeal", "6584": "\u0120toaster", "6585": "\u0120explorers", "6586": "\u0120avo", "6587": "anging", "6588": "Sophie", "6589": "\u0120praying", "6590": "\u0120written", "6591": "\u0120discovering", "6592": "\u0120provided", "6593": "\u0120Dara", "6594": "\u0120refle", "6595": "\u0120Lion", "6596": "Excuse", "6597": "\u0120mushrooms", "6598": "\u0120Jeff", "6599": "\u0120Paws", "6600": "\u0120paying", "6601": "\u0120knees", "6602": "fit", "6603": "ences", "6604": "\u0120hider", "6605": "\u0120wandering", "6606": "\u0120Ash", "6607": "\u0120images", "6608": "Charlie", "6609": "\u0120stung", "6610": "\u0120Wink", "6611": "\u0120magnets", "6612": "\u0120barely", "6613": "\u0120behaving", "6614": "\u0120tipto", "6615": "?\",", "6616": "\u0120marked", "6617": "brush", "6618": "rrr", "6619": "\u0120restored", "6620": "\u0120Dee", "6621": "\u0120leading", "6622": "lled", "6623": "\u0120chuck", "6624": "ados", "6625": "\u0120nine", "6626": "\u0120greet", "6627": "Teddy", "6628": "\u0120gears", "6629": "\u0120bravery", "6630": "\u0120Snuggles", "6631": "ky", "6632": "\u0120competition", "6633": "eal", "6634": "\u0120outfit", "6635": "oline", "6636": "\u0120wishing", "6637": "\u0120properly", "6638": "\u0120ventured", "6639": "tle", "6640": "aa", "6641": "\u0120muscle", "6642": "\u0120dances", "6643": "\u0120chat", "6644": "\u0120salty", "6645": "\u0120pens", "6646": "amb", "6647": "\u0120Betsy", "6648": "\u0120ranger", "6649": "\u0120Ziggy", "6650": "\u0120deserve", "6651": "\u0120however", "6652": "sequ", "6653": "\u0120matters", "6654": "\u0120darkness", "6655": "\u0120burst", "6656": "\u0120Fu", "6657": "\u0120rainy", "6658": "\u0120cobwebs", "6659": "\u0120ruining", "6660": "\u0120chefs", "6661": "\u0120consequ", "6662": "\u0120blocking", "6663": "\u0120bak", "6664": "usted", "6665": "itely", "6666": "sty", "6667": "\u0120scur", "6668": "\u0120vines", "6669": "\u0120fab", "6670": "abel", "6671": "\u0120fabric", "6672": "\u0120entire", "6673": "\u0120basement", "6674": "\u0120performed", "6675": "\u0120least", "6676": "\u0120Buggy", "6677": "Sn", "6678": "\u0120scratches", "6679": "\u0120heavier", "6680": "\u0120Claire", "6681": "\u0120mints", "6682": "\u0120twirling", "6683": "\u0120avocados", "6684": "However", "6685": "\u0120Linda", "6686": "rink", "6687": "fl", "6688": "\u0120scurried", "6689": "\u0120losing", "6690": "\u0120sunflowers", "6691": "\u0120Jenna", "6692": "\u0120rainco", "6693": "\u0120swords", "6694": "Tweet", "6695": "\u0120click", "6696": "agic", "6697": "\u0120Laser", "6698": "\u0120silent", "6699": "\u0120jobs", "6700": "\u0120necklaces", "6701": "\u0120flames", "6702": "\u0120Luke", "6703": "\u0120relief", "6704": "\u0120Grumpy", "6705": "\u0120snat", "6706": "\u0120sewed", "6707": "\u0120rotting", "6708": "len", "6709": "Listen", "6710": "Follow", "6711": "\u0120tricky", "6712": "Jerry", "6713": "\u0120lighter", "6714": "ophia", "6715": "\u0120bows", "6716": "\u0120Skip", "6717": "\u0120exha", "6718": "\u0120solution", "6719": "\u0120consequences", "6720": "Alex", "6721": "\u0120Lena", "6722": "\u0120tires", "6723": "\u0120stain", "6724": "\u0120Pr", "6725": "Beep", "6726": "\u0120unpacked", "6727": "Ab", "6728": "\u0120partic", "6729": "rance", "6730": "\u0120races", "6731": "\u0120pins", "6732": "\u0120bumps", "6733": "\u0120wraps", "6734": "aisies", "6735": "\u0120wow", "6736": "\u0120decorating", "6737": "\u0120backed", "6738": "cher", "6739": "\u0120dentist", "6740": "\u0120purr", "6741": "\u0120needles", "6742": "\u0120cautiously", "6743": "\u0120lifting", "6744": "izzie", "6745": "\u0120accomplish", "6746": "\u0120triangles", "6747": "\u0120daisies", "6748": "ept", "6749": "\u0120hesitated", "6750": "\u0120annoy", "6751": "\u0120Those", "6752": "\u0120growls", "6753": "\u0120crackers", "6754": "oke", "6755": "\u0120stomped", "6756": "\u0120grabbing", "6757": "\u0120cott", "6758": "\u0120figured", "6759": "\u0120bodies", "6760": "\u0120mater", "6761": "\u0120buying", "6762": "\u0120Tree", "6763": "\u0120material", "6764": "\u0120Rolly", "6765": "\u0120Fido", "6766": "\u0120Adam", "6767": "\u0120swans", "6768": "\u0120ties", "6769": "\u0120gri", "6770": "vers", "6771": "\u0120grows", "6772": "\u0120\u010a\u0120", "6773": "\u0120sweets", "6774": "\u0120Goodbye", "6775": "\u0120owners", "6776": "\u0120flavor", "6777": "\u0120cheeks", "6778": "\u0120Cathy", "6779": "Big", "6780": "\u0120suffering", "6781": "\u0120Jessie", "6782": "\u0120El", "6783": "vroom", "6784": "\u0120fact", "6785": "\u0120groups", "6786": "bly", "6787": "\u0120forehead", "6788": "\u0120lungs", "6789": "Harry", "6790": "\u0120repa", "6791": "\u0120interested", "6792": "\u0120bakery", "6793": "\u0120Milo", "6794": "\u0120freed", "6795": "Lilly", "6796": "itches", "6797": "\u0120Nothing", "6798": "\u0120chuckled", "6799": "For", "6800": "\u0120swept", "6801": "\u0120conn", "6802": "?'", "6803": "\u0120thud", "6804": "\u0120exhausted", "6805": "Tw", "6806": "\u0120twinkling", "6807": "\u0120tapped", "6808": "Ru", "6809": "\u0120nect", "6810": "rosty", "6811": "\u0120nectar", "6812": "elle", "6813": "\u0120feast", "6814": "\u0120darling", "6815": "indr", "6816": "\u0120Mad", "6817": "\u0120worries", "6818": "\u0120uns", "6819": "\u0120tunnels", "6820": "\u0120fuzzy", "6821": "\u0120repaired", "6822": "\u0120reason", "6823": "\u0120Trust", "6824": "\u0120Copper", "6825": "\u0120Ball", "6826": "\u0120activities", "6827": "lets", "6828": "\u0120pecked", "6829": "\u0120Hannah", "6830": "\u0120entrance", "6831": "\u0120Try", "6832": "\u0120raindr", "6833": "\u0120meals", "6834": "\u0120Listen", "6835": "\u0120particular", "6836": "\u0120completely", "6837": "\u0120mailed", "6838": "ctions", "6839": "\u0120nests", "6840": "\u0120waiter", "6841": "\u0120cuddly", "6842": "\u0120sense", "6843": "\u0120Nana", "6844": "\u0120colored", "6845": "arky", "6846": "\u0120leap", "6847": "step", "6848": "band", "6849": "\u0120plenty", "6850": "\u0120peeking", "6851": "\u0120slammed", "6852": "\u0120Cara", "6853": "no", "6854": "\u0120players", "6855": "\u0120month", "6856": "\u0120budge", "6857": "\u0120Birthday", "6858": "\u0120Q", "6859": "\u0120scra", "6860": "\u0120forgets", "6861": "\u0120den", "6862": "\u0120handful", "6863": "\u0120Oliver", "6864": "\u0120mer", "6865": "ossible", "6866": "\u0120genie", "6867": "\u0120Christ", "6868": "\u0120stool", "6869": "iggie", "6870": "\u0120talks", "6871": "\u0120Pup", "6872": "\u0120Suzie", "6873": "\u0120passports", "6874": "\u0120feeding", "6875": "\u0120films", "6876": "\u0120baths", "6877": "\u0120impossible", "6878": "\u0120determination", "6879": "May", "6880": "\u0120printing", "6881": "boat", "6882": "\u0120designed", "6883": "\u0120buses", "6884": "\u0120opp", "6885": "ueen", "6886": "lephant", "6887": "\u0120suitcase", "6888": "\u0120bars", "6889": "\u0120counts", "6890": "\u0120stolen", "6891": "\u0120spreading", "6892": "\u0120spikes", "6893": "\u0120Snap", "6894": "\u0120wiping", "6895": "\u0120steer", "6896": "\u0120lamb", "6897": "\u0120Rain", "6898": "\u0120honked", "6899": "etty", "6900": "nies", "6901": "Whee", "6902": "\u0120cowb", "6903": "\u0120separated", "6904": "blings", "6905": "\u0120siblings", "6906": "\u0120hops", "6907": "\u0120chop", "6908": "\u0120sewing", "6909": "\u0120fires", "6910": "\u0120Twinkle", "6911": "\u0120fever", "6912": "\u0120twinkle", "6913": "\u0120ty", "6914": "\u0120camping", "6915": "\u0120Mira", "6916": "\u0120lower", "6917": "\u0120changing", "6918": "yes", "6919": "retch", "6920": "\u0120behavi", "6921": "\u0120Bloom", "6922": "mas", "6923": "\u0120liqu", "6924": "\u0120celebration", "6925": "but", "6926": "\u0120squealed", "6927": "\u0120dollhouse", "6928": "Sunny", "6929": "\u0120backward", "6930": "\u0120age", "6931": "\u0120snatched", "6932": "\u0120cash", "6933": "ho", "6934": "\u0120twice", "6935": "lee", "6936": "\u0120sway", "6937": "itched", "6938": "\u0120celebrating", "6939": "\u0120Peanut", "6940": "\u0120shrinking", "6941": "\u0120ache", "6942": "weed", "6943": "\u0120kings", "6944": "rious", "6945": "\u0120shops", "6946": "\u0120kittens", "6947": "cope", "6948": "Rose", "6949": "\u0120Jessica", "6950": "\u0120Jacob", "6951": "\u0120Gina", "6952": "aura", "6953": "\u0120hus", "6954": "\u0120touches", "6955": "airy", "6956": "\u0120pancakes", "6957": "\u0120avoid", "6958": "\u0120spat", "6959": "\u0120Frosty", "6960": "rig", "6961": "hog", "6962": "\u0120Nina", "6963": "\u0120paths", "6964": "ives", "6965": "cky", "6966": "\u0120Hold", "6967": "\u0120rotten", "6968": "\u0120calmed", "6969": "Sandy", "6970": "\u0120seaweed", "6971": "\u0120dropping", "6972": "\u0120Jon", "6973": "\u0120Mel", "6974": "iles", "6975": "Pipp", "6976": "\u0120twisting", "6977": "\u0120stroked", "6978": "\u0120untied", "6979": "llen", "6980": "\u0120playhouse", "6981": "ne", "6982": "Millie", "6983": "\u0120students", "6984": "\u0120puppies", "6985": "cl", "6986": "hi", "6987": "\u0120screws", "6988": "\u0120astron", "6989": "\u0120Re", "6990": "\u0120somebody", "6991": "igning", "6992": "\u0120liquid", "6993": "ammy", "6994": "\u0120wakes", "6995": "\u0120squish", "6996": "\u0120Woof", "6997": "\u0120bracelets", "6998": "\u0120astronaut", "6999": "immer", "7000": "aren", "7001": "\u0120thrown", "7002": "\u0120loops", "7003": "\u0120Other", "7004": "Luckily", "7005": "\u0120wrapping", "7006": "\u0120plain", "7007": "\u0120tramp", "7008": "\u0120planning", "7009": "\u0120skunk", "7010": "\u0120aimed", "7011": "\u0120pennies", "7012": "\u0120shoo", "7013": "\u0120lifts", "7014": "\u0120dancers", "7015": "\u0120sparks", "7016": "\u0120firefly", "7017": "pen", "7018": "Dan", "7019": "\u0120poster", "7020": "yan", "7021": "endy", "7022": "\u0120cust", "7023": "\u0120Christmas", "7024": "\u0120rewarded", "7025": "\u0120objects", "7026": "\u0120directions", "7027": "using", "7028": "ingo", "7029": "\u0120reflection", "7030": "\u0120husband", "7031": "\u00e2\u0122\u0136", "7032": "Take", "7033": "river", "7034": "\u0120clues", "7035": "uppy", "7036": "\u0120leads", "7037": "\u0120increased", "7038": "\u0120blocked", "7039": "\u0120rising", "7040": "\u0120dod", "7041": "\u0120cousin", "7042": "\u0120Yesterday", "7043": "\u0120Without", "7044": "\u0120forgetting", "7045": "rigued", "7046": "\u0120custom", "7047": "Kate", "7048": "ude", "7049": "\u0120trampoline", "7050": "\u0120beginning", "7051": "\u0120storekeeper", "7052": "\u0120pouted", "7053": "\u0120zebras", "7054": "\u0120hedgehog", "7055": "\u0120aff", "7056": "\u0120\u00e2\u0122\u013a", "7057": "\u0120borrowed", "7058": "\u0120Rollie", "7059": "\u0120snowfl", "7060": "\u0120countryside", "7061": "Jump", "7062": "\u0120mesmer", "7063": "\u0120Jay", "7064": "\u0120vehicles", "7065": "\u0120instrum", "7066": "\u0120Mic", "7067": "\u0120Kayla", "7068": "\u0120Up", "7069": "\u0120frowning", "7070": "ivity", "7071": "Pat", "7072": "Under", "7073": "\u0120marker", "7074": "yond", "7075": "\u0120presses", "7076": "\u0120beyond", "7077": "\u0120Queen", "7078": "\u0120damage", "7079": "\u0120Only", "7080": "iece", "7081": "ivery", "7082": "\u0120fart", "7083": "\u0120Tara", "7084": "\u0120Biggie", "7085": "jo", "7086": "\u0120health", "7087": "\u0120whispers", "7088": "\u0120swimsuit", "7089": "\u0120slips", "7090": "\u0120nibb", "7091": "\u0120Julia", "7092": "armer", "7093": "\u0120warmer", "7094": "\u0120flapping", "7095": "\u0120tiptoed", "7096": "\u0120regretted", "7097": "itted", "7098": "Zip", "7099": "\u0120laying", "7100": "\u0120Robo", "7101": "ades", "7102": "\u0120yelp", "7103": "\u0120Fire", "7104": "\u0120rains", "7105": "\u0120glued", "7106": "\u0120everybody", "7107": "\u0120creations", "7108": "\u0120hearing", "7109": "\u0120swir", "7110": "\u0120colder", "7111": "iversity", "7112": "ael", "7113": "\u0120shaped", "7114": "\u0120Elephant", "7115": "\u0120streets", "7116": "\u0120fins", "7117": "\u0120rusty", "7118": "\u0120cushions", "7119": "Out", "7120": "\u0120san", "7121": "\u0120farthest", "7122": "\u0120creativity", "7123": "\u0120Mikey", "7124": "\u0120sale", "7125": "Always", "7126": "ans", "7127": "\u0120strongest", "7128": "ibbit", "7129": "\u0120fits", "7130": "\u0120Sparky", "7131": "\u0120bells", "7132": "\u0120dollars", "7133": "\u0120Larry", "7134": "\u0120earn", "7135": "iam", "7136": "angle", "7137": "\u0120lending", "7138": "\u0120Moon", "7139": "\u0120Chirp", "7140": "eese", "7141": "\u0120cashier", "7142": "Milly", "7143": "\u0120including", "7144": "\u0120sniffs", "7145": "\u0120sank", "7146": "\u0120raincoat", "7147": "\u0120Rich", "7148": "\u0120trembled", "7149": "\u0120stopping", "7150": "\u0120source", "7151": "iti", "7152": "imon", "7153": "\u0120Missy", "7154": "\u0120wobbly", "7155": "\u0120indeed", "7156": "ters", "7157": "\u0120guests", "7158": "\u0120single", "7159": "\u0120recommended", "7160": "\u0120spells", "7161": "\u0120accomplishment", "7162": "\u0120belts", "7163": "\u0120surprising", "7164": "\u0120ends", "7165": "\u0120hopeful", "7166": "\u0120seasons", "7167": "\u0120Take", "7168": "\u0120Snowman", "7169": "\u0120Els", "7170": "Bear", "7171": "\u0120plans", "7172": "ichael", "7173": "\u0120encourag", "7174": "\u0120supported", "7175": "stick", "7176": "illed", "7177": "\u0120suffered", "7178": "\u0120artist", "7179": "\u0120performance", "7180": "eet", "7181": "Nina", "7182": "\u0120slowed", "7183": "\u0120gross", "7184": "\u0120flavors", "7185": "iding", "7186": "ertain", "7187": "\u0120spins", "7188": "cho", "7189": "Quack", "7190": "\u0120labels", "7191": "\u0120raindrops", "7192": "\u0120delivery", "7193": "uing", "7194": "arac", "7195": "\u0120raccoon", "7196": "\u0120forgiving", "7197": "obody", "7198": "\u0120Woo", "7199": "\u0120pours", "7200": "the", "7201": "ility", "7202": "\u0120vanilla", "7203": "\u0120turtles", "7204": "\u0120stands", "7205": "Bill", "7206": "uess", "7207": "\u0120recipe", "7208": "\u0120beam", "7209": "\u0120tying", "7210": "\u0120Sw", "7211": "\u0120geese", "7212": "\u0120willing", "7213": "\u0120robber", "7214": "\u0120drawn", "7215": "Vroom", "7216": "\u0120wept", "7217": "\u0120Bones", "7218": "\u0120charac", "7219": "\u0120pops", "7220": "\u0120corners", "7221": "\u0120Sophia", "7222": "elia", "7223": "\u0120queens", "7224": "\u0120sailboat", "7225": "\u0120grip", "7226": "\u0120die", "7227": "\u0120drivers", "7228": "itude", "7229": "\u0120moo", "7230": "\u0120hallway", "7231": "\u0120imagining", "7232": "\u0120seconds", "7233": "\u0120Fuzzy", "7234": "Mine", "7235": "\u0120preparing", "7236": "\u0120widened", "7237": "\u0120adult", "7238": "\u0120Spirit", "7239": "\u0120grocer", "7240": "\u0120coop", "7241": "\u0120talented", "7242": "\u0120Pam", "7243": "\u0120Beaky", "7244": "\u0120Izzy", "7245": "ummies", "7246": "\u0120sailors", "7247": "lling", "7248": "\u0120softer", "7249": "\u0120aside", "7250": "\u0120watering", "7251": "\u0120sending", "7252": "\u0120knots", "7253": "\u0120unsure", "7254": "\u0120tipped", "7255": "Lulu", "7256": "\u0120treehouse", "7257": "\u0120horiz", "7258": "\u0120Lizzie", "7259": "\u0120notes", "7260": "Co", "7261": "\u0120echo", "7262": "igers", "7263": "\u0120achieved", "7264": "\u0120horizon", "7265": "\u0120squeak", "7266": "\u0120delivering", "7267": "\u0120pleasure", "7268": "\u0120hotter", "7269": "\u0120Stella", "7270": "Clara", "7271": "\u0120pupils", "7272": "\u0120burrow", "7273": "\u0120angels", "7274": "\u0120curiously", "7275": "Ellie", "7276": "\u0120yum", "7277": "\u0120blinking", "7278": "\u0120June", "7279": "\u0120tweet", "7280": "\u0120symbols", "7281": "\u0120det", "7282": "\u0120Stretch", "7283": "wk", "7284": "\u0120passen", "7285": "\u0120Rudy", "7286": "\u0120Cindy", "7287": "\u0120tummies", "7288": "\u0120tiss", "7289": "\u0120pigeons", "7290": "\u0120figures", "7291": "umbling", "7292": "\u0120bandages", "7293": "\u0120Robert", "7294": "\u0120coup", "7295": "\u0120Doctor", "7296": "oey", "7297": "\u0120robots", "7298": "alph", "7299": "\u0120tossed", "7300": "\u0120hour", "7301": "\u0120backwards", "7302": "\u0120roars", "7303": "Baby", "7304": "\u0120merma", "7305": "uzz", "7306": "\u0120rather", "7307": "atur", "7308": "Maria", "7309": "cited", "7310": "\u0120Play", "7311": "\u0120Crab", "7312": "Moo", "7313": "ighting", "7314": "Dolly", "7315": "\u0120groceries", "7316": "\u0120zipping", "7317": "Put", "7318": "Very", "7319": "\u0120unw", "7320": "prin", "7321": "\u0120among", "7322": "\u0120blown", "7323": "\u0120icing", "7324": "!\u00e2\u0122\u013f.", "7325": "\u0120rumble", "7326": "\u0120afterwards", "7327": "ipper", "7328": "\u0120screwd", "7329": "ushing", "7330": "\u0120sped", "7331": "\u0120prove", "7332": "\u0120glee", "7333": "\u0120Titi", "7334": "\u0120Tia", "7335": "\u0120dip", "7336": "\u0120overcome", "7337": "Ruby", "7338": "Quick", "7339": "\u0120surfboard", "7340": "\u0120shovels", "7341": "\u0120slices", "7342": "\u0120Toot", "7343": "\u0120merry", "7344": "\u0120wobble", "7345": "\u0120mate", "7346": "\u0120Turt", "7347": "\u0120Abbie", "7348": "\u0120heading", "7349": "\u0120disturbing", "7350": "\u0120swall", "7351": "\u0120reversed", "7352": "\u0120firefighters", "7353": "Jul", "7354": "\u0120swallowed", "7355": "\u0120chip", "7356": "eds", "7357": "\u0120scored", "7358": "\u0120flipped", "7359": "\u0120Jump", "7360": "\u0120squeezing", "7361": "usty", "7362": "Frank", "7363": "aty", "7364": "Su", "7365": "\u0120waking", "7366": "\u0120intrigued", "7367": "Sad", "7368": "Like", "7369": "\u0120maker", "7370": "\u0120Barky", "7371": "awn", "7372": "Betty", "7373": "\u0120puff", "7374": "\u0120hawk", "7375": "\u0120Ex", "7376": "\u0120encouraging", "7377": "\u0120aud", "7378": "osen", "7379": "onies", "7380": "\u0120chosen", "7381": "\u0120Ron", "7382": "hew", "7383": "\u0120Farmer", "7384": "\u0120Ang", "7385": "\u0120couple", "7386": "\u0120designs", "7387": "\u0120slipping", "7388": "\u0120screwdriver", "7389": "\u0120squishy", "7390": "\u0120Emmy", "7391": "\u0120gardener", "7392": "\u0120center", "7393": "\u0120rivers", "7394": "\u0120respond", "7395": "\u0120markers", "7396": "iley", "7397": "\u0120tigers", "7398": "\u0120jars", "7399": "pecting", "7400": "\u0120frowns", "7401": "bird", "7402": "\u0120fluttered", "7403": "\u0120Sadly", "7404": "\u0120Kit", "7405": "Ribbit", "7406": "\u0120firefighter", "7407": "\u0120Sl", "7408": "\u0120Ryan", "7409": "\u0120suits", "7410": "\u0120secure", "7411": "\u0120sprinkled", "7412": "\u0120creamy", "7413": "ashes", "7414": "\u0120sharks", "7415": "\u0120ignoring", "7416": "\u0120bru", "7417": "\u0120giggles", "7418": "\u0120tissue", "7419": "\u0120tighter", "7420": "\u0120firmly", "7421": "ounce", "7422": "\u0120Laura", "7423": "\u0120shown", "7424": "\u0120familiar", "7425": "fly", "7426": "\u0120thorns", "7427": "Spike", "7428": "\u0120Wo", "7429": "\u0120drawers", "7430": "child", "7431": "\u0120Zee", "7432": "\u0120express", "7433": "\u0120def", "7434": "Car", "7435": "ments", "7436": "\u0120daring", "7437": "\u0120crossing", "7438": "\u0120audience", "7439": "\u0120performing", "7440": "\u0120coloured", "7441": "\u0120cloudy", "7442": "\u0120cor", "7443": "\u0120ais", "7444": "\u0120Nick", "7445": "ae", "7446": "rat", "7447": "\u0120pedaled", "7448": "Get", "7449": "\u0120mixture", "7450": "\u0120til", "7451": "\u0120gracefully", "7452": "ggy", "7453": "\u0120haircuts", "7454": "\u0120yielded", "7455": "\u0120ponies", "7456": "\u0120disob", "7457": "\u0120crowns", "7458": "\u0120bits", "7459": "\u0120todd", "7460": "\u0120Sleep", "7461": "\u0120nervously", "7462": "\u0120hangers", "7463": "bbled", "7464": "\u0120Patch", "7465": "Zoomy", "7466": "\u0120pays", "7467": "\u01202", "7468": "\u0120peck", "7469": "\u0120stroke", "7470": "\u0120ev", "7471": "fall", "7472": "Bang", "7473": "\u0120respected", "7474": "\u0120napped", "7475": "aven", "7476": "\u0120minded", "7477": "ddie", "7478": "Bessie", "7479": "ably", "7480": "Boys", "7481": "\u0120tested", "7482": "ading", "7483": "parent", "7484": "\u0120Chris", "7485": "Kim", "7486": "\u0120University", "7487": "\u0120Near", "7488": "\u0120beeh", "7489": "\u0120Turtle", "7490": "\u0120surfing", "7491": "\u0120neighbours", "7492": "arrow", "7493": "vered", "7494": "\u0120shady", "7495": "iona", "7496": "arlings", "7497": "\u0120magician", "7498": "\u0120enthusiasm", "7499": "\u0120darlings", "7500": "\u0120wisely", "7501": "\u0120stitches", "7502": "\u0120sails", "7503": "Dear", "7504": "\u0120weekend", "7505": "\u0120thoughts", "7506": "Freddy", "7507": "\u0120Tweetie", "7508": "\u0120reminds", "7509": "fted", "7510": "\u0120temper", "7511": "oring", "7512": "tha", "7513": "antha", "7514": "\u0120surroundings", "7515": "\u0120spits", "7516": "\u0120fleas", "7517": "\u0120teams", "7518": "\u0120lessons", "7519": "\u0120fills", "7520": "\u0120flip", "7521": "\u0120Along", "7522": "\u0120paintbrush", "7523": "\u0120melons", "7524": "\u0120mermaid", "7525": "oni", "7526": "lle", "7527": "Katie", "7528": "\u0120grandchild", "7529": "\u0120hoops", "7530": "\u0120explo", "7531": "\u0120elbow", "7532": "\u0120sports", "7533": "Guess", "7534": "\u0120lies", "7535": "\u0120Fighting", "7536": "rac", "7537": "\u0120panicked", "7538": "\u0120cleaner", "7539": "\u0120amount", "7540": "cused", "7541": "\u0120longest", "7542": "\u0120scooters", "7543": "\u0120lent", "7544": "ita", "7545": "immering", "7546": "\u0120sill", "7547": "\u0120beloved", "7548": "Pippin", "7549": "\u0120beehive", "7550": "Alright", "7551": "ongrat", "7552": "oga", "7553": "ongratul", "7554": "\u0120oysters", "7555": "\u0120grandparent", "7556": "\u0120forgiven", "7557": "\u0120magazines", "7558": "\u0120arr", "7559": "\u0120Wise", "7560": "\u0120elf", "7561": "\u0120repeating", "7562": "\u0120discussed", "7563": "\u0120sweetest", "7564": "\u0120Thanks", "7565": "Keep", "7566": "\u0120wadd", "7567": "\u0120Maya", "7568": "\u0120reass", "7569": "\u0120lace", "7570": "\u0120Granny", "7571": "\u0120nightmares", "7572": "\u0120tubes", "7573": "\u0120Willy", "7574": "\u0120understands", "7575": "\u0120spoonful", "7576": "\u0120nood", "7577": "\u0120bathing", "7578": "\u0120Zoey", "7579": "asty", "7580": "Am", "7581": "\u0120sweep", "7582": "\u0120manners", "7583": "crow", "7584": "Uncle", "7585": "\u0120wrink", "7586": "\u0120sprang", "7587": "\u0120nur", "7588": "\u0120bully", "7589": "\u0120Holly", "7590": "\u0120guide", "7591": "\u0120Yet", "7592": "onna", "7593": "ancy", "7594": "\u0120crew", "7595": "romise", "7596": "Jazz", "7597": "\u0120breathed", "7598": "while", "7599": "steps", "7600": "ilda", "7601": "ently", "7602": "\u0120Bally", "7603": "\u0120bulbs", "7604": "\u0120neare", "7605": "\u0120grassy", "7606": "\u0120wiggly", "7607": "\u0120testing", "7608": "\u0120spies", "7609": "\u0120coug", "7610": "\u0120solving", "7611": "\u0120sheets", "7612": "\u0120Roo", "7613": "\u0120footsteps", "7614": "ntil", "7615": "Afterwards", "7616": "\u0120speeding", "7617": "\u0120focused", "7618": "ounced", "7619": "cept", "7620": "?!\"", "7621": "\u0120mesmerized", "7622": "\u0120camel", "7623": "\u0120braver", "7624": "\u0120hesitant", "7625": "\u0120Sparkle", "7626": "\u0120licking", "7627": "\u0120rushing", "7628": "\u0120Well", "7629": "\u0120joining", "7630": "\u0120Puppy", "7631": "\u0120polar", "7632": "\u0120greeted", "7633": "\u0120Martha", "7634": "espite", "7635": "--", "7636": "\u0120Bubb", "7637": "Which", "7638": "Kiki", "7639": "\u0120worn", "7640": "\u0120materials", "7641": "\u0120changes", "7642": "\u0120Nobody", "7643": "undred", "7644": "\u0120stored", "7645": "\u0120bicycles", "7646": "een", "7647": "\u0120mast", "7648": "\u0120anger", "7649": "Leave", "7650": "\u0120peacefully", "7651": "\u0120ships", "7652": "\u0120spice", "7653": "\u0120terrified", "7654": "\u0120nuzz", "7655": "\u0120gonna", "7656": "\u0120Show", "7657": "\u0120politely", "7658": "Snow", "7659": "\u0120spills", "7660": "\u0120scarecrow", "7661": "\u0120knives", "7662": "\u0120evil", "7663": "\u0120Mixy", "7664": "ppies", "7665": "\u0120burying", "7666": "ca", "7667": "\u0120healing", "7668": "\u0120aren", "7669": "\u0120donkey", "7670": "\u0120aeroplanes", "7671": "freeze", "7672": "Even", "7673": "\u0120seals", "7674": "\u0120scattering", "7675": "\u0120miles", "7676": "\u0120Chewy", "7677": "amboo", "7678": "\u0120dump", "7679": "\u0120worrying", "7680": "\u0120Soft", "7681": "Bee", "7682": "zoom", "7683": "beep", "7684": "David", "7685": "\u0120Lenny", "7686": "\u0120puzzled", "7687": "\u0120stacked", "7688": "\u0120Kip", "7689": "Penny", "7690": "\u0120Nice", "7691": "\u0120loses", "7692": "dding", "7693": "\u0120travelled", "7694": "\u0120baskets", "7695": "\u0120Win", "7696": "\u0120Okay", "7697": "\u0120gazing", "7698": "\u0120blast", "7699": "ipes", "7700": "\u0120Tess", "7701": "erm", "7702": "Hurry", "7703": "\u0120temperature", "7704": "\u0120und", "7705": "\u0120tasting", "7706": "\u0120dripping", "7707": "\u0120clue", "7708": "\u0120believing", "7709": "\u0120pinching", "7710": "\u0120soaking", "7711": "\u0120rats", "7712": "\u012010", "7713": "isc", "7714": "\u0120sandy", "7715": "rect", "7716": "\u0120Isn", "7717": "\u0120Simon", "7718": "rey", "7719": "anwhile", "7720": "\u0120Abi", "7721": "Binky", "7722": "\u0120punishment", "7723": "\u0120banged", "7724": "\u0120humans", "7725": "\u0120crashing", "7726": "\u0120force", "7727": "\u0120Ana", "7728": "\u0120hundred", "7729": "\u0120gest", "7730": "\u0120Lia", "7731": "\u0120swimmer", "7732": "\u0120Chess", "7733": "\u0120snowflakes", "7734": "\u0120relaxing", "7735": "\u0120resisted", "7736": "\u0120beeped", "7737": "\u0120Fairy", "7738": "\u0120quarreled", "7739": "\u0120\u010a", "7740": "form", "7741": "elie", "7742": "\u0120ramp", "7743": "\u0120Wendy", "7744": "\u0120joins", "7745": "abby", "7746": "\u0120backpacks", "7747": "\u0120Ph", "7748": "years", "7749": "\u0120dressing", "7750": "\u0120delayed", "7751": "\u0120toddler", "7752": "\u0120Luckily", "7753": "ofia", "7754": "\u0120flight", "7755": "\u0120covering", "7756": "\u0120Te", "7757": "orter", "7758": "Two", "7759": "Open", "7760": "By", "7761": "\u0120encouragement", "7762": "\u0120benches", "7763": "\u0120toward", "7764": "\u0120scraped", "7765": "\u0120purpose", "7766": "\u0120focus", "7767": "\u0120Judy", "7768": "Bow", "7769": "\u0120correct", "7770": "'.\"", "7771": "\u0120lipstick", "7772": "\u0120bamboo", "7773": "Spe", "7774": "\u0120twinkled", "7775": "\u0120potion", "7776": "\u0120permitted", "7777": "\u0120months", "7778": "\u0120Cow", "7779": "\u0120languages", "7780": "\u0120orders", "7781": "\u0120freedom", "7782": "Tony", "7783": "\u0120risks", "7784": "\u0120poppies", "7785": "\u0120master", "7786": "shm", "7787": "\u0120noodles", "7788": "\u0120faded", "7789": "\u0120wounds", "7790": "shmallow", "7791": "rier", "7792": "Kids", "7793": "isions", "7794": "\u0120Jojo", "7795": "\u0120creams", "7796": "\u0120birdhouse", "7797": "\u0120cells", "7798": "\u0120annoyed", "7799": "\u0120Herb", "7800": "opes", "7801": "\u0120sniffing", "7802": "\u0120cheers", "7803": "\u0120adults", "7804": "Birdy", "7805": "\u0120unwra", "7806": "ecca", "7807": "Buzzy", "7808": "\u0120puck", "7809": "\u0120opinions", "7810": "\u0120floats", "7811": "andas", "7812": "Instead", "7813": "\u0120flown", "7814": "\u0120sneezes", "7815": "\u0120scen", "7816": "\u0120handsome", "7817": "\u0120nodding", "7818": "\u0120Mint", "7819": "\u0120smelling", "7820": "\u0120burnt", "7821": "\u01205", "7822": "\u0120drifted", "7823": "ider", "7824": "bage", "7825": "\u0120within", "7826": "\u0120scient", "7827": "\u0120height", "7828": "\u0120damaged", "7829": "\u0120bothering", "7830": "\u0120tearing", "7831": "\u0120slither", "7832": "\u0120pleaded", "7833": "\u0120instruments", "7834": "\u0120ease", "7835": "\u0120Ali", "7836": "da", "7837": "Back", "7838": "\u0120scientist", "7839": "\u0120Marie", "7840": "Mira", "7841": "Goodnight", "7842": "\u0120pound", "7843": "\u0120seller", "7844": "\u0120handing", "7845": "\u0120germ", "7846": "\u0120Say", "7847": "\u0120wasting", "7848": "\u0120files", "7849": "\u0120results", "7850": "\u0120dreamt", "7851": "\u0120Mabel", "7852": "bell", "7853": "\u0120explains", "7854": "\u0120destroying", "7855": "\u0120brushing", "7856": "ousy", "7857": "\u0120hiss", "7858": "\u0120characters", "7859": "\u0120Razor", "7860": "\u0120Cr", "7861": "Carl", "7862": "\u0120certain", "7863": "\u0120Ste", "7864": "Pandy", "7865": "Behind", "7866": "\u0120sweaty", "7867": "\u0120Hug", "7868": "unched", "7869": "\u0120business", "7870": "\u0120Robbie", "7871": "\u0120talents", "7872": "\u0120onward", "7873": "Try", "7874": "\u0120engines", "7875": "\u0120bravest", "7876": "ition", "7877": "\u0120sternly", "7878": "\u0120Pen", "7879": "\u0120Janie", "7880": "prints", "7881": "\u0120postman", "7882": "\u0120mosquitoes", "7883": "\u0120minds", "7884": "under", "7885": "cake", "7886": "\u0120tuck", "7887": "\u0120scares", "7888": "urious", "7889": "\u0120stomp", "7890": "\u0120apologised", "7891": "uel", "7892": "\u0120manag", "7893": "\u0120snuck", "7894": "\u0120bitten", "7895": "attered", "7896": "\u0120tilted", "7897": "\u0120switched", "7898": "\u0120reminding", "7899": "\u0120decisions", "7900": "\u0120singers", "7901": "\u0120desper", "7902": "\u0120behavior", "7903": "\u0120Poor", "7904": "ashing", "7905": "\u0120Judge", "7906": "bbers", "7907": "inny", "7908": "\u0120squeaked", "7909": "\u0120peeled", "7910": "\u0120Everybody", "7911": "\u0120yumm", "7912": "\u0120purrs", "7913": "\u0120Bra", "7914": "\u0120treated", "7915": "\u0120smashed", "7916": "\u0120rustling", "7917": "\u0120displayed", "7918": "\u0120Until", "7919": "\u0120neatly", "7920": "\u0120matey", "7921": "\u0120planting", "7922": "\u0120Bess", "7923": "\u0120marshmallow", "7924": "\u0120insp", "7925": "\u0120yelped", "7926": "\u0120sy", "7927": "\u0120grandparents", "7928": "\u0120cracks", "7929": "\u0120bellies", "7930": "aver", "7931": "\u0120shines", "7932": "\u0120scamp", "7933": "\u0120Navy", "7934": "\u0120hoo", "7935": "\u0120failed", "7936": "\u0120coloring", "7937": "\u0120Yoga", "7938": "line", "7939": "\u0120zooms", "7940": "\u0120Make", "7941": "rup", "7942": "\u0120nasty", "7943": "\u0120breathing", "7944": "\u0120combed", "7945": "\u0120pandas", "7946": "\u0120despite", "7947": "\u0120address", "7948": "ighing", "7949": "\u0120waterfall", "7950": "uffin", "7951": "omp", "7952": "cc", "7953": "\u0120Loop", "7954": "\u0120Angel", "7955": "Tilly", "7956": "\u0120wider", "7957": "\u0120robbers", "7958": "\u0120antic", "7959": "Play", "7960": "Abigail", "7961": "\u0120sweaters", "7962": "\u0120echoed", "7963": "\u0120doorway", "7964": "\u0120Todd", "7965": "evin", "7966": "\u0120edges", "7967": "\u0120inj", "7968": "\u0120Shadow", "7969": "Aunt", "7970": "\u0120gap", "7971": "\u0120disobey", "7972": "\u0120Blinky", "7973": "wise", "7974": "Liz", "7975": "\u0120Michael", "7976": "\u0120tar", "7977": "\u0120Flick", "7978": "oscope", "7979": "orking", "7980": "Wake", "7981": "\u0120taped", "7982": "\u0120magnif", "7983": "ulp", "7984": "father", "7985": "\u0120scolds", "7986": "\u0120flaps", "7987": "\u0120action", "7988": "\u0120crawls", "7989": "\u0120Mindy", "7990": "Ros", "7991": "\u0120swap", "7992": "\u0120gobbled", "7993": "\u0120backs", "7994": "\u0120Gary", "7995": "\u0120warri", "7996": "\u0120Fishy", "7997": "\u0120Eddie", "7998": "Slow", "7999": "\u0120steth", "8000": "\u0120sever", "8001": "\u0120shinier", "8002": "\u0120probably", "8003": "\u0120newspapers", "8004": "\u0120several", "8005": "\u0120occ", "8006": "Rock", "8007": "Lena", "8008": "\u0120encount", "8009": "\u0120Meg", "8010": "\u0120serving", "8011": "\u0120quieter", "8012": "\u0120plucked", "8013": "\u0120connected", "8014": "tock", "8015": "\u0120Share", "8016": "\u0120ouch", "8017": "igger", "8018": "Ted", "8019": "Adam", "8020": "\u0120gesture", "8021": "Too", "8022": "Fl", "8023": "\u0120student", "8024": "\u0120plot", "8025": "\u0120doorbell", "8026": "\u0120squaw", "8027": "\u0120cares", "8028": "fire", "8029": "\u0120rescuing", "8030": "\u0120grandson", "8031": "\u0120Se", "8032": "\u0120spy", "8033": "\u0120simply", "8034": "\u0120rows", "8035": "\u0120goo", "8036": "iel", "8037": "\u0120whistles", "8038": "mies", "8039": "vant", "8040": "Shrink", "8041": "Magic", "8042": "\u0120snaps", "8043": "\u0120shorter", "8044": "\u0120astronauts", "8045": "ssss", "8046": "\u0120unpacking", "8047": "\u0120cottage", "8048": "\u0120Time", "8049": "\u0120swo", "8050": "\u0120accidents", "8051": "ibi", "8052": "\u0120swollen", "8053": "\u0120mood", "8054": "\u0120Nut", "8055": "Steve", "8056": "abelle", "8057": "\u0120Zippy", "8058": "\u0120Mousy", "8059": "anie", "8060": "Zara", "8061": "\u0120bothered", "8062": "Hannah", "8063": "\u0120stethoscope", "8064": "\u0120trusting", "8065": "\u0120causing", "8066": "Mat", "8067": "Mad", "8068": "\u0120leapt", "8069": "\u0120dresser", "8070": "found", "8071": "aint", "8072": "\u0120sou", "8073": "\u0120proper", "8074": "\u0120pills", "8075": "retty", "8076": "\u0120throughout", "8077": "Olive", "8078": "\u0120runner", "8079": "\u0120prayers", "8080": "\u0120Dina", "8081": "\u0120joyful", "8082": "Thomas", "8083": "mates", "8084": "\u0120locks", "8085": "\u0120Prince", "8086": "Jamie", "8087": "\u0120goats", "8088": "what", "8089": "\u0120target", "8090": "rest", "8091": "\u0120Wait", "8092": "\u0120Karen", "8093": "\u0120dears", "8094": "\u0120Bang", "8095": "artled", "8096": "Red", "8097": "\u0120waddled", "8098": "\u0120munch", "8099": "\u0120flips", "8100": "\u0120Cro", "8101": "\u0120lowered", "8102": "\u0120stepping", "8103": "\u0120cons", "8104": "\u0120Jackie", "8105": "\u0120teachers", "8106": "\u0120cowboy", "8107": "\u0120Toys", "8108": "\u0120inches", "8109": "\u0120envelopes", "8110": "ears", "8111": "\u0120char", "8112": "\u0120Vroom", "8113": "\u0120explorer", "8114": "\u0120anticip", "8115": "\u0120playd", "8116": "\u0120Ready", "8117": "\u0120Ruff", "8118": "\u0120Ralph", "8119": "unity", "8120": "Nice", "8121": "Finn", "8122": "\u0120Bad", "8123": "ening", "8124": "\u0120knocking", "8125": "\u0120floors", "8126": "\u0120efforts", "8127": "\u0120Pl", "8128": "\u0120uniforms", "8129": "lied", "8130": "\u0120Tri", "8131": "\u0120aware", "8132": "\u0120footprints", "8133": "Someone", "8134": "\u0120nearly", "8135": "\u0120Fiona", "8136": "llas", "8137": "\u0120disc", "8138": "\u0120Ria", "8139": "ivi", "8140": "\u0120whimp", "8141": "\u0120trot", "8142": "\u0120sens", "8143": "\u0120glitt", "8144": "\u0120appreciation", "8145": "oosh", "8146": "\u0120necks", "8147": "\u0120collap", "8148": "\u0120checks", "8149": "\u0120lapt", "8150": "\u0120except", "8151": "\u0120plug", "8152": "\u0120charge", "8153": "\u0120Jacky", "8154": "\u0120fluttering", "8155": "\u0120umbrellas", "8156": "\u0120stamped", "8157": "acy", "8158": "\u0120sandcastles", "8159": "\u0120Davey", "8160": "\u0120statues", "8161": "\u0120Honey", "8162": "omb", "8163": "iscuit", "8164": "ails", "8165": "Hoppy", "8166": "\u0120shrank", "8167": "\u0120Amelia", "8168": "rily", "8169": "\u0120prick", "8170": "\u0120finishing", "8171": "\u0120adds", "8172": "rons", "8173": "\u0120stroll", "8174": "\u0120hunters", "8175": "\u0120dodged", "8176": "\u0120chocolates", "8177": "\u0120passengers", "8178": "\u0120germs", "8179": "oger", "8180": "\u0120wrigg", "8181": "\u0120aprons", "8182": "\u0120aisle", "8183": "\u0120sets", "8184": ".'\"", "8185": "\u0120Gerry", "8186": "\u0120weeds", "8187": "\u0120novels", "8188": "order", "8189": "\u0120demanding", "8190": "\u0120Taking", "8191": "\u0120scratching", "8192": "\u0120meows", "8193": "issa", "8194": "Dr", "8195": "\u0120nurses", "8196": "Lucky", "8197": "\u0120minding", "8198": "\u0120discussing", "8199": "urrender", "8200": "\u0120killed", "8201": "\u0120driveway", "8202": "\u0120Cari", "8203": "\u0120becomes", "8204": "\u0120toolbox", "8205": "\u0120laptop", "8206": "\u0120haird", "8207": "\u0120Eliz", "8208": "\u0120posit", "8209": "\u0120attack", "8210": "\u0120Sadie", "8211": "\u0120Despite", "8212": "Speedy", "8213": "\u0120Gl", "8214": "sol", "8215": "\u0120scampered", "8216": "\u0120bounces", "8217": "\u0120supplied", "8218": "\u0120sprays", "8219": "\u0120deed", "8220": "\u0120tempt", "8221": "\u0120suggestion", "8222": "\u0120friendships", "8223": "\u0120burns", "8224": "Coco", "8225": "\u0120slapping", "8226": "\u0120closing", "8227": "Arrr", "8228": "\u0120invites", "8229": "\u0120belongings", "8230": "\u0120anticipation", "8231": "\u0120springing", "8232": "\u0120form", "8233": "\u0120erase", "8234": "\u0120cotton", "8235": "\u0120Stan", "8236": "\u0120twists", "8237": "\u0120rays", "8238": "\u0120snuggle", "8239": "\u0120forgives", "8240": "\u0120models", "8241": "\u0120shall", "8242": "\u0120massages", "8243": "\u0120humming", "8244": "onnie", "8245": "\u0120responded", "8246": "\u0120newfound", "8247": "\u0120ghosts", "8248": "\u0120expecting", "8249": "\u0120Shelly", "8250": "\u0120cheated", "8251": "Does", "8252": "\u0120Wooly", "8253": "Gigi", "8254": "otte", "8255": "\u0120traveling", "8256": "\u0120Ne", "8257": "\u0120cond", "8258": "\u0120battle", "8259": "\u0120although", "8260": "alloween", "8261": "\u0120mommies", "8262": "\u0120invitations", "8263": "\u0120carries", "8264": "\u0120aim", "8265": "\u0120refreshing", "8266": "\u0120presented", "8267": "\u0120conc", "8268": "hel", "8269": "\u0120twenty", "8270": "\u0120rowed", "8271": "\u0120Bumpy", "8272": "ots", "8273": "\u0120squir", "8274": "rie", "8275": "arlotte", "8276": "\u0120foxes", "8277": "\u0120cooper", "8278": "\u0120final", "8279": "\u0120duckling", "8280": "\u0120cafe", "8281": "\u0120Bibi", "8282": "Pip", "8283": "\u0120marshmallows", "8284": "\u0120clicked", "8285": "\u0120Zipper", "8286": "oor", "8287": "\u0120jets", "8288": "\u0120designing", "8289": "\u0120beaver", "8290": "five", "8291": "\u0120Muffin", "8292": "\u0120Halloween", "8293": "\u0120mugs", "8294": "\u0120Whoever", "8295": "\u0120drown", "8296": "\u0120Although", "8297": "\u0120tricycle", "8298": "\u0120picnics", "8299": "\u0120oppos", "8300": "\u0120convin", "8301": "\u0120Ruth", "8302": "\u0120Excited", "8303": "iens", "8304": "\u0120Cle", "8305": "po", "8306": "\u0120scoops", "8307": "\u0120congratul", "8308": "\u0120Pop", "8309": "\u0120Maddie", "8310": "off", "8311": "Sadly", "8312": "\u0120\u00e2\u0122\u0136", "8313": "\u0120travels", "8314": "\u0120aliens", "8315": "\u0120tests", "8316": "\u0120questioned", "8317": "\u0120Speed", "8318": "inted", "8319": "\u0120strips", "8320": "Near", "8321": "atty", "8322": "Mouse", "8323": "covered", "8324": "\u0120defe", "8325": "\u0120Flutter", "8326": "\u0120Bubba", "8327": "iri", "8328": "ended", "8329": "Br", "8330": "\u0120fights", "8331": "roken", "8332": "Ball", "8333": "\u0120opposite", "8334": "\u0120Biggy", "8335": "Hmm", "8336": "Find", "8337": "Elly", "8338": "Chloe", "8339": "\u0120Im", "8340": "\u0120rout", "8341": "\u0120grandfather", "8342": "\u0120encountered", "8343": "\u0120afford", "8344": "\u0120Never", "8345": "\u0120decl", "8346": "inch", "8347": "\u0120raising", "8348": "iment", "8349": "\u0120upside", "8350": "\u0120Vivi", "8351": "Meanwhile", "8352": "Jess", "8353": "\u0120flashed", "8354": "\u0120calmly", "8355": "\u0120Rita", "8356": "\u0120yawning", "8357": "\u0120sincere", "8358": "\u0120realizes", "8359": "aturday", "8360": "Trust", "8361": "Choo", "8362": "\u0120crystals", "8363": "\u0120buddy", "8364": "\u0120Samantha", "8365": "\u0120cupcakes", "8366": "\u0120buckled", "8367": "byes", "8368": "Both", "8369": "\u0120winners", "8370": "\u0120defin", "8371": "verse", "8372": "ris", "8373": "',", "8374": "\u0120weapons", "8375": "\u0120caw", "8376": "shadow", "8377": "Josh", "8378": "\u0120packages", "8379": "\u0120cheat", "8380": "\u0120Saturday", "8381": "\u0120sacks", "8382": "\u0120messes", "8383": "\u0120goodbyes", "8384": "\u0120coach", "8385": "\u0120attem", "8386": "quet", "8387": "\u0120convers", "8388": "\u0120Truck", "8389": "\u0120Flo", "8390": "val", "8391": "\u0120caps", "8392": "\u0120Mina", "8393": "\u0120Eva", "8394": "emies", "8395": "\u0120enemies", "8396": "asha", "8397": "\u0120yummiest", "8398": "\u0120scrub", "8399": "\u0120swallow", "8400": "\u0120returning", "8401": "rian", "8402": "\u0120admiration", "8403": "\u0120Softy", "8404": "\u0120Megan", "8405": "Since", "8406": "\u0120sprout", "8407": "\u0120Louise", "8408": "\u0120unable", "8409": "\u0120Playing", "8410": "\u0120Another", "8411": "ugging", "8412": "ooks", "8413": "\u0120sadder", "8414": "\u0120freezing", "8415": "\u0120brightest", "8416": "\u0120bless", "8417": "\u0120Yawn", "8418": "\u0120respon", "8419": "\u0120Man", "8420": "reverse", "8421": "\u0120response", "8422": "\u0120cosy", "8423": "\u0120Oh", "8424": "\u0120diamonds", "8425": "\u0120bride", "8426": "stalk", "8427": "\u0120reapp", "8428": "\u0120opport", "8429": "\u0120honking", "8430": "\u0120garbage", "8431": "\u0120whispering", "8432": "\u0120stretches", "8433": "\u0120prevented", "8434": "erk", "8435": "antastic", "8436": "\u0120whoever", "8437": "\u0120odd", "8438": "\u0120awful", "8439": "\u0120Gray", "8440": "alth", "8441": "\u0120weighs", "8442": "\u0120journeys", "8443": "\u0120awoke", "8444": "Brrr", "8445": "\u0120traps", "8446": "\u0120spices", "8447": "\u0120dragonfly", "8448": "\u0120born", "8449": "\u0120reassured", "8450": "\u0120clip", "8451": "ivia", "8452": "\u0120stall", "8453": "\u0120beanstalk", "8454": "\u0120argum", "8455": "\u0120examining", "8456": "\u0120definitely", "8457": "\u0120beetles", "8458": "\u0120automobiles", "8459": "\u0120Maisy", "8460": "mine", "8461": "ici", "8462": "Hop", "8463": "\u0120visitors", "8464": "\u0120stuffing", "8465": "\u0120playdate", "8466": "\u0120washes", "8467": "cie", "8468": "broken", "8469": "\u0120wiser", "8470": "\u0120customer", "8471": "uper", "8472": "emma", "8473": "Rachel", "8474": "\u0120travelling", "8475": "\u0120Sofia", "8476": "\u0120Jolly", "8477": "\u0120Flop", "8478": "ouquet", "8479": "\u0120hairdress", "8480": "\u0120bouquet", "8481": "\u0120Nurse", "8482": "orse", "8483": "bble", "8484": ",'", "8485": "\u0120tumbled", "8486": "\u0120decoration", "8487": "\u0120campfire", "8488": "\u0120Elle", "8489": "\u0120honesty", "8490": "\u0120bud", "8491": "vy", "8492": "ebecca", "8493": "action", "8494": "Only", "8495": "\u0120bomb", "8496": "\u0120welcoming", "8497": "\u0120offering", "8498": "\u0120wealth", "8499": "\u0120troubles", "8500": "\u0120occas", "8501": "\u0120increasing", "8502": "\u0120Ot", "8503": "\u0120Jax", "8504": "\u0120Hello", "8505": "\u0120loudest", "8506": "\u0120inspired", "8507": "\u0120type", "8508": "\u0120parted", "8509": "\u0120groan", "8510": "\u0120Chick", "8511": "\u0120Nutty", "8512": "irac", "8513": "\u0120whales", "8514": "\u0120Thunder", "8515": "\u0120Ricky", "8516": "yl", "8517": "\u0120declared", "8518": "\u0120correctly", "8519": "yler", "8520": "ooky", "8521": "fus", "8522": "\u0120craft", "8523": "\u0120beaks", "8524": "\u0120Quacky", "8525": "athan", "8526": "\u0120cleared", "8527": "\u0120cowboys", "8528": "\u0120nuzzled", "8529": "\u0120Dotty", "8530": "\u0120prizes", "8531": "\u0120exch", "8532": "Finny", "8533": "\u0120warmly", "8534": "\u0120Missile", "8535": "\u0120rewards", "8536": "\u0120obeyed", "8537": "\u0120customers", "8538": "Should", "8539": "\u0120sirens", "8540": "\u0120comforting", "8541": "\u0120Fel", "8542": "shaped", "8543": "\u0120connect", "8544": "\u0120Flappy", "8545": "match", "8546": "\u0120towns", "8547": "\u0120Magic", "8548": "\u0120Bingo", "8549": "elieve", "8550": "\u0120rely", "8551": "\u0120Vicky", "8552": "Honey", "8553": "\u0120trigger", "8554": "\u0120owns", "8555": "\u0120insisting", "8556": "\u0120fantastic", "8557": "\u0120bends", "8558": "\u0120Fe", "8559": "\u0120spoiling", "8560": "\u0120hairdresser", "8561": "\u0120surrendered", "8562": "\u0120supporting", "8563": "\u0120shares", "8564": "\u0120poses", "8565": "\u0120pipes", "8566": "\u0120cleans", "8567": "rench", "8568": "Sun", "8569": "Outside", "8570": "Julie", "8571": "\u0120wrinkled", "8572": "\u0120Cook", "8573": "\u0120chopped", "8574": "\u0120recorder", "8575": "\u0120moons", "8576": "\u0120beaming", "8577": "unes", "8578": "ellow", "8579": "Beth", "8580": "\u0120thanking", "8581": "\u0120snowy", "8582": "\u0120Wolf", "8583": "\u0120scurry", "8584": "\u0120experien", "8585": "\u0120enjoyable", "8586": "\u0120active", "8587": "\u0120coral", "8588": "\u0120Piggy", "8589": "\u0120environ", "8590": "\u0120dollar", "8591": "\u0120Kevin", "8592": "worm", "8593": "elope", "8594": "\u0120loc", "8595": "Je", "8596": "\u0120streamers", "8597": "\u0120Bub", "8598": "udged", "8599": "\u0120Patty", "8600": "\u0120Mother", "8601": "\u0120Zack", "8602": "inger", "8603": "Suzy", "8604": "\u0120examp", "8605": "\u0120shorts", "8606": "\u0120shooed", "8607": "\u0120environment", "8608": "Tree", "8609": "\u0120ill", "8610": "\u0120scent", "8611": "\u0120bruises", "8612": "uster", "8613": "\u0120grat", "8614": "\u0120Luc", "8615": "Bo", "8616": "\u0120hisses", "8617": "\u0120steering", "8618": "\u0120self", "8619": "\u0120plugged", "8620": "\u0120Elsa", "8621": "\u0120warrior", "8622": "\u0120visits", "8623": "\u0120exercises", "8624": "screen", "8625": "irl", "8626": "aptain", "8627": "\u0120dangers", "8628": "\u0120cuddles", "8629": "\u0120Rel", "8630": "\u0120Min", "8631": "\u0120Ar", "8632": "\u0120unfortunately", "8633": "\u0120squished", "8634": "\u0120signing", "8635": "\u0120Light", "8636": "bee", "8637": "Ray", "8638": "\u0120pilots", "8639": "\u0120disappoint", "8640": "munk", "8641": "\u0120gratitude", "8642": "\u0120applauding", "8643": "alf", "8644": "\u0120providing", "8645": "\u0120Moppy", "8646": "\u0120tickles", "8647": "\u0120ting", "8648": "\u0120Rub", "8649": "Grow", "8650": "\u0120storms", "8651": "\u0120nights", "8652": "\u0120jud", "8653": "\u0120convinced", "8654": "\u0120badger", "8655": "\u0120Elsie", "8656": "\u0120youn", "8657": "\u0120responsib", "8658": "\u0120choosing", "8659": "\u0120Kelly", "8660": "Joy", "8661": "\u0120youngest", "8662": "\u0120nearest", "8663": "\u0120brains", "8664": "\u0120activity", "8665": "Abby", "8666": "\u0120exploded", "8667": "\u0120coughed", "8668": "\u0120arranged", "8669": "Claire", "8670": "\u0120rewarding", "8671": "\u0120Tre", "8672": "\u0120Fly", "8673": "good", "8674": "erpiece", "8675": "\u0120sunscreen", "8676": "\u0120peep", "8677": "\u0120bond", "8678": "\u0120Floppy", "8679": "asers", "8680": "Mon", "8681": "\u0120Tweety", "8682": "\u0120Sweet", "8683": "\u0120Katy", "8684": "\u0120Joan", "8685": "\u0120Sal", "8686": "ilities", "8687": "\u0120annoying", "8688": "sn", "8689": "\u0120soapy", "8690": "meow", "8691": "Splash", "8692": "\u0120rails", "8693": "\u0120laces", "8694": "\u0120threads", "8695": "\u0120tapping", "8696": "\u0120offic", "8697": "\u0120appreciated", "8698": "\u0120Pine", "8699": "\u0120Phil", "8700": "boards", "8701": "\u0120weighing", "8702": "\u0120heartbroken", "8703": "\u0120emerged", "8704": "\u0120congratulated", "8705": "\u0120Pick", "8706": "Danger", "8707": "\u0120tin", "8708": "\u0120Sil", "8709": "\u0120crocodiles", "8710": "\u0120clerk", "8711": "\u0120scram", "8712": "\u0120attempt", "8713": "\u0120Nancy", "8714": "water", "8715": "Ahoy", "8716": "\u0120snug", "8717": "\u0120messed", "8718": "\u0120example", "8719": "\u0120dial", "8720": "\u0120Kay", "8721": "\u0120Any", "8722": "Momma", "8723": "\u0120hooks", "8724": "\u0120Jonny", "8725": "\u0120tops", "8726": "\u0120chipmunk", "8727": "\u0120soot", "8728": "\u0120guarding", "8729": "\u0120bathed", "8730": "\u0120manager", "8731": "\u0120Tippy", "8732": "ortunately", "8733": "\u0120Microscope", "8734": "Friends", "8735": "\u0120De", "8736": "etah", "8737": "Snowy", "8738": "\u0120masterpiece", "8739": "\u0120Baa", "8740": "ending", "8741": "\u0120erasers", "8742": "\u0120tips", "8743": "\u0120finishes", "8744": "\u0120fet", "8745": "\u0120common", "8746": "\u0120Tomorrow", "8747": "mbers", "8748": "\u0120trotted", "8749": "\u0120nibbled", "8750": "\u0120members", "8751": "\u0120digs", "8752": "People", "8753": "\u0120kinder", "8754": "\u0120cheetah", "8755": "\u0120particularly", "8756": "\u0120chews", "8757": "\u0120blond", "8758": "ircle", "8759": "\u0120rips", "8760": "\u0120beast", "8761": "Lizzy", "8762": "\u0120argument", "8763": "ative", "8764": "\u0120faith", "8765": "\u0120Helping", "8766": "\u0120earned", "8767": "Anne", "8768": "\u0120observing", "8769": "\u0120forgiveness", "8770": "\u0120Joke", "8771": "\u0120Cici", "8772": "chievous", "8773": "\u0120instantly", "8774": "\u0120fishes", "8775": "\u0120experienced", "8776": "\u0120curl", "8777": "\u0120cheaper", "8778": "\u0120Jumpy", "8779": "Rosie", "8780": "\u0120mischievous", "8781": "\u0120generosity", "8782": "\u0120cages", "8783": "\u0120Twist", "8784": "Gr", "8785": "Baa", "8786": "\u0120meowing", "8787": "\u0120foam", "8788": "mered", "8789": "Cindy", "8790": "\u0120stores", "8791": "\u0120grandd", "8792": "\u0120Ag", "8793": "etchup", "8794": "\u0120mattered", "8795": "\u0120teles", "8796": "\u0120passes", "8797": "\u0120limp", "8798": "Sque", "8799": "\u0120sleeps", "8800": "iolet", "8801": "\u0120breaths", "8802": "ordinary", "8803": "ettle", "8804": "\u0120rin", "8805": "\u0120gasps", "8806": "\u0120Freddie", "8807": "pr", "8808": "Got", "8809": "\u0120trans", "8810": "\u0120rumbling", "8811": "\u0120hatch", "8812": "\u0120Momma", "8813": "over", "8814": "abra", "8815": "\u0120satisf", "8816": "\u0120grassho", "8817": "\u0120accomplished", "8818": "\u0120Hopper", "8819": "acing", "8820": "\u0120thump", "8821": "\u0120telescope", "8822": "\u0120strum", "8823": "\u0120smartest", "8824": "\u0120mats", "8825": "\u0120whined", "8826": "\u0120moat", "8827": "Gina", "8828": "\u0120scrambled", "8829": "\u0120jugg", "8830": "\u0120farmers", "8831": "\u0120Ice", "8832": "\u0120drip", "8833": "Robbie", "8834": "\u0120syrup", "8835": "\u0120gardens", "8836": "\u0120collapsed", "8837": "\u0120angrily", "8838": "\u0120More", "8839": "ouraged", "8840": "idey", "8841": "\u0120vegg", "8842": "\u0120styles", "8843": "\u0120forests", "8844": "\u0120experiences", "8845": "\u0120discoveries", "8846": "hole", "8847": "\u0120tor", "8848": "\u0120medals", "8849": "\u0120types", "8850": "\u0120otters", "8851": "\u0120meaning", "8852": "\u0120faint", "8853": "\u0120conqu", "8854": "\u0120Does", "8855": "pit", "8856": "adabra", "8857": "acock", "8858": "\u0120snapping", "8859": "\u0120hardest", "8860": "\u0120fif", "8861": "ering", "8862": "\u0120movements", "8863": "\u0120expression", "8864": "\u0120surv", "8865": "\u0120chilly", "8866": "\u0120bubbly", "8867": "\u0120affect", "8868": "Pinky", "8869": "\u0120vests", "8870": "\u0120unfair", "8871": "\u0120court", "8872": "Whenever", "8873": "\u0120toothbrush", "8874": "\u0120scores", "8875": "\u0120extraordinary", "8876": "Never", "8877": "\u0120attitude", "8878": "\u0120vibr", "8879": "\u0120horri", "8880": "\u0120bluebird", "8881": "\u0120Monkey", "8882": "mel", "8883": "lls", "8884": "Mo", "8885": "\u0120spears", "8886": "\u0120ketchup", "8887": "\u0120Berry", "8888": "Mother", "8889": "\u0120sooner", "8890": "\u0120grasshopper", "8891": "\u0120behaviour", "8892": "\u0120patches", "8893": "\u0120habit", "8894": "yd", "8895": "erts", "8896": "Karen", "8897": "\u0120pokes", "8898": "\u0120momma", "8899": "\u0120afar", "8900": "\u0120Ashley", "8901": "ieves", "8902": "Jacob", "8903": "\u0120thicker", "8904": "\u0120scri", "8905": "\u0120Friend", "8906": "Jon", "8907": "\u0120squeezes", "8908": "\u0120slithered", "8909": "\u0120shrunk", "8910": "\u0120classmates", "8911": "\u0120Terry", "8912": "\u0120Fle", "8913": "\u0120icky", "8914": "\u0120prickly", "8915": "\u0120glittering", "8916": "lo", "8917": "\u0120expert", "8918": "\u0120topp", "8919": "\u0120kneeling", "8920": "\u0120announced", "8921": "\u0120Super", "8922": "\u0120Riri", "8923": "elling", "8924": "\u0120peacock", "8925": "\u0120marking", "8926": "ctric", "8927": "\u0120costs", "8928": "\u0120Cally", "8929": "\u0120Achoo", "8930": "\u0120zigzags", "8931": "\u0120watermel", "8932": "\u0120thieves", "8933": "\u0120skirts", "8934": "\u0120jumper", "8935": "\u0120hood", "8936": "\u0120acts", "8937": "\u0120Zog", "8938": "\u0120App", "8939": "\u0120wolves", "8940": "\u0120Swim", "8941": "\u0120Cloud", "8942": "Papa", "8943": "\u0120thumbs", "8944": "\u0120squeaky", "8945": "\u0120drift", "8946": "\u0120concer", "8947": "\u0120cocoon", "8948": "\u0120woodcut", "8949": "\u0120boards", "8950": "\u0120Eliza", "8951": "\u0120Becky", "8952": "\u0120servant", "8953": "idence", "8954": "affle", "8955": "\u0120cheating", "8956": "\u0120Jason", "8957": "bu", "8958": "\u0120trading", "8959": "\u0120raking", "8960": "cat", "8961": "Jessie", "8962": "\u0120explaining", "8963": "\u0120Eric", "8964": "rick", "8965": "\u0120tidied", "8966": "\u0120biscuit", "8967": "\u0120lunchtime", "8968": "\u0120luckily", "8969": "\u0120Ac", "8970": "anced", "8971": "Frog", "8972": "\u0120Puffy", "8973": "\u0120spilling", "8974": "\u0120Day", "8975": "Fire", "8976": "\u0120transform", "8977": "\u0120desserts", "8978": "\u0120Use", "8979": "\u0120Maddy", "8980": "\u0120Daniel", "8981": "\u0120Animal", "8982": "\u00e2\u0122\u00a6", "8983": "ror", "8984": "\u0120Pig", "8985": "\u0120Mine", "8986": "its", "8987": "\u0120Still", "8988": "\u0120Gill", "8989": "rough", "8990": "amma", "8991": "\u0120messages", "8992": "\u0120mirac", "8993": "\u0120Captain", "8994": "idy", "8995": "\u0120windowsill", "8996": "\u0120chill", "8997": "\u0120beating", "8998": "\u0120Tammy", "8999": "\u0120Lung", "9000": "\u0120Gilly", "9001": "oot", "9002": "\u0120seeking", "9003": "\u0120actor", "9004": "\u0120Rainbow", "9005": "\u0120Lina", "9006": "\u0120William", "9007": "sess", "9008": "\u0120Math", "9009": "pril", "9010": "Any", "9011": "\u0120foreshadow", "9012": "war", "9013": "acles", "9014": "Bluey", "9015": "\u0120leans", "9016": "\u0120Step", "9017": "\u0120Pinch", "9018": "\u0120Hi", "9019": "racadabra", "9020": "Freeze", "9021": "Bounce", "9022": "\u0120watermelon", "9023": "\u0120hissing", "9024": "\u0120flashing", "9025": "\u0120dev", "9026": "\u0120cloths", "9027": "\u0120Tiger", "9028": "\u0120Monster", "9029": "\u0120Frankie", "9030": "\u0120winding", "9031": "\u0120positive", "9032": "\u0120funn", "9033": "\u0120discouraged", "9034": "\u0120Wil", "9035": "pop", "9036": "\u0120woodcutter", "9037": "\u0120forts", "9038": "\u0120dripped", "9039": "\u0120compete", "9040": "\u0120teapot", "9041": "\u0120pressing", "9042": "\u0120disagreeing", "9043": "icking", "9044": "\u0120glimmering", "9045": "\u0120veggies", "9046": "\u0120trusts", "9047": "\u0120tidying", "9048": "\u0120kangaroos", "9049": "\u0120Peep", "9050": "\u0120tempted", "9051": "\u0120landing", "9052": "\u0120Flora", "9053": "\u0120dock", "9054": "\u0120shallow", "9055": "\u0120overw", "9056": "\u0120formed", "9057": "lers", "9058": "\u0120rack", "9059": "\u0120fade", "9060": "\u0120Tooth", "9061": "flowers", "9062": "\u0120worst", "9063": "\u0120electric", "9064": "\u0120cops", "9065": "eling", "9066": "Nothing", "9067": "\u0120apology", "9068": "iving", "9069": "creams", "9070": "ai", "9071": "\u0120sleds", "9072": "\u0120Silver", "9073": "\u0120Life", "9074": "upid", "9075": "\u0120comets", "9076": "\u0120ass", "9077": "Owl", "9078": "\u0120sav", "9079": "\u0120Shark", "9080": "\u0120Mag", "9081": "\u0120Jelly", "9082": "Bug", "9083": "\u0120situations", "9084": "\u0120papa", "9085": "\u0120officers", "9086": "\u0120conversation", "9087": "\u01204", "9088": "Rain", "9089": "\u0120Roger", "9090": "\u0120Charlotte", "9091": "storm", "9092": "aye", "9093": "\u0120suns", "9094": "\u0120ding", "9095": "\u00e2\u0122\u013f,", "9096": "\u0120zips", "9097": "\u0120structures", "9098": "\u0120scurrying", "9099": "\u0120pizzas", "9100": "\u0120overwhel", "9101": "\u0120miller", "9102": "\u0120Butter", "9103": "\u0120granddaughter", "9104": "\u0120foggy", "9105": "\u0120Olivia", "9106": "\u0120Hurry", "9107": "\u0120Amber", "9108": "Zoe", "9109": "\u0120Janey", "9110": "\u0120webs", "9111": "\u0120deserved", "9112": "Rabbit", "9113": "\u0120opportunity", "9114": "\u0120cubs", "9115": "\u0120Yummy", "9116": "\u0120Spidey", "9117": "\u0120Sasha", "9118": "\u0120Mixie", "9119": "\u0120Buster", "9120": "\u0120snorted", "9121": "\u0120rhino", "9122": "\u0120differences", "9123": "\u0120Gold", "9124": "\u0120quacking", "9125": "\u0120Tell", "9126": "ifully", "9127": "Fifi", "9128": "\u0120heaven", "9129": "\u0120Birds", "9130": "\u0120unlo", "9131": "\u0120levers", "9132": "\u0120inchworm", "9133": "\u0120inter", "9134": "\u0120approach", "9135": "\u0120Tyler", "9136": "ssess", "9137": "\u0120seagulls", "9138": "\u0120possess", "9139": "\u0120cooperate", "9140": "\u0120Rufus", "9141": "\u0120Felix", "9142": "\u0120Boom", "9143": "welcome", "9144": "sers", "9145": "ragon", "9146": "?\u00e2\u0122\u013f.", "9147": "andra", "9148": "\u0120pose", "9149": "\u0120disappointment", "9150": "\u0120Smoke", "9151": "ocular", "9152": "\u0120speaks", "9153": "\u0120sneaks", "9154": "snap", "9155": "\u0120binocular", "9156": "\u0120artwork", "9157": "\u0120surfed", "9158": "\u0120scowl", "9159": "\u0120answering", "9160": "\u0120Snake", "9161": "\u0120shortcut", "9162": "\u0120Grand", "9163": "\u0120sipped", "9164": "\u0120robin", "9165": "\u0120dep", "9166": "Climb", "9167": "\u0120arrest", "9168": "\u0120Inky", "9169": "ssy", "9170": "\u0120unwrapped", "9171": "\u0120ribbit", "9172": "\u0120reun", "9173": "\u0120amused", "9174": "\u0120Amanda", "9175": "ugar", "9176": "\u0120repeats", "9177": "\u0120pepperoni", "9178": "\u0120applause", "9179": "\u0120keyhole", "9180": "\u0120checkout", "9181": "\u0120Mae", "9182": "\u0120Cars", "9183": "Lia", "9184": "Deal", "9185": "\u0120visitor", "9186": "\u0120striking", "9187": "\u0120puppets", "9188": "\u0120paddling", "9189": "Eat", "9190": "\u0120unz", "9191": "\u0120croaked", "9192": "\u0120attacked", "9193": "\u0120Circle", "9194": "\u0120Brian", "9195": "orsie", "9196": "\u0120spooky", "9197": "\u0120Otto", "9198": "\u0120Gus", "9199": "Each", "9200": "\u0120groaned", "9201": "\u0120beautifully", "9202": "\u0120Jean", "9203": "sie", "9204": "gar", "9205": "cidents", "9206": "\u0120swimsuits", "9207": "\u0120consider", "9208": "\u0120checking", "9209": "uses", "9210": "\u0120Yellow", "9211": "jest", "9212": "\u0120waters", "9213": "\u0120groom", "9214": "\u0120Squeak", "9215": "\u0120Slinky", "9216": "yle", "9217": "\u0120invent", "9218": "Luke", "9219": "\u0120nets", "9220": "\u0120exams", "9221": "otion", "9222": "ets", "9223": "\u0120drying", "9224": "\u0120Rebecca", "9225": "udy", "9226": "artin", "9227": "agine", "9228": "\u0120shrugs", "9229": "\u0120lump", "9230": "\u0120Auntie", "9231": "lest", "9232": "\u0120sobbing", "9233": "\u0120shyly", "9234": "\u0120shoots", "9235": "\u0120honks", "9236": "\u0120heels", "9237": "\u0120cheerfully", "9238": "\u0120Since", "9239": "ili", "9240": "hny", "9241": "esses", "9242": "\u0120shh", "9243": "\u0120chin", "9244": "anish", "9245": "\u0120whimpered", "9246": "\u0120healthier", "9247": "\u0120hangs", "9248": "icious", "9249": "Milo", "9250": "\u0120Mus", "9251": "\u0120caterpillars", "9252": "izzes", "9253": "Slowly", "9254": "\u0120squinted", "9255": "\u0120magnifying", "9256": "\u0120fries", "9257": "\u0120Ratty", "9258": "\u0120fascinating", "9259": "\u0120blamed", "9260": "\u0120Find", "9261": "ulpture", "9262": "ching", "9263": "\u0120sculpture", "9264": "\u0120frustration", "9265": "\u0120Tip", "9266": "ouched", "9267": "\u0120shimmering", "9268": "\u0120Penelope", "9269": "\u0120poss", "9270": "\u0120Peace", "9271": "edic", "9272": "Sharing", "9273": "\u0120suck", "9274": "\u0120pleas", "9275": "\u0120numbered", "9276": "\u0120nibble", "9277": "\u0120Waffle", "9278": "othy", "9279": "ibbles", "9280": "ellie", "9281": "amil", "9282": "\u0120flowing", "9283": "\u0120baa", "9284": "hings", "9285": "Pepper", "9286": "\u0120raked", "9287": "\u0120grumbled", "9288": "\u0120Off", "9289": "that", "9290": "Bubbles", "9291": "\u0120builder", "9292": "racted", "9293": "eat", "9294": "\u0120swaying", "9295": "\u0120petting", "9296": "\u0120guards", "9297": "\u0120facing", "9298": "\u0120Woolly", "9299": "\u0120sprinkle", "9300": "\u0120mysteries", "9301": "\u0120details", "9302": "\u0120Har", "9303": "sey", "9304": "\u0120snort", "9305": "\u0120flock", "9306": "\u0120enemy", "9307": "\u0120Boat", "9308": "\u0120textures", "9309": "\u0120tablet", "9310": "\u0120goodies", "9311": "\u0120Curious", "9312": "\u0120Barry", "9313": "Yesterday", "9314": "\u0120wig", "9315": "\u0120popping", "9316": "\u0120wildflowers", "9317": "\u0120stacks", "9318": "\u0120marve", "9319": "\u0120fans", "9320": "\u0120crops", "9321": "\u0120countries", "9322": "\u0120Jenn", "9323": "\u0120Gracie", "9324": "how", "9325": "\u0120knobs", "9326": "\u0120Tessa", "9327": "\u0120Seeing", "9328": "\u0120local", "9329": "\u0120bushy", "9330": "\u0120stew", "9331": "\u0120peeped", "9332": "\u0120hunting", "9333": "\u0120drowned", "9334": "\u0120bowing", "9335": "\u0120binoculars", "9336": "\u0120angrier", "9337": "\u0120Bubu", "9338": "\u0120maps", "9339": "\u0120Match", "9340": "\u0120quizzes", "9341": "\u0120niece", "9342": "\u0120moonlight", "9343": "\u0120Glow", "9344": "\u0120outfits", "9345": "\u0120Johnson", "9346": "\u0120Deal", "9347": "OO", "9348": "\u0120whoosh",
[...]
